[PAD]
[UNK]
[CLS]
[SEP]
[MASK]
!
"
,
-
.
0
1
2
3
4
5
6
7
8
9
?
_
a
b
c
d
e
f
g
h
i
j
k
l
m
n
o
p
q
r
s
t
u
v
w
x
y
z
ß
à
á
â
ã
ä
ç
è
é
ê
ì
í
ò
ó
ô
õ
ù
ú
û
ü
ý
ă
č
đ
ĩ
ō
š
ũ
ū
ơ
ư
δ
ι
ạ
ả
ấ
ầ
ẩ
ẫ
ậ
ắ
ằ
ẳ
ẵ
ặ
ẹ
ẻ
ẽ
ế
ề
ể
ễ
ệ
ỉ
ị
ọ
ỏ
ố
ồ
ổ
ỗ
ộ
ớ
ờ
ở
ỡ
ợ
ụ
ủ
ứ
ừ
ử
ữ
ự
ỳ
ỵ
ỷ
ỹ
人
口
##e
##_
##b
##ồ
##n
##a
##g
##i
##s
##h
##ầ
##t
##ư
##ớ
##f
##3
##8
##r
##o
##ă
##đ
##ắ
##p
##u
##ù
##x
##c
##ợ
##ạ
##m
##ả
##y
##k
##v
##ậ
##ọ
##ã
##j
##ệ
##q
##d
##ẻ
##ờ
##ý
##ế
##ẹ
##ố
##ụ
##ở
##ấ
##á
##l
##ử
##ẳ
##ứ
##ó
##2
##ặ
##ủ
##ữ
##ể
##ơ
##z
##â
##ị
##ổ
##ề
##é
##ễ
##ê
##ộ
##ò
##ô
##í
##ẫ
##ẩ
##ự
##ỏ
##ì
##à
##ỵ
##ú
##õ
##ỉ
##è
##ỳ
##ĩ
##0
##1
##7
##w
##5
##ỡ
##ũ
##ỷ
##ỗ
##ẽ
##ừ
##ỹ
##ằ
##4
##9
##6
##ä
##ç
##ō
##ẵ
##ū
##ü
##ß
##û
##š
##č
##.
##-
##δ
##ι
##ng
##nh
##ôi
kh
##_t
nh
tôi
th
ch
ng
##ông
tr
không
và
##_th
có
là
##ch
##ên
##ột
##ời
một
đó
nó
như
##n_
đi
ph
##_l
củ
của
##iế
##_đ
##ều
##ay
##_v
##ười
##uy
##iệ
##ại
##ạn
gi
##ượ
khi
##_h
##ới
bạn
nói
anh
##_thể
đã
##_ch
##ất
sa
người
##ình
##_nh
##_g
##ang
##ược
ấy
##_s
##ày
##_c
được
##ong
ngh
qu
điều
##ác
##iên
##ải
với
trong
##am
##ững
##uố
sẽ
những
gì
cô
đang
##ầu
##_gi
##ấy
cả
##úng
##_d
nhưng
##ậy
ra
##ến
##ướ
lại
đến
##_m
##_n
vào
phải
##ai
##_tr
##ườ
##ường
có_thể
##ách
##ần
##in
##hi
##an
yu
này
mình
##ước
##ây
##_k
nhì
về
##_b
làm
##ật
nhìn
cũ
họ
##ái
nghĩ
##ào
##iết
##ằng
##ắt
cũng
cho
##iể
##âu
##ối
##_ng
##àng
##ồi
##ao
##ực
chúng
##ếu
##ết
hơ
từ
##_nhiên
##ặt
##shi
##iệc
sau
mà
##ài
##ỏi
nếu
##ận
##ện
##ống
chúng_t
để
##úc
##ùng
cảm
##ành
chỉ
##ức
##ama
vì
##uốn
thì
##ắc
nên
thấy
##ino
##anh
##uyện
sự
##ắng
##ọi
tuy
##iều
##ữa
##ơi
vậy
khác
##òn
##_r
##áng
trước
##òng
##inh
rồi
hơn
đầu
##ta
tiế
##ph
trên
##ặc
ho
biết
rằng
rất
##ưa
không_thể
##ích
lên
##ka
##iện
##iểu
##uộ
##ẫn
##kino
còn
muốn
yukino
##om
##_vậy
##àn
##ổi
##eo
nào
##ig
##ọng
##_vẻ
hay
##_kh
##_ph
##ọc
bị
##au
nhiều
thực
##_lẽ
việc
đây
##ung
##shita
##ươ
yukinoshita
thế
san
##uộc
##ương
##ah
##en
##út
##ân
ngay
thời
##_q
##ạnh
##án
##on
chiế
các
##ốt
##ậu
##_ngh
chúng_tôi
tuy_nhiên
qua
##ục
câu
hỏi
##át
có_lẽ
##ra
##ộng
##ửa
##ahama
có_vẻ
##igahama
yuigahama
vẫn
##ính
nhà
##su
##ạc
ngày
tự
thật
cậu
##êu
##ki
##_qu
nhau
tay
mặt
cách
##ắn
##ập
##ội
đúng
hai
##_đầu
##n_đ
thứ
##ừng
lúc
bắt
mọi
cười
##iến
##ăng
##ứng
như_vậy
##_x
cảm_th
##áo
##ánh
chiếc
cảm_thấy
theo
##ịnh
##_cách
##_gian
nghe
lớ
tốt
lời
hiểu
giống
học
##_giờ
##_chuyện
lo
##se
##tsu
khó
ngo
trở
bằng
##ấu
##ăm
thời_gian
to
##_sự
chúng_ta
ta
##iệu
##chi
##êm
##ản
lần
cố
##uối
##ồng
cái
##_việc
##ya
bắt_đầu
phòng
nhận
ai
##n_h
##ặp
##ỗi
mắt
##ắm
##_sao
cuộc
thực_sự
##un
bên
ngoài
##ảy
##âm
##óng
##uống
##uyết
sao
##_cả
bất
cuối
##ảng
chắc
quá
trả
##ưở
tại
##n_l
cần
##ngo
##n_b
##ấp
##ầm
##_học
##iểm
te
xe
con
##_động
##_định
phí
##ãy
trường
##achi
##ưởng
##iệt
tengo
cơ
công
cùng
##ượng
giọng
phía
##_nghĩ
kom
nữa
##ăn
chưa
tiếp
##ợi
##_cùng
hãy
aya
dù
##uổi
tất
##ri
cửa
xuống
##ợp
thành
##ặng
##uô
kun
một_cách
khỏi
mặc
kho
gái
quay
bao
ayase
tiếng
##_lời
bước
##ura
trả_lời
đâu
##ền
gần
đều
hi
thay
gặp
##àn_
chính
##ui
##sa
##ạo
##oán
##_do
hơi
cuối_cùng
chuyện
gọi
ti
##ừa
##gi
tại_sao
##ìm
lý
##_gắng
cố_gắng
##m_ch
thôi
##ẳng
ba
nhất
##_giác
##ạt
##_sinh
kết
hô
komachi
##ame
năm
ông
thế_n
vui
thích
đưa
##ịch
##tsuka
##_chắn
đối
nhẹ
chắc_chắn
nghi
ánh
##ây_giờ
bây_giờ
hôm
##ét
aom
aomame
mi
sen
##ụng
lý_do
##ốc
is
đồng
##shiki
xảy
##óc
bình
##_như
hoặc
isshiki
mất
tìm
##_hợp
##_viên
##_hiện
cảm_giác
tình
nơi
đôi
##_thành
gh
suy
trông
##ảo
##ịu
##wa
##_thường
##ọn
ngồi
##_dù
dễ
đường
như_thể
mới
##_tục
##ơn
##ắp
lớp
lấy
##n_t
##ệt
##n_m
##áy
nhanh
##_lạc
khiến
thở
mở
giờ
##_chút
quan
thông
đáng
##_tho
thường
##_hàng
##àn_t
vừa
##ởi
##ướng
##_lại
##áp
một_chút
hayama
giải
em
##_nhận
##_tâm
lo_l
##_thế
##aa
đứng
lo_lắng
kỳ
lớn
##ua
nhỏ
làm_việc
dường
dường_như
xem
##úi
đặt
yêu
tất_cả
##_biệt
##_ý
ăn
chi
bỏ
nói_chuyện
đột
đoán
bộ
sách
##_đổi
##ầy
##uyể
quyết
chà
trò
suy_nghĩ
giữa
mặc_dù
co
##ẹp
tiếp_tục
bố
##ựa
vì_vậy
##ói
##_bộ
mù
rõ
##ảnh
##n_n
nhớ
sống
##n_ng
khoảng
vẻ
tên
chạ
##ón
##_tiên
ma
cạnh
##oàn
quyết_định
##iệm
##ami
##ậm_ch
##ãi
điện
bao_giờ
mức
hành
##amura
di
##uất
##ân_
tương
đàn_
sáng
##ằm
thậm_ch
thậm_chí
học_sinh
chủ
##_nhất
##_dụng
##samura
##n_đề
##ku
##uyên
thu
trung
##_ra
phụ
vấ
vấn_đề
##_nay
đọc
asamura
do
##_lặng
##_là
##_hội
khá
đột_nhiên
chu
##_nên
##_rối
đầu_tiên
rời
câu_lạc
##_số
câu_lạc_bộ
##ạng
##_mắt
##ản_
bóng
bởi
viết
nước
##éo
màu
##mo
##úp
##n_th
ki
mẹ
##_giới
phát
##_thoại
##to
đàn_ông
liên
##uyển
vô
##_ho
ngủ
trẻ
##iệng
nụ
im
công_việc
##_cứ
hiện
##_thức
thay_đổi
thế_này
##_trọng
##ẩm
trở_nên
im_lặng
##_độ
cao
xa
nhẹ_nh
##_dài
##_tế
tin
mỉ
số
đánh
##ần_
##_thích
cuốn
fu
##_ơn
khuô
đặc
từng
điện_thoại
chết
##_điểm
hôm_nay
thế_giới
hết
##atsu
ngạc
ngạc_nhiên
hoàn_t
##_chỉ
đồ
##ko
loại
##pai
##_năng
senpai
mỉm
đừng
##uôn
##n_c
##ứa
##n_s
phần
##_thật
##ĩnh
tuyệt
##n_mặt
##_tiế
một_số
trở_thành
hoàn_toàn
chút
##za
bình_thường
mua
lạnh
bầu
ko
hình
##êng
chơi
##_vọng
buổi
##_chịu
##_tay
bán
##_lạ
hàng
khuôn_mặt
dậy
##iếm
sử
kể
tuổi
mang
##ưng
như_thế
xi
ghế
xấu
##_chóng
duy
##_kỳ
##im
nhanh_chóng
##_với
##ấm
luôn
hira
##n_lỗi
xin_lỗi
bản
điể
##_quanh
đối_với
âm
sinh
tới
hiratsuka
##ám
##_thúc
bài
##_khí
chẳng
sợ
nghĩa
đặc_biệt
thêm
sâu
kết_thúc
##_nữ
gật
tối
tưởng
totsuka
##aya
quan_tâm
giả
dừng
bu
xung
xuất
##òa
##_nào
tham
##saka
kiểm
sắp
##ưới
##âng
rõ_r
chỗ
câu_chuyện
##_trí
##ượt
xong
##moku
##ru
nghiêm
bất_cứ
điểm
máy
chân
mong
##_tra
sử_dụng
càng
rõ_ràng
hướng
nghỉ
##_nói
cảm_ơn
##mokuza
##aimokuza
##ạch
##ếp
lâu
##_tự
##_mình
##_thân
so
sang
phụ_nữ
tư
##ỉnh
mùa
##n_gi
kỳ_lạ
bàn
##óm
tho
thở_dài
zaimokuza
xung_quanh
đầy
cửa_hàng
uống
##uri
cơ_thể
tập
##_nghĩa
hino
giúp
duy_nhất
thực_tế
##_tượng
##_lập
##ano
##mi
##_lực
trò_chuyện
tổ
##ớt
dài
biến
lời_nói
ka
##ấn
##_lòng
túi
tất_nhiên
##_trời
tiền
áo
tháng
mối
chuẩ
nhẹ_nhàng
trung_học
##_tĩnh
cổ
##ạp
đủ
##kawa
thế_nào
đau
##_cầu
##n_bị
chuẩn_bị
tai
##_thương
liệu
mạnh
##_ngờ
##zu
##iệp
##ii
##iêu
kiểm_tra
ổn
chạy
tạo
##ịp
thể
##ồn
sai
##_đợi
##_dàng
vai
##_tưởng
vài
##ạm
khó_chịu
dưới
##_lý
##_kho
##_gia
yêu_cầu
khách
##_vì
##iển
giáo
##ệnh
dành
##sei
##ép
vui_vẻ
##ễn
##_quan
mỗi
ít
cứ
##be
tương_tự
##ôn
một_mình
dùng
##_bản
##_phục
quan_h
##_y
sensei
quan_hệ
khu
gia
##shikawa
##_cảm
##ke
##ưỡ
##_thanh
##_sống
cầu
dự
##aaaa
hề
##_tức
ushikawa
##_mặt
##_quả
chào
##ọt
cá
đêm
##iếu
##_khi
tiểu
trái
nắm
xin
khả
miệng
##kh
cha
phản_
chan
chú
##ro
##ềm
##_túc
cà
##_nhân
##_tin
nhân_
âm_thanh
vâng
##mm
kéo
##_thiết
cảnh
bản_thân
quần_
nghiêm_túc
món
cuộc_sống
##ốn
lễ
khả_năng
trang
lắm
##ớm
fuka
đại
đơ
nhóm
dễ_dàng
##uốt
ừm
##kano
tobe
đợi
ảnh
quan_trọng
kia
cánh
##_gái
trường_hợp
sớm
miura
quen
##uyền
##_trường
định
##uật
giữ
đứa
##gami
##_liệu
hatsu
##_qua
giải_thích
##_vời
lưng
rắc
đấy
kinh
##ít
##_chọn
thời_điểm
đẹp
##ỏng
lựa
##_hồ
lựa_chọn
##_khăn
##n_d
khó_khăn
sagami
##em
##ara
cấp
quanh
kỹ
thi
##_vị
##ẩn_th
rắc_rối
##ẩy
thẳng
tham_gia
##_minh
đông
##_sức
hành_động
##ợt
trai
chị
nổi
##uận
chăm
vị
giao
bữa
##_vụ
bảo
##_sổ
sự_thật
lòng
xuất_hiện
ký
tâm
hatsukano
##_sáng
##_xúc
##_tại
##_hơi
##ớn
ngón
nhé
hơn_n
hơn_nữa
bối
thư
tính
con_ng
độ
gây
bất_kỳ
con_người
cửa_sổ
hiện_tại
vòng
hoạt
bà
##ậm
##n_ch
quên
##uu
đề
hoạt_động
##óa
chờ
ấm
ý_nghĩa
##_kiện
##ót
##ộp
chặt
tuyệt_vời
yên
đáp
đóng
cây
cẩn_th
anh_ch
dễ_thương
cẩn_thận
nhân_v
thực_hiện
mơ
nhờ
##_chuyển
đơn_gi
bánh
##ba
##_nữa
đơn_giản
##àu
##_đình
##_hổ
##omi
gia_đình
chuyển
trắng
ri
##_hết
##_lượng
chạm
quần_áo
lắc
trở_lại
yếu
quả
kẻ
xấu_hổ
hầu
##ưỡng
ngoài_ra
hmm
##_điều
##_lập_tức
##_ăn
##ẳn
dù_sao
##n_r
ngay_lập_tức
sức
hài
tài
##_tập
chọn
tưởng_tượng
bình_tĩnh
##n_v
nằm
gió
##_ích
hội
##_cuộc
##_đi
môi
##_hình
bối_rối
##ina
##ãn
##_lệ
thị
ngừng
giới
##_không
bí
##_trai
lắng
##èo
##_chơi
##ặn
##_kiến
eb
##_đó
##ồn_t
trống
trà
##_trung
##ựng
thú
##ửi
##ùa
##ảm
đè
##_tiện
##uốc
như_thế_nào
##yo
##_đây
bức
##ịa
##n_nh
##_xác
##da
bởi_vì
lã
##áu
đồng_ý
phù
mùi
thất
mục
##ém
tệ
lối
bầu_trời
giấy
ấn_t
ấn_tượng
##_tiếp
##_nghiệp
kiểu
##iếc
##_nghe
me
nữ
##_luận
động
chú_ý
##_giá
##ươi
##ằm_ch
chằm_ch
chằm_chằm
nóng
kế
tiếp_th
nội
##ăn_h
##õi
coi
kosaka
kịp
em_gái
##_thuyết
ánh_sáng
##omiuri
tóc
##_kiếm
##saki
chính_xác
hợp
##ana
di_chuyển
kawa
##_tính
giá
tấm
##ẩn
tìm_kiếm
dựa
##_dối
cảm_xúc
đen
thử
##_phê
phản_ứng
không_chỉ
cà_phê
đỏ
trời
tránh
biểu
mái
tu
##_cửa
xác
yomiuri
trải
lạ
lắng_nghe
bàn_t
##_mẹ
nghiêng
chấp
nghi_ngờ
riêng
thiếu
##_ảnh
ngực
phút
##_trình
lớp_học
địa
tồn_t
giỏi
tồn_tại
vang
tiếp_theo
##_tiếng
##_gì
tự_nhiên
maru
mong_đợi
thông_minh
một_hơi
thân
hiệu
nặng
##er
nghĩa_là
ebina
##_miệng
bàn_tay
chịu
hết_sức
cơn
cầm
##_sắc
hòa
bật
##agi
hạnh
rượ
##eri
##li
##_phúc
rượu
mười
tỏ
ru
xanh
##_chức
##_tiết
##_mai
tác
##_thuật
diễn
##_hoạch
giáo_viên
hạnh_phúc
cắt
cúi
kawasaki
liếc
phù_hợp
##_không_khí
##uộn
##_quyết
chia
tắm
liên_quan
anh_chàng
##kig
##ấc
##_tình
đời
##_tác
cần_thiết
gửi
##ụp
chậm
tập_trung
ngu
nửa
rơi
##_lùng
##kigaya
##_bỏ
fukaeri
##_thời
trước_đây
vết
sự_kiện
bầu_không_khí
##_vực
kế_hoạch
góc
yo
##ạy
không_khí
thuốc
lịch
hát
ngôi
hài_lòng
tòa
##n_kh
bước_đi
ghét
ít_nhất
hikigaya
chấp_nhận
##uyến
thông_tin
mệt
saki
báo
hè
##_dõi
##_đẹp
hả
tiến
ha
##_ức
ngon
thành_thật
trực
theo_dõi
bạ
nay
ký_ức
##_đề
giường
tổ_chức
trò_chơi
##_dục
##_tịch
đại_học
aki
##_từ
khác_biệt
nấu
thành_viên
##amizu
lễ_hội
nhắm
lặng
chủ_tịch
kính
tama
nguyên
ghi
tàu
ý_định
##n_ph
anh_trai
họp
buồ
##_tóc
mamizu
che
##_thầm
##_nhật
##_đoán
tỉnh
lặng_lẽ
##_yêu
mời
miya
tiểu_học
xu
đèn
căn
trôi
ý_tưởng
tồi
miyagi
đổ
gọi_là
kết_quả
##ẫu
nhật
##_trạng
komatsu
hẹ
sẵ
##_hiệu
##ẫy
##_nghiệm
tăng
cảm_nhận
lắc_đầu
##ìa
đâu_đó
buộc
mưa
##_em
##oạn
chàng
##ải_m
bệnh
##_thuộc
biển
xo
akiko
may
vội
phim
##_trùng
khoảng_cách
##_nhiêu
##n_hình
mèo
tầm
giơ
thức
ban_đ
giết
chứ
##_dẫn
thu_h
hộp
chung
##n_bè
##_mẽ
mạnh_mẽ
vỗ
ôm
##n_g
##_ngo
bạn_bè
hy
dấu
##_báo
##_chối
##_niệm
từ_chối
cứng
ngắn
đi_nữa
##_đời
##_di
hoàn
vượt
chuyến
quy
chiều
bao_nhiêu
tuần
##ộn
lá
đội
lỗi
##_sát
sanagi
maaya
vị_trí
nhân_viên
##_đơn
##uya
##man
##_hạn
##aaaaaaaa
meg
đeo
tiêu
chiba
thái
tinh
##_hẳn
chắc_hẳn
sh
##én
##_tim
##_lai
lạnh_lùng
##iền
##ầng
##_thang
##ải_mái
##usa
##_hôn
thoải_mái
khu_vực
ga
##ùi
##ủy
cực
giây
sở
##_nhớ
trái_tim
##_tệ
##re
thú_vị
thì_thầm
##ono
dòng
giảm
hầu_hết
dịch
ngang
cụ
phả
##_dự
tương_lai
meguri
ý_kiến
##do
##arasaka
##ha
##õm
biết_điều
cơ_hội
đồng_hồ
##igusa
##_khoác
chigusa
mái_tóc
##_hiểm
vũ
##_chí
đôi_khi
trao
##_khắc
cử
ngược
muộn
##achiman
áo_khoác
đẩy
hoa
ngày_mai
bất_ngờ
giải_quyết
hoàn_thành
narasaka
đế
##_tối
##_trị
lẽ
liên_lạc
sinh_viên
chồng
chợt
##_hành
chiếu
##_thao
##_bẩm
nhân
mở_miệng
chủ_đề
nhẹ_nhõm
chờ_đợi
lẩm
bố_mẹ
lẩm_bẩm
##_vật
hành_l
ni
tường
tức
phong
nghĩ_lại
##iiii
ca
hít
##_đỡ
##_mỏi
khóc
##_xử
mệt_mỏi
nở
xếp
giúp_đỡ
thể_thao
##_dung
##n_sát
ngọt
phương
##_cảnh
băng
##key
dự_đoán
##_nhiệm
miễ
hachiman
##_giận
từ_từ
quan_sát
tồi_tệ
10
##èm
##_muốn
thực_ra
tạm
##umi
##_thoảng
ném
##_thực
da
##_sở
trưa
##_rãi
##ckey
hy_vọng
nguy
giấc
căn_h
nam
##_mật
diễ
căn_hộ
##_pháp
##_phố
độc
##ĩa
##_thần
du
má
ví
vẫy
đánh_giá
hành_lang
đấu
nổi_tiếng
shi
##ỗng
##_viện
tiếc
đám
vă
tiề
tiểu_thuyết
##_vi
đá
mơ_hồ
cá_nhân
##_công
nỗi
thoát
hiệ
rộng
công_t
quà
làm_gì
thường_lệ
chụp
trí
bốn
thu_hút
tức_giận
##_tử
thất_vọng
chi_tiết
bí_mật
danh
##ỏa
áp
thiết
hickey
khung
dần
##n_khích
lẽ_ra
cực_kỳ
##_thú
mồ
khoảnh
thể_hiện
khoảnh_khắc
##iếng
##_đích
bé
trầm
##_lớn
##_vấn
dẫn
tầng
##_áp
##_vệ
khách_hàng
đạt
vội_v
cho_dù
##_hè
##_phẩm
nhạc
nhân_tiện
##_mạnh
thuộc
trượt
mục_đích
##_lầm
chăm_chỉ
đập
tí
nhiệt
##_huống
##_trang
tình_huống
ấm_áp
xác_nhận
##_xuyên
##_cứu
vi
thường_xuyên
##_cơ
vật
##_thiện
phấ
căng
hu
ngốc
hạ
chữ
trốn
quen_thuộc
tù
trận
##_lộ
##uuuu
##ứt
##n_lý
hình_ảnh
nhắm_mắt
##ẫm
khe
nội_dung
nắng
công_viên
vụ
##ỉnh_thoảng
suốt
##ow
##ũi
thỉnh_thoảng
##_triển
ngoại
gõ
hồi
thấp
phủ
sai_lầm
an_t
chá
##_hướng
trao_đổi
##iếp
##_trợ
thay_vì
cặp
xinh
##ão
nhảy
##_diện
##ủng
yui
thuyết
##_bị
dọc
##ớp
mong_muốn
niềm
##n_động
trực_tiếp
##ji
##la
##_sư
an_toàn
bay
bơi
đồng_phục
cay
mắc
phá
chậm_rãi
tamar
ý_thức
ồn_
##_thẳng
##_hãi
xinh_đẹp
ồn_ào
bậ
khắp
trách
tư_cách
##ee
##_ít
chuyể
bóng_tối
nguy_hiểm
cốc
số_lượng
##_thủ
cụ_thể
la
xã
xử
##_dụ
phấn_khích
rút
tình_yêu
yoshi
thái_độ
dây
##uôi
##àn_h
cuộc_đời
ví_dụ
##àn_hảo
##ần_l
chứng
##_trăng
do_dự
vô_cùng
sợ_hãi
chó
##_cấp
thị_tr
tủ
hoàn_hảo
hỗ
lợi
##_thiệu
thông_báo
công_ty
thị_trấn
dạy
cô_đơn
##n_công
giới_thiệu
ngược_lại
##_điệu
thịt
20
##n_x
##_ga
##_già
khóa
##roha
##_chăng
dịch_vụ
##ry
##uka
##_kể
giáng
##_mừng
##ail
hôm_qua
bớt
ly
tạp
tùy
khô
##_hôi
nhà_ga
mồ_hôi
in
tsu
##_càng
buồn
đậu
##ưu
chất
truyền
##n_thương
na
sân
##_chú
##_xếp
thành_phố
lừa
rốt
mặt_trời
trung_tâm
may_m
rốt_cuộc
lấp
tiết
giày
cầu_thang
tắt
thổi
##_đớn
##_vờ
yuta
giả_vờ
đau_đớn
eri
tờ
##_hoàng
phát_hiện
tranh
##_bại
đồng_thời
may_mắn
ban
kiên
tậ
vợ
##_ngốc
lãng
đảm
phép
##_lạnh
haya
##n_bộ
kỷ
##ẹo
##_đắng
mở_cửa
##ần_d
koz
ban_đầu
shin
sàn
##ỏe
tình_hình
nấu_ăn
vũ_hội
giáng_sinh
bãi
dần_d
thăm
##_lo
##_sắm
mua_sắm
cay_đắng
dần_dần
sơ
##hara
##ýt
##ò_m
một_ít
quán
##_rỗng
sắp_xếp
cởi
lặp
##et
##ủi
bỏ_cuộc
chuông
bản_
##_cực
##_phí
##ữu
##_toán
chống
trừng
cơ_bản
kozono
bảng
##_gọi
tự_tin
thông_thường
luyện
##ín
ngă
##n_sàng
hình_d
sẵn_sàng
chuyên
ngước
##_khác
tựa
##ãng
truy
##moto
sức_mạnh
thuyết_phục
bận
đĩa
##ayama
##_hỏi
##_cáo
cơm
vui_lòng
email
nghỉ_ng
mặt_khác
##rimoto
hayato
nghỉ_ngơi
##_ớt
thiên
chương
##_thống
quầy
để_ý
thành_công
trống_rỗng
địa_điểm
sốc
ngắ
##_cử
tim
sâu_sắc
khung_cảnh
kiếm
lập
ống
##le
thầy
##_thù
ngày_càng
##àn_n
nhật_bản
iroha
vuốt
ép
thủ
tuyể
##n_hò
hẹn_hò
##_so
##_sĩ
quá_kh
yếu_ớt
tiền_b
hét
khuyên
hiệu_quả
##_hại
tự_do
mặt_trăng
bảo_vệ
##ẩu
ngụ
##_chứng
xu_hướng
no
tích
##bu
nhận_thức
tử
nhắc
trưởng
phàn_n
tổn_thương
yên_tĩnh
phàn_nàn
bông
tiệc
##_thái
touka
##lis
##ss
ướ
mức_độ
run_r
xã_hội
ước
hồ
kêu
chiến_th
tự_động
tính_cách
váy
nhắn
##_đạp
##iên_cứu
##_xét
đến_n
kích
rung
##_to
không_thể_nào
tâm_trí
sở_thích
dạo
súng
đương
từ_bỏ
đối_xử
đi_chăng
##_sách
##_bảo
đi_chăng_nữa
hối
hóa
##_ẩn
tò_m
đùa
##_sóc
##ướt
chăm_sóc
tò_mò
quá_khứ
##_lịch
sinh_nhật
##ưỡi
tách
##ẹt
##_đựng
##_phạm
cứu
hiếm
thua
xe_đạp
hút
phục
tốt_nghiệp
lau
##n_trùng
##uýt
nhịp
côn_trùng
##_ngữ
mãi
##aha
dịu
gương
lộ
lái
##_tiêu
nhặt
##_phép
bất_thường
cảnh_sát
nhân_vật
tam
thích_hợp
tình_c
hướng_dẫn
trách_nhiệm
tốc
vốn
##n_đối
##_tắc
ngã
##_đồng
dấu_hiệu
căng_thẳng
hương
lầm
sân_
##ởm
##ân_b
ngu_ngốc
đương_nhiên
tình_cờ
bếp
lao
tội
##hh
thương
chảy
##_trò
##_trì
tinh_thần
run_rẩy
cằm
##_p
##n_điểm
đối_mặt
kayama
mây
máu
##_tởm
##_hệ
hoàn_
quan_điểm
mảnh
làm_vậy
yukinon
choáng
nhất_định
tình_trạng
xem_xét
tâm_trạng
bìa
siêu
thơ
##_ngột
đột_ngột
nghỉ_hè
kỹ_năng
tốc_độ
thanh
thốt
##_đạo
##_nhạc
nghiên_cứu
##_ký
giao_tiếp
##_diễn
khăn
màn_hình
cú
tấ
chúc
##n_ngợi
tươi
khen_ngợi
chiến_thắng
tấn_công
orimoto
sắc
##_đồ
##n_đạt
##_xuất
cuộc_gọi
tài_liệu
vội_vàng
30
mờ
##_làm
hinohara
tận
khủng
nói_dối
##_tranh
bỏ_qua
biểu_cảm
kim
chuyển_động
đảm_bảo
ảo
##ồm
##inami
đối_diện
liên_tục
chia_tay
tiền_bối
gấp
nỗ
làn
##_đùa
##_vai
tác_phẩm
nỗ_lực
##ho
trừ
đất
##ll
khỏe
##ên_r
đồ_ăn
gợi
mềm
mũi
say
##udo
##kyo
tình_cảm
cử_động
đằng
##cảnh
##_mi
kết_luận
buông
hẳn
vàng
##_hưởng
hủy
sáu
không_gian
##_lát
##_nghị
nhà_hàng
##n_nản
phát_triển
chán_nản
đổi
một_khi
kéo_dài
đề_c
mục_tiêu
phản_đối
xét
##_áo
nhấp
nhầm
##_trách
##_nguyện
nướng
##so
thô
##anawa
tạp_chí
mô
ngọn
ngẫu
phớt
##_bố
##_yếu
dọ
##_bạn
điện_thoại_di
##n_viên
thất_bại
điện_thoại_di_động
##st
phiền
##_bình
việc_làm
nước_mắt
hệ
lon
##_lờ
##_sử
##_nề
giá_trị
chịu_đựng
trí_nhớ
phủ_nhận
##_ngày
##suke
##_quen
động_lực
thân_thiết
nặng_nề
kỷ_niệm
tamanawa
đăng
hẹn
hoàn_cảnh
kyo
mỏng
núi
tô
văn_h
##_hào
##_giáo
toà
dày
lật
##kama
##_tá
tokyo
quá_trình
hành_vi
cánh_tay
##n_phòng
phớt_lờ
súp
##_tích
thắng
thảo
ngờ
lúc_nào
lửa
y_tá
điếu
trưởng_thành
##he
##_phương
toàn_bộ
thừa
trần
##_mắc
khoa
phi
##_còn
##_niên
yoshida
sân_kh
##kamachi
pha
##_lánh
trang_phục
ngẫu_nhiên
sân_khấu
##men
trăng
##_lâu
giảng
nghệ
máy_tính
quản_lý
chứa
##ượn
tuyết
hoàng
tự_hào
xử_lý
hệ_thống
an
hắng
mà_còn
lời_nói_dối
xoa
đề_cập
vỡ
##_biến
vô_nghĩa
##aaaaaaaaaaaaaaaa
vẽ
thắc
hỏi_liệu
văn_phòng
thắc_mắc
bi
hữu
lùi
##_tạo
ảnh_hưởng
hầu_như
himen
##iiiiiiii
dao
chìm
##_nối
##_bật
biết_ơn
học_tập
tin_tưởng
bí_ẩn
trải_nghiệm
ngụm
ướt
##el
##kura
##wana
phó
cho_phép
##_ngoài
nọ
##yumi
có_điều
lãnh
xếp_hàng
bận_r
##ụt
##òi
##_mì
phong_cách
hứng
sạch
nhiệm
ngắm
bận_rộn
##_thơ
điệ
##_cận
##_phải
##_xe
ayumi
linh
miếng
sản_
##ngập
tràn_
##_váng
##_khiếp
loại_bỏ
giáo_sư
hỗ_trợ
choáng_váng
khủng_khiếp
tràn_ngập
kệ
đảo
##buya
##_ngào
tiếp_cận
vai_trò
shibuya
##fa
##kk
chớp
phức
##_mạn
##n_hưởng
tình_dục
tận_hưởng
nhiệm_vụ
##_buýt
##salis
##rysalis
cạo
sửa
phổ
##_hộ
##_gồm
air
bao_gồm
ngọt_ngào
trừng_mắt
cộng
##ga
##_phận
##n_lợi
##n_bã
thay_thế
phục_vụ
bác
cam
lượng
##_tạp
##_sót
##_mày
##_ngùng
##_rỡ
nổi_bật
tử_tế
cải
hào
hứa
đào
##ộc
màn
dễ_chịu
##_hoa
cổng
kỹ_thuật
phương_pháp
thảo_luận
kiến
mấy
xây
##m_
##n_sinh
cảnh_tượng
##n_diện
xoay
dán
rảnh
ngày_nay
liên_hệ
tư_thế
nguyên_nhân
##n_gọn
ngắn_gọn
đến_nỗi
phức_tạp
bảy
hắn
tặng
ôi
ứng
##qu
##ển
trình
##_thông
##_nửa
chị_gái
hiể
lẫn
tóm
nhựa
pháo
##_văn
ban_đêm
##_tỏ
##_đất
##_chất
##_dân
vì_thế
vỗ_tay
bụng
reo
kết_nối
kawana
năng
on
xóa
thỏa
##_trẻ
bất_kể
bánh_mì
lơ
lông
lặn
##óp
##_dựng
khoanh
âm_nhạc
tổng
sẵn
hứng_thú
bày
##_nhạt
##_trừ
thời_trang
fuj
kinh_ng
đề_nghị
lấp_lánh
truyề
hấp
sô
sôi
ngượng
trêu
một_nửa
##ine
bộ_đồ
bả
nảy
wow
##ễu
##_tinh
thang
treo
##n_k
phạm
cha_mẹ
##_buộc
trung_học_cơ
hiện_diện
phổ_biến
trung_học_cơ_sở
##00
##_dương
##_biết
thường_ngày
cổ_h
lễ_hội_trường
cung
##te
##_tốc
##ưởi
thư_viện
đề_xuất
hợp_lý
chrysalis
ngưỡng
##_khích
công_c
kinh_nghiệm
tác_dụng
giây_lát
nhiệt_độ
rửa
tái
##_ứng
chọc
có_mặt
##_mộ
##_nghi
hoảng
trường_học
nút
vùng
##úa
##_tư
ngươi
##_bằng
tốt_đẹp
tuyệt_vọng
anh_chị
##ma
##ụi
già
fukamachi
sofa
lái_xe
##_phi
ngượng_ngùng
cổ_họng
thả
triệu
##_đắn
##_mãi
tuyên
đúng_đắn
xuất_bản
anh_chị_em
pre
người_yêu
duy_trì
hữu_ích
kém
mượn
nuốt
chế
phỏng
giành
##_giấu
rau
kết_hợp
môi_trường
mãi_mãi
rừng
tiệ
đựng
quý
##_nước
##_ngủ
##àng_hoàng
##n_dẹp
lịch_sử
dọn_dẹp
că
dâu
##sto
nghịch
màu_sắc
hư
môn
tha
trại
người_lớn
quái
chăm_chú
che_giấu
kiến_thức
rên_r
trùng
##_đại
##_bệnh
xe_buýt
rên_rỉ
ác
xuân
du_lịch
danh_sách
hối_h
điệu
bắn
lát
ăn_m
khúc
##_nhập
##_sạn
làm_sao
hoài
đáng_lẽ
tạm_thời
shinj
hình_dạng
tích_cực
kinh_ngạc
mẫu
đuổi
khí
##_chữa
##_máy
khách_sạn
nghệ_thuật
xây_dựng
fujinami
lỡ
sổ
##_tả
nhú
##_tròn
##_kế
giới_hạn
thân_thiện
bút
khắc
ngây
trứng
##n_định
bao_lâu
buồn_bã
##uuuuuuuu
lãnh_đạo
luật
nét
ngăn
##_sản
loài
##n_vai
cử_chỉ
tuyển_sinh
ad
bát
xúc
##ịt
thói
##_mãn
vào_vai
từ_ngữ
ủy
##ửng
ngại
##_hiểu
##_ngại
yêu_thích
chớp_mắt
tuyên_bố
quyền
rũ
ngựa
phố
##_giãn
##gic
##ime
thói_quen
kịch
lạc
nhét
kết_hôn
chủ_nhật
rumi
nhún_vai
rèm
##_ám
##tan
##_sẻ
quảng
chim
bà_già
ghi_nhớ
mát
nâng
vặn
giấu
##n_là
cơ_sở
trẻ_em
##zumi
dự_bị
vang_vọng
lịch_sự
##_loại
thừa_nhận
cư
lần_l
não
khẩu
##_tô
##_nhẫn
##_phái
tay_áo
tak
phụ_trách
hợp_tác
giấc_ngủ
lãng_phí
sơ_mi
presto
lần_lượt
dữ
vắng
##n_học
đông_đ
thư_giãn
kiên_nhẫn
rác
đạo
##go
phầ
##n_bản
kể_cả
chẳng_hạn
anime
ngưỡng_mộ
tiện_lợi
##no
##_giả
bằng_chứng
tiết_lộ
phỏng_vấn
tv
##n_qu
##_ngược
tiếp_xúc
lão
bề
biế
biên
cắn
lọt
mươi
ve
##_sợ
##_bụng
logic
ghen
##_khoái
đông_đúc
bò
sợi
ô_tô
ủng
##_vũ
##_hon
##_kỷ
##n_ngủ
buồn_ngủ
tí_hon
##_soát
himeno
bám
gói
he
mạng
lớn_t
ông_già
hiện_thực
kinh_tởm
thẳng_th
biểu_diễn
cộng_đồng
cung_cấp
đàng_hoàng
nhậ
chai
trọc
##_gối
##_nạn
nghiêm_trọng
hòa_hợp
miễn_là
huh
khoa_học
tiên
##_đáng
khiêm
chia_sẻ
dịu_dàng
suô
##an_th
tốt_bụng
##ảng_khoái
##n_sẻ
thoáng
suôn_sẻ
gượng
izumi
leo
lưu
xuyên
##ton
##_tải
nhấn
##_lặp
xa_lạ
##n_cưỡng
miễn_cưỡng
luyện_tập
pháo_hoa
bổ
sảng_khoái
đền
##_tốn
##_thứ
giai
##ườn
kiểm_soát
##n_giáo
tai_nạn
ủng_hộ
khiêm_tốn
bồ
tung
ơi
khẽ
##_tố
##_táo
##_đuổi
##_mại
##_kính
đối_thủ
##_chỉnh
tuổi_trẻ
bận_tâm
lò
giật
giám
##_bừng
bộ_phận
tỏa
báo_cáo
sato
##_sánh
##_phòng
so_sánh
lịch_trình
lừa_dối
bày_tỏ
tha_thứ
cất
##_trái
đầu_gối
tin_c
mizu
miso
tìm_hiểu
cảnh_giác
ghen_t
tin_cậy
lan
tan
vé
wa
ăn_
##uồng
##ĩu
##_đường
##_đối
thích_thú
kiêu
giáo_phái
đóng_cửa
tài_năng
tỉnh_táo
gõ_cửa
hấp_dẫn
mí
##co
##íu
##_tây
##_bé
##_rơi
nữ_sinh
tạm_biệt
văn_bản
19
lang
nhấc
giọt
##_chừng
##_quy
##ân_nh
thức_ăn
hối_hận
##po
##àm
trạng
##_thập
một_v
##_đáo
##_sốt
khóe
diễn_đạt
thiết_bị
lang_thang
một_vài
dã
kèm
vứt
##bo
chăn
##_cao
##_bén
##_lẽo
tiếng_động
thông_qua
giải_trí
lạnh_lẽo
tập_thể
tủ_lạnh
ghen_tị
trạng_thái
cau
gánh
đe
đuôi
thẻ
##_thưởng
##chất
điều_chỉnh
##_dưỡng
##_kẹt
thu_thập
gợi_ý
bờ
bực
judo
răng
##sh
##ỡn
##ũa
cháy
nhỏ_bé
thuê
##n_dụng
thiết_kế
##n_xét
bản_chất
khúc_khích
cúp
nền
nuôi
sóng
ý_chí
##ck
##ng_sốt
thần
thúc
điều_hành
##_bày
sự_việc
tuyến
phụ_thuộc
bóng_ch
sửng_sốt
xác_định
nguồn
quy_tắc
ngây_thơ
tôn
##hét
##yama
##ẹn
##_chu
taichi
công_cộng
bàn_
dính
nàng
##di
khởi
có_ích
điều_kiện
##_dáng
##_này
lên_tiếng
thời_tiết
##n_đại
toàn
sinh_trùng
yếu_tố
tụ
##_hứng
##_cư
thứ_b
hành_lý
tham_quan
kyoka
đo
##xuất
thảm
truyện
##_ve
##_bắp
##_phủ
bệnh_viện
cân_nh
va
ơn
##_đuối
sau_này
##_ri
trả_thù
con_s
đăng_ký
bác_sĩ
mizuho
cân_nhắc
bào
##n_ngo
##amakura
nhàm_ch
hiểu_biết
##n_nhân
##_ngoại
văn_học
nhàm_chán
_c
ah
ham
đoạn
##oka
ngầu
thế_là
can_th
vậ
##_án
##ênh
##ũng
##_lỗi
##_hồn
cải_thiện
can_thiệp
gỗ
viên
ấn
##ễm
nheo
ngô
##_danh
trên_hết
##n_đồ
đáng_kể
##_hoạt
hình_thức
##n_giả
trang_trí
áp_lực
sông
vải
##iễm
##ọa
##ệm
##deo
##_tai
##_cụ
##_dội
vào_kho
##hiro
chương_trình
vào_khoảng
kìm
u_ám
đống
đơn
trì
##_thước
##_đức
hình_như
tôn_giáo
dã_ngoại
con_số
##ãnh
nhộng
##_đưa
##_mươi
trước_hết
khán_giả
hoàng_hôn
tụ_tập
kamakura
nông
rẻ
đấm
##amen
##_mềm
##_bóng
vội_vã
mềm_mại
tôn_trọng
bóp
đung
trán
cố_tình
cầu_nguyện
##_quản_lý
chúa
duỗi
hiện_đại
kích_thước
hương_vị
##hhhh
bế
cắm
gãi
lỗ
phiên
##_chờ
##_nhỏ
nước_ngoài
đỏ_bừng
địa_phương
ngoại_hình
naru
đung_đưa
hạt
kem
sữa
##ổng
nhạy
chìa
##_lĩnh
người_quản_lý
##_mới
vui_mừng
ghé
##ân_c
máy_ảnh
bậc
hình_dáng
shinjo
an_
cuộn
dạng
mo
méo
##xi
nhk
thắt
##_chúng
##_trích
nhỏ_nh
vết_thương
sắc_bén
tập_thể_dục
an_ủi
12
pa
tháo
chiến_đ
##suno
##ân_s
thuận
kiri
xa_x
tư_vấn
fukada
khô_kh
hoài_niệm
cư_xử
bể
tàn_
đũa
##is
##fu
thấu
##_khổ
##n_đồn
hiki
tin_đồn
hạn_ch
adachi
bù
rực
xương
đâm
đáy
đạp
##_thuận
phân_b
##_vào
quốc
##_mẻ
yumi
chỉ_trích
##_phạt
##n_luyện
chihiro
##n_cười
taishi
buồn_cười
thơm
chúc_mừng
bốc
vườn
##vợt
nhỉ
##_lửng
##_đặt
##_chế
##_mạng
giọng_điệu
tương_tác
hình_thành
quần_vợt
tiêu_cực
ngăn_c
hoảng_sợ
trùng_hợp
dữ_dội
bo
siết
chán
##_con
##_mó
##_rộng
sống_sót
tiến_triển
##tani
méo_mó
hạn_chế
##_lưng
##_sung
##_cạnh
que
khói
phòng_bệnh
##n_hiệu
kỳ_vọng
video
tóm_lại
thang_máy
bổ_sung
bào_chữa
chiến_đấu
kiriko
000
_ồ
hậu
lục
mì
sét
trọng
##_cấu
to_lớn
##n_nào
mắc_kẹt
chứng_kiến
lãng_mạn
ảo_tưởng
phiề
thứ_bảy
mu
##ori
khéo
##_chảy
ban_ng
trò_đùa
vô_tình
động_vật
##eeee
đạo_đức
ban_ngày
bá
hồng
vở
##_thảo
##chiếu
đói
điên
##_liệt
##phẩm
taxi
##_doanh
vô_thức
mong_chờ
kinh_doanh
cong
gạt
lướt
sát
sót
##_âm
##ợn
##ếch
thờ
##_thì
##_điện
##_đêm
##_sẽ
##_nướng
sống_động
sạch_sẽ
takuya
cau_mày
bạo
mũ
đùi
thủy
##_đoạn
quấn
##_nơi
xấu_x
trái_ngược
##n_nhiên
phần_nào
rực_rỡ
yumiko
găng
lỏng
vững
##ter
##_khảo
tia
mở_rộng
##ản_nh
phản_chiếu
yếu_đuối
nghiêng_đầu
chứng_minh
tội_lỗi
biệ
hở
lượt
khuya
thèm
##_lành
##_huy
##_bì
điện_tử
vòng_tay
thu_hẹp
sản_phẩm
ăn_mặc
thẳng_thắn
bóng_chày
thuận_tiện
lười
thản_nh
##_luyện
##_léo
cản
##_kết
trước_mắt
##ahah
tay_phải
chủ_yếu
chẳng_ích
biểu_hiện
khắp_nơi
lập_tức
lớn_tuổi
khéo_léo
thản_nhiên
cưỡng
de
kan
lực
lương
mày
rót
chức
##_giật
##n_hồi
vừa_mới
quyết_tâm
điển_hình
xuất_sắc
##_khiển
góc_độ
truyền_đạt
sưởi
đa
đỉnh
##84
nhập
nhạt
chói
##_cốc
nghề
điều_tra
##igh
##_phát
qua_đời
bộc
sinh_vật
phản_hồi
vuốt_ve
##iiiiiiiiiiiiiiii
khía
kumi
ro
rẽ
rụt
đón
khiêu
nhà_trường
năm_ngo
đàn_em
tham_khảo
##n_nhận
nửa_đêm
huấ
găng_tay
năm_ngoái
gọ
kiệt
##ịn
nhằm
chặn
##_đảo
##_khách
toe
bất_ch
công_chúng
khoe
em_trai
đau_khổ
phản_x
cà_ri
giao_thông
chung_cư
##n_gàng
khía_cạnh
gọn_gàng
biệt
##_ấu
khai
ngó
##_thọ
##_điển
anh_em
làm_phi
##uộm
nhà_văn
tự_tử
chính_thức
chuột
nguyên_liệu
bìa_mềm
thơ_ấu
_cậu
nhạy_cảm
làm_phiền
ku
ya
yama
ổn_định
trỏ
##_thị
##_loạn
##_đá
điều_khiển
##_nở
##kiwa
bắt_ch
ghê
mô_tả
phản_xạ
bấm
bụi
gầm
há
hừ
vệ
đốt
ưu
##_tiến
phần_l
##_đấu
##_sơ
##_cố
##_rè
##n_đảm
tiễn
lý_thuyết
##_thoát
##n_ngữ
cạnh_tranh
##_tiếc
can_đảm
rụt_rè
ghê_tởm
phần_lớn
dầu
gắ
hẹp
si
##ùm
##lo
##úm
thâ
chín
##_chân
##_chính
khám
lạ_lùng
##_toét
onii
căn_b
toe_toét
game
nâu
tỷ
##me
##yu
##_vết
##_rồi
##_xách
##n_thị
chào_hỏi
tính_toán
100
nhiệt_tình
ứng_cử
hiển_thị
##_chuẩn
17
15
gậy
ooka
run
se
sốt
ẩm_
##_thu
đi_lại
##_mê
mặt_đất
bỏ_rơi
chơi_đùa
giả_thuyết
trung_học_so
trang_điểm
địa_chỉ
ngôi_sao
##n_pháp
thái_dương
lợi_dụng
quảng_cáo
giai_đoạn
##_cao_tốc
ẩm_ướt
trung_học_sobu
hỏng
le
lén
lưỡi
##rr
##_lửa
##_nổi
##_phó
thật_sự
ngoa
giờ_đây
vừa_rồi
##_hoãn
đánh_thức
tuổi_thọ
vòng_tròn
##n_ghét
truyền_tải
lơ_lửng
biên_tập
nhận_xét
ngôn_ngữ
bộc_lộ
bắt_chước
cột
cường
lắp
đòn
##dano
##ơ_ng
##_túng
##_tội
ngơ_ng
##_thi
##_chủ
##_nhủ
##_gỡ
##_ngạo
tập_luyện
tâm_lý
hadano
tamaki
tiêu_chuẩn
chán_ghét
lợi_ích
nhầm_l
ngơ_ngác
kudo
đứt
##_óc
##_tài
nhăn
##_chỗ
sab
##_cược
điều_trị
##_dĩ
##_nóng
chiến
##n_lực
gặp_gỡ
đường_cao_tốc
giải_thưởng
tin_tức
chân_thành
cứng_đ
đếm
ép_buộc
sản_xuất
bạo_lực
##ight
nhầm_lẫn
_đ
gục
lồng
su
##een
giặt
người_dân
hoang
thực_đơn
tại_chỗ
thành_lập
##n_tay
chi_phí
dự_định
bánh_quy
##n_phí
phương_tiện
miễn_phí
độc_đáo
hồ_sơ
văn_hóa
bia
kiêu_ngạo
dẫ
gầy
kẹo
lẻ
mỹ
đích
đàn
##ềm_ch
thận
thưởng
thẩm
chải
lành
điềm
##_lỗ
##_luật
##_đón
##_đãng
##_mở
##_ngươi
khác_gì
chiến_l
tay_trái
lo_ngại
kiềm_ch
tham_dự
sức_lực
hào_hứng
hikitani
phân_biệt
biện_pháp
ngón_tay
kiềm_chế
##cu
##_lồ
chỉnh
vậy_thì
theo_đuổi
đối_phương
##n_năng
bầu_cử
manga
ebi
##jiri
bản_năng
trì_hoãn
##ổng_lồ
căn_bệnh
chiến_lược
gần_
hổ
mép
vỏ
đắt
khái
khổng_lồ
thần_
chấm
trưng
nói_nhỏ
##_chiến
người_thân
##and
##_bạo
nào_đó
##_phào
khoai
chủ_nhiệm
đặc_điểm
thể_dục
##_đi_lặp
phong_bì
##llow
năng_lượng
##_đi_lặp_lại
gấu
li
rạng
##a_mai
##ăn_qu
##u_nh
##_tiền
ngắt
##_chung
##_gặp
##_dịu
bắt_gặp
thở_phào
mỉa_mai
đầy_đ
cảnh_báo
phản_b
lặp_đi_lặp_lại
chuyên_nghiệp
##aaaaaaaaaaaaaaaaaaaaaaaaaaaaaaaa
hiển_nhiên
ebisuno
cát
gà
gay
lĩnh
line
##ar
##ẩn_c
khăn_qu
khẩn_c
ngửi
##_lãng
##_hốc
##aih
##_rào
##_phá
##_xuống
##n_hành
thú_nhận
hallow
##ssss
##_toái
phiền_toái
ứng_cử_viên
lĩnh_vực
khăn_quàng
khẩn_cấp
cỏ
oka
xám
##ce
chữa
có_lý
##_gắt
cũng_nên
mọi_khi
taka
cơ_bắp
mở_mắt
hiện_trường
càu_nh
lắc_l
dấu_vết
phiên_bản
gay_gắt
halloween
càu_nhàu
dũng
lờ
rùng
đậm
##_o
##_chọc
##_bay
tokiwa
bar
bóng_đá
ghế_dài
##_khoản
##_yên
áp_dụng
yamato
thận_trọng
ten
ý_nghĩ
##_ước
khố
khẳng
the
##_chép
ra_hiệu
##_manh
##_nát
bất_tiện
công_thức
đều_đ
khuôn_viên
kar
##_khoa
haru
cụm
ngoại_trừ
lừa_đảo
thô_lỗ
bề_ngoài
trưng_bày
khẳng_định
cụp
yono
##gũi
##_tân
nhuộm
##_thả
##_lục
##_đạc
##_nhiệt
##_nạt
##_nén
##_kiệm
chỉ_định
##_nghiệt
bắt_nạt
##n_bó
gặp_mặt
nhất_thiết
bóng_r
cha_
kẻ_thù
tiết_kiệm
trừng_phạt
trình_độ
há_hốc
gần_gũi
rạng_rỡ
cớ
##ệch
##ếm
tròn
pháp
##_lệnh
giàu
##_tránh
##_ngân
trước_tiên
tự_sát
giải_pháp
##n_ngủi
trung_thực
futon
yên_bình
động_tác
ngắn_ngủi
rung_chuyển
trêu_chọc
khắc_nghiệt
##aihin
cân_b
kín
lôi
##or
##pa
##ẻo
châm
ngập
phân_
##_biểu
##_bút
chiếm
công_bằng
đồ_đạc
yosuke
sở_dĩ
sable
cụm_từ
cha_anh
cân_bằng
bẩn
nii
ramen
tám
đài
đòi
khen
thùng
chộp
ngâm
phóng
##_lưỡi
giậ
##_phán
tự_nhủ
thứ_tự
lý_tưởng
vô_lý
cổ_vũ
chào_đón
##n_chồn
tài_khoản
quy_định
cam_chịu
bồn_chồn
huấn_luyện
cứng_đờ
##_lãng_mạn
cốt
cấm
lũ
tốn
##eb
##ủa
ngân_s
##_lao
##_nheo
##_trải
đầu_óc
##_quang
vui_chơi
tình_nguyện
tác_giả
tầm_mắt
thiết_lập
##n_ngoãn
ngoan_ngoãn
ngân_sách
dụng
nồi
tê
khối
nhai
chéo
quỷ
##_mệnh
sự_nghiệp
hài_lãng_mạn
coi_thường
trực_giác
thanh_toán
kìm_nén
bất_chấp
cường_điệu
lẻn
dụng_cụ
_b
hiệp
mắng
nãy
thầm
ngâ
trộn
phân
##_móc
phát_biểu
##koto
túi_xách
đề_phòng
nguồ
triệu_chứng
luật_sư
tàn_nh
tỷ_lệ
giận_d
11
gah
liền
nộp
po
đàm
##gumi
##sai
khuy
thưa
##_lui
##_hữu
##_su
##_giục
##_nuối
##_bội
##_biếng
thứ_h
ngoài_trời
nước_t
hàng_rào
đen_tối
tiếc_nuối
đến_nơi
lười_biếng
giận_dữ
bĩu
gắn
gáy
hâm
haha
lúng
len
đạn
##ge
##kan
nhiễm
##_lá
nói_chung
##_ca
ranh
##uộng
bị_thương
thời_hạn
cậu_định
cố_định
hijiri
hôn_nhân
thu_ngân
##_hoại
tập_hợp
thể_chất
cầu_thủ
chào_mừng
##n_rũ
tím
##lad
tsugumi
lơ_đãng
hư_cấu
##uuuuuuuuuuuuuuuu
wata
xấu_xí
tàn_nhẫn
lúng_túng
bạc
bão
gối
nổ
tây
ám
ưỡn
##oáng
##ến_rũ
##ộm
##_ti
##_tăm
##_hùng
##_nhoáng
##_cá
##_giảm
##_trưng
##aoke
##n_loạn
yêu_thương
sogo
vòng_quanh
đáp_ứng
quyến_rũ
thủ_lĩnh
ngăn_cản
kiệt_sức
dám
pi
tán
xua
đẫm
##sen
##oo
nhâ
chắp
ngáp
##_lưỡng
##_hệt
##_cẩn
##_giễu
##_diệt
##_ro
đầu_vào
##uội
##_quốc
makoto
bản_thảo
tối_qua
thử_th
thuốc_lá
##n_gốc
hỗn_loạn
hối_tiếc
tươi_sáng
mím
vệ_sinh
điềm_tĩnh
lắc_lư
karaoke
am
dối
kẹp
nô
tiệt
##ềnh
tràn
##_lỏng
##_đen
##_đốc
##_chồng
##_bếp
khác_thường
bất_lực
khoản
máy_bay
giáo_dục
##_yu
gia_vị
động_cơ
tamaru
diễn_viên
vẫy_tay
##lissa
thương_hại
đầy_đủ
nguồn_gốc
gốc
nắp
đỡ
ồn
##_ác
##án_học
##_tỏa
thuyền
ngành
##_lót
##_giữ
##_mà
##_não
##_kịch
##_bối
##_rỗi
##_khai
##_xế
##n_biết
công_khai
tối_tăm
tài_xế
melissa
##_chúa
kiên_quyết
vợ_chồng
##ethe
bản_đồ
bực_bội
thúc_giục
bóng_rổ
_bạn
bọc
bọn
huy
mừng
mét
uể
##ei
##cô
nhấ
ngậm
##_thượng
salad
##_khóa
thực_phẩm
giống_hệt
bất_cẩn
tình_nhân
co_giật
vô_ích
kota
cây_bút
gián_đ
ruột
nam_sinh
##kkkk
thưởng_thức
khái_niệm
cờ
dai
lethe
##èn
##_tán
nhịn
thà
nguội
##_đẽ
##amama
##_dấu
##ướm
##_trá
##uni
ban_công
bình_luận
đánh_bại
đẹp_đẽ
nửa_vời
vũ_khí
chất_lượng
mờ_nhạt
##lly
giám_sát
naruko
gắn_bó
thần_k
rùng_mình
##côla
bột
dồn
hông
muối
móng
sẹo
vạch
đỗ
##tt
chật
không_trung
##_lừa
##_mối
tiến_bộ
tự_ti
trung_học_m
tác_động
rộng_rãi
khoai_tây
đều_đặn
gahamama
ranh_giới
thử_thách
dối_trá
kotatsu
_ch
dịp
ota
pan
sụp
tông
tàn
viện
vẹo
đắng
đắm
##_ơ
##_w
##bi
##de
##ỉa
thăng
##_đột
##_dề
ra_mắt
##_trưởng
##_truyền
holly
##ahaha
toán_học
##n_ngại
phụ_huy
xung_đột
##n_kho
nguyên_tắc
tạp_dề
biên_tập_viên
##cury
gián_đoạn
phụ_huynh
bun
lê
xào
##ẳm
##ỉu
##_tắt
thai
##_hộp
##_suất
##_mỉ
nhìn_nhận
##_bi
đối_phó
trung_niên
trẻ_con
cao_su
đánh_lừa
kou
tâm_hồn
hào_nhoáng
mát_mẻ
##dio
dũng_cảm
al
gót
nồng
rải
sấm
vung
đọng
ầm_
##uệ
##õng
tra
##_đắp
giễu
##_hóa
##_giây
##_trúc
##n_đầu
tiếng_nói
hiro
##ẳng_cấp
bình_yên
chủ_nhân
điểm_số
rút_lui
kích_thích
##_phim
thả_lỏng
bù_đắp
khám_phá
đòi_hỏi
bọ
bướm
ji
##nagi
##ần_ngại
##nhạc
chì
chặng
ngần_ngại
điên_r
##_hét
##_chuộng
##_sóng
##_cung
##_dư
##_mô
##_mạc
##_khát
##oni
bất_động
công_sức
tình_bạn
hành_khách
tuyệt_đối
đơn_đ
biểu_tượng
tỏ_vẻ
vật_chủ
yoshie
tận_dụng
kim_loại
quý_giá
quái_vật
ăn_uống
khô_khốc
điên_rồ
búi
bẩn_th
mâu
náo
ryo
##ẽn
thối
##_tháng
##_đội
giận
##_nhở
##_có
##_cãi
##_mơ
##_trùm
##_kê
##_ban
##_bắt
##anh_quanh
##n_đầy
loanh_quanh
bao_phủ
bao_trùm
kết_bạn
đường_phố
giải_lao
kỳ_d
##rumi
dự_kiến
kỹ_lưỡng
bối_cảnh
##n_chặn
tràn_đầy
nữ_hoàng
tuân
bệnh_nhân
hy_sinh
quyề
nhắc_nhở
hủy_hoại
sôcôla
biến_m
##_thuẫn
okada
##_oải
đàm_phán
uể_oải
thần_kinh
bẩn_thỉu
mâu_thuẫn
bầm
cành
hỏa
rủi
vĩ
##ira
##kko
##_tuyến
nhếch
nhượ
##_ly
##_hồi
##_dọa
##_nét
làm_bạn
##n_đổi
##_xưa
##n_mạnh
vô_cảm
hàng_đầu
khách_quan
nhân_ch
riêng_tư
nấu_nướng
nhật_ký
tầm_thường
tín_hiệu
ngăn_chặn
thiên_thần
sôi_nổi
thờ_ơ
haruka
canh
dân_c
ei
vương
vùi
đẳng_cấp
##th
##pe
##va
##nga
##_tú
##_tuyết
trọ
##_cây
##_cái
##_cuồng
quần
##am_mê
##_duy
##_môn
##iny
thìa
sana
hôn
ghép
trái_cây
nắm_bắt
##_lệch
tinh_tế
lao_động
xúc_phạm
biến_mất
rủi_ro
bong
gãy
hé
nợ
sơn
xé
xứng
đan
đam_mê
##uku
##ỷu
nhạo
##_hò
anh_hùng
##_nhạo
nghiện
##_giỡn
##_mờ
##_khỏe
mặt_nước
##n_hàng
đồng_tình
sách_giáo
tương_đối
đặc_trưng
sang_trọng
khuỷu
##mmmm
##basa
nằm_xuống
nội_trợ
diễn_t
shizu
tranh_cãi
ngăn_k
ngụy
đùa_giỡn
reo_hò
phạm_vi
căn_c
đe_dọa
nhấn_mạnh
nhân_chứng
dân_cư
ngăn_kéo
ló
đức
đệm
##ti
khao
khịt
##_tươi
##_đắm
##_hiệp
##_cánh
##_mến
##_băng
##_ngừng
##n_ngh
trung_bình
bài_tập
giả_định
cổ_tay
dự_án
đại_diện
tsubasa
eriko
chuyên_gia
hehe
nghề_nghiệp
dẫn_đầu
nước_tương
ám_ảnh
xứng_đáng
sách_giáo_khoa
khao_khát
_ý
cm
dư
hại
liệt
light
mạch
rối
xích
##wi
khàn
chùa
phơi
##_cự
họa
##_ngọt
bịt
##ươn
thời_đại
trở_ngại
##n_lạnh
chính_sách
ba_mươi
đàn_anh
thi_thể
rung_động
bác_bỏ
bề_mặt
tiên_cá
##hhhhhhhh
thân_hình
ngập_ngừng
căn_cứ
_h
hiểm
nếm
râu
vụng
ẩm
##ff
##ur
##vel
khát
thấm
chừng
trợ
##_đậy
##_đáp
khinh
quê
quãng
##_ma
làm_quen
tự_mãn
##êu_tả
cuộc_chiến
hiira
miêu_tả
hoàn_tất
đau_lòng
##n_chạy
đóng_g
ghi_chú
quy_mô
dòng_chảy
cởi_mở
nhấp_nh
tái_hôn
vest
quốc_gia
bán_chạy
khuyế
vĩ_đại
25
bơ
ben
bồn
dang
lé
mê
mực
ý_muốn
ớn_lạnh
##30
##ẩng
ngẩng
phồng
##_đo
quân
##_dịch
##_dẫm
##ini
yugi
làm_ơn
##shikano
##_nghịch
qua_lại
bất_mãn
khoác
đồng_cảm
tình_thế
vừa_phải
chủ_động
chuỗi
thoạt
đau_đầu
##n_vọng
động_viên
hòa_nhập
##ling
siêu_thị
kyoto
chế_độ
thảm_hại
chức_năng
otaku
kỳ_diệu
50
bắc
dạ
dốc
dọn
hòn
táo
đun
ưa
##pp
##cchi
nhồi
nhốt
thiệt
chục
trạm
##_thủy
##_méo
##_trở
##_trần
yuka
##_ngục
chỉ_dẫn
sự_cố
##rase
vô_hình
đồ_lót
đại_dương
hatsushikano
danh_tính
trầm_lặng
xoa_dịu
năng_lực
quảng_trường
truyện_tranh
ahaha
giàu_có
hâm_nóng
##_mỉm
nhấp_nháy
lén_l
bấy
rạp
rỗng
sương
suýt
đành
khớp
thống
ngứa
##_lăm
##_đổ
##_đặc
##ang_thoảng
##_trào
câu_hỏi
tiếp_tân
đồng_nghiệp
đường_nét
xa_cách
thoang_thoảng
cổ_điển
đẹp_trai
chị_em
sức_khỏe
hài_h
che_đậy
độc_lập
ngoại_lệ
la_hét
201
thủ_phạm
himena
thỏa_hiệp
ác_ý
xúc_động
ủy_ban
bực_tức
##_web
##ngapo
hiiragi
bồng
bắp
cd
cưới
liều
mọc
nếp
rìa
sắt
tế
tượng
đu
##_a
trói
##_thư
phiếu
##_lợi
##_họa
##_dạng
##_mát
##_bềnh
cảm_động
tiến_hành
##_phần
##_quyền
lý_trí
đồng_đội
##n_nay
max
đánh_dấu
hình_dung
đau_nh
trái_đất
trang_web
đóng_băng
tài_sản
nội_bộ
##ercury
hiện_nay
hoàng_tử
##gawa
lông_mày
nảy_sinh
mẫu_giáo
giám_đốc
cản_trở
phản_bội
lén_lút
##ngapore
en
gạo
hầm
nín
q84
ích
##uông
##ze
thâm
##_liếc
##_sáu
quạ
quạt
cô_giáo
##_múa
thế_hệ
##n_độ
thứ_sáu
##_xin
cố_ý
##n_hại
cơ_quan
phát_hành
tưởng_chừng
xuất_phát
tổn_hại
cấp_độ
tài_chính
dựa_dẫm
tiêu_đề
rộng_lớn
chữ_cái
nhảy_múa
ly_hôn
truyền_thông
thiên_văn
thô_bạo
rảnh_rỗi
lạc_l
vận_động
takasaka
trung_học_mercury
quyền_lực
bồng_bềnh
dè
go
hung
ichi
ja
mệnh
##nis
##õa
##_tuệ
chua
trúng
trút
làng
##_đẩy
##_gạo
##_gót
nghèo
##_dị
radio
##_ngực
##_ru
##tar
##_khủng
##_nghỉ
bắt_tay
đối_tác
emori
vô_dụng
fuku
##iệp_dư
kinh_khủng
yên_tâm
##_ích_kỷ
hội_trường
bật_lửa
ống_kính
dọa
chìm_đắm
sửa_chữa
bóp_méo
khô_khan
_điều
tennis
thứ_hai
watarase
18
lây
lăn
liếm
mã
nến
nát
ràng
sầm
vầng
##sk
##ts
##ue
##_tỉnh
chiên
##_đa
##uyệ
##_chạm
##_một
##_biển
thật_ra
chưa_thể
lý_lịch
tối_đa
cầu_xin
nữ_tính
đảm_nhận
shindo
irohasu
ước_mơ
súng_lục
linh_cảm
trình_diễn
tóm_tắt
vắng_mặt
rẻ_tiền
sụp_đổ
hài_hước
ích_kỷ
ràng_buộc
bướng
og
re
rỉ
tiệm
xen
##us
thằng
chấ
trộm
##_lọi
##_đố
##_đĩa
##_hạnh
##_cho
##_má
##_mỹ
##_mèo
##_rác
##_rửa
##_rắn
##omachi
việc_gì
##n_hển
mic
##mori
giả_tạo
trung_học_k
thi_đấu
tỏ_tình
tuyển_dụng
tội_phạm
ứng_dụng
bút_bi
lục_lọi
##eeeeeeee
##iiiiiiiiiiiiiiiiiiiiiiiiiiiiiiii
lồng_ngực
hổn_hển
##_bối_rối
rải_rác
##uyện_viên
_t
bă
eo
gợn
rán
vặ
vặt
ven
##al
khay
chày
chuyền
##_địch
nghẹ
##_dặt
##_mục
##ent
chính_trị
##n_mềm
dota
##_độc
số_phận
vòng_v
địa_ngục
cứng_rắn
bản_nhạc
chuyên_môn
noel
khởi_động
biệt_danh
singapore
_chà
liệt_kê
dè_dặt
trung_học_kaihin
băn_kho
_ừ
cấu
gahama
xà
ẩn_n
##san
chốc
##_thẳm
phe
phổi
##_chắc
nghiệp_dư
quấy
##_mộng
họ_hàng
hay_là
##_phẳng
ngày_tháng
##_quỷ
##una
##n_lòng
kỳ_nghỉ
##n_ngào
mac
chẳng_là
khuấy
kinh_hoàng
giới_tính
đỏ_mặt
##n_phương
trôi_chảy
sho
chiếu_phim
trí_tuệ
nhịp_điệu
sôi_động
shinjuku
thúc_đẩy
nhỏ_nhắn
chiến_tranh
##_yukino
ầm_ĩ
ngụy_trang
thiệt_hại
nghẹn_ngào
chốc_lát
24
dép
eli
hận
lúa
tuôn
vợt
##_i
nhô
thon
tháp
##_thất
##_thiểu
phun
##_li
##_đài
nói_gì
nói_thẳng
##_chiếu
cô_lập
##_dâm
vào_cuộc
##_bê
##_bức
##_ngâm
##_xạc
công_bố
thích_nghi
thông_đ
chủ_nghĩa
dou
vô_số
kasai
thiếu_niên
tùy_thích
đất_nước
onda
kịch_bản
phần_mềm
khởi_đầu
thắt_lưng
trọng_lượng
xào_xạc
băn_khoăn
bùng
cục
cộc
eh
mãnh
né
song
sảnh
xâm
ăn_t
đua
##uồn
##ím
##_tộc
thiệ
ngửa
trăm
phê
##_về
điều_ước
phải_chăng
##_trộn
##_bỏng
##_ngắn
##_rưởi
##_khám
##_phú
##_phiếu
toát
phòng_thủ
phòng_khám
##n_biến
tem
tiềm
suy_đoán
thuật
kosuke
thể_loại
##_khoang
đơn_phương
thư_ký
##n_vẹo
nội_thất
độc_giả
áp_đặt
vi_phạm
##stiny
thỏa_mãn
rác_rưởi
bàn_ch
vững_chắc
destiny
ưu_tiên
mỹ_thuật
hiroyama
diễn_tả
khuyến_khích
vặn_vẹo
thông_điệp
bẫy
lưới
nệm
tĩnh
vòi
át
##oại
##_tuổi
nhợt
thò
thắp
phẳng
giỏ
##_hương
##_nhẹ
##_sầu
quần_l
##_dốc
##_nếu
yukko
##_bạc
##_ngợp
##_răng
##enji
nhà_xuất
##n_lẫn
##n_loại
##n_bạn
mở_đầu
phụ_kiện
mùa_hè
sai_sót
tiêu_diệt
kiên_trì
choáng_ngợp
dày_đặc
công_cụ
lớn_tiếng
nhỏ_nhặt
khoe_khoang
amaya
fukusuke
xà_phòng
ăn_tối
nhà_xuất_bản
..
14
búa
cương
cẩu
dâng
kìa
mộ
manh
núm
viền
vỉa
yam
##gh
##tto
##oi
##kana
##ũy
##_lũy
##_chửng
##_sửa
##_cổ
điều_dưỡng
để_mắt
##taka
##ặc_lưỡi
câu_đố
##_quản
ban_nh
đồng_hành
mới_mẻ
thông_cảm
chạng
hiện_tượng
tuyệt_nếu
nghĩa_vụ
giả_sử
dựng
cá_cược
##n_chuyển
mười_lăm
##n_khổ
trực_tuyến
trầm_ngâm
vụ_việc
lợi_thế
tranh_cử
##_loạt
novel
tích_lũy
mỏng_manh
thỏa_thuận
nuốt_chửng
chế_giễu
thẳng_thừng
lưu_niệm
giật_mình
##_điện_tử
lắp_bắp
lành_mạnh
##_túy
cấu_trúc
quấy_rối
mãnh_liệt
manh_mối
vỉa_hè
be
cài
còi
dải
gai
kèn
lay
long
mốt
nao
săn
tẩy
##_u
##tami
##mura
##_tụ
thù
một_mặt
##_chua
##_cười
##_cộng
##_cứng
##_mạch
##_bao
##_ráp
##igi
##_phút
##_phóng
xen_lẫn
##n_nga
##n_can
nghỉ_việc
gia_nhập
phản_ánh
hầu_gái
khôn_ngo
inter
tranh_luận
##etta
thủ_tục
phục_hồi
linh_hồn
đào_tạo
kỹ_thuật_viên
gượng_gạo
##rrrr
ngân_nga
vụng_về
hận_thù
...
cẩu_thả
khôn_ngoan
40
_hi
cự
hộ
hàm
ju
vướng
vua
ân_c
đắc
##net
##sao
##pi
##ja
##ng_bộ
khử
khuất
nhu
chậm_ch
chênh
ngài
trụ
##_hãnh
##_nhã
##_nhiễm
nhà_bếp
##yak
bất_hạnh
##n_lành
chính_phủ
xem_liệu
đặt_hàng
##_hoang
tuyệt_khi
định_nghĩa
đẹp_mắt
##n_vẹn
coi_trọng
sở_hữu
trốn_tránh
lan_can
thua_cuộc
nghệ_sĩ
linh_tinh
đảo_ngược
chế_nhạo
kiêu_hãnh
hậu_trường
lực_lượng
khiêu_khích
nhượng_bộ
trọn_vẹn
yukata
thuật_ngữ
internet
ân_cần
chậm_chạp
chênh_lệch
căm
cám
ge
hạng
kén
mai
minami
sưng
xô
##ean
##ca
##ằn
nhíu
##_thịt
##ột_miệng
phối
##_đẫm
##_vả
trong_lành
ra_vẻ
##_mẫu
##_nổ
##_bọc
##_ngành
##_phông
##ung_l
nhà_th
##_xanh
##_xấu
tatami
##n_màng
bộ_mặt
giữa_chừng
##n_cùng
âm_lượng
tối_thiểu
buột_miệng
nghiêm_khắc
máy_móc
áo_phông
##n_rửa
hiệu_ứng
hồi_phục
300
ảo_ảnh
bồn_rửa
bàn_ph
chìa_khóa
quen_biết
gầy_g
chỉnh_sửa
##sky
micro
bó
biể
dê
dinh
dụi
gọn
hất
ike
kẹt
nối
nấm
vươn
đà
##tro
thụ
thổ
châu
ngầm
trinh
gimori
##_cậu
##_khó
##_khái
cố_vấn
chu_đáo
buồn_t
giúp_ích
##zuki
đại_ca
đại_khái
##n_chung
##n_nhát
mùi_vị
hợp_đồng
hèn_nhát
buộc_tội
sân_thượng
chuyên_ngành
tiền_bạc
dao_động
linh_hoạt
truyền_hình
khiêu_vũ
##ssssssss
lờ_mờ
eiji
buồn_tẻ
16
búp
cân
gen
nạ
rào
rưỡi
tướng
xộc
y_tế
##òm
khép
thí
chắn
nga
trân
trơn
##_đứng
##_hỏng
##_sản_
nhìn_chung
làm_nên
tiến_độ
hoãn
##_lẽ_ra
nhà_kho
##_quán
ngoảnh
tan_v
sao_chép
quá_sức
##m_chỉ
thuế
vô_vọng
cao_gót
trang_trọng
ghi_chép
hoàn_thiện
kích_hoạt
##_nghiêm
hư_hỏng
ăn_mừng
##bot
va_chạm
##fufu
điên_cuồng
liều_lĩnh
##_ruột
quần_lót
ban_nhạc
phối_hợp
gầy_gò
nạn_nhân
trân_trọng
tan_vỡ
came
dương
dãy
fi
ken
lề
lạch
lưỡng
mật
sĩ
sững
tom
êm
##_an
##sự
##sho
##ăn_nh
##ấn_
##_tàn
nhẫn
nháy
thép
trích
##_thụ
như_là
##_lam
##_vạt
nói_xấu
##_chẽ
##_ghét
##_cạch
ra_lệnh
##ướp
##hisky
##_kém
##_ngô
##_khảnh
ngày_xưa
##n_đoán
học_đường
toàn_
##n_lời
bỏ_hoang
sống_lưng
##uyên_dáng
sâu_thẳm
chân_thực
saize
cà_vạt
định_mệnh
chặt_chẽ
lạ_thường
hòa_bình
tinh_nghịch
viễ
mảnh_khảnh
pha_chế
tái_sinh
giai_điệu
phiền_bạn
niisan
piano
bento
bấy_lâu
vận_động_viên
juli
ao
cưỡi
duyên_dáng
gui
hải
hahaha
jo
móc
nêu
vất
xỏ
úp
ẩn
ửng
##tai
##der
nhút
trậ
phật
##_lốc
##_lưu
##_dày
##igami
##one
##sumi
cách_mạng
công_nhận
ayaka
thành_tích
##uôn_l
đối_tượng
mika
mất_tích
thở_dốc
bỏ_phiếu
kod
koenji
nhân_c
giao_bóng
bảo_hiểm
nguy_cơ
mồm
phán_xét
##bum
kêu_gọi
tổng_cộng
xa_xôi
tê_liệt
thăng_bằng
album
tra_cứu
khinh_thường
đau_nhức
cộc_lốc
bàn_phím
##_sản_xuất
sĩ_quan
juliet
vất_vả
cỡ
gã
lều
ruy
râm
tà
tàn_t
tặc_lưỡi
vựng
xõa
##tter
##ờng
khỏa
##_thắng
nhường
##n_ý
##_lẻo
giẫm
##_cợt
trong_sáng
##_giảng
##_mù
đây_đó
nhàn_nh
tay_tr
##_xóm
xe_tải
maki
tuổi_tác
chẳng_qua
xuất_tinh
mong_manh
soát
kinh_tế
##n_chán
cây_c
you
báo_hiệu
buồn_chán
nam_giới
độc_hại
chuyển_đổi
bản_g
ướt_đẫm
hoài_nghi
bát_đĩa
takai
lỏng_lẻo
thân_m
camera
bấy_lâu_nay
80
an_n
dàn
gắt
hời
kênh
kei
minh
mạt
nĩa
rắn
sin
sân_b
tả
tắc
tamura
urumi
vo
võ
ám_chỉ
##ler
nhã
thánh
trào
tràng
đinh
phâ
##_lễ
##_lõi
##_lộn
##_đô
##uyệt
##_hậu
##_nhắc
##_cúc
##_cản
ra_vào
##ườm
##_kéo
##_ngặt
##_ngẫm
##shima
##_rũ
nhà_sản_xuất
##suda
tự_vệ
##_quát
loa
loạng
taku
##yaki
thành_kiến
hơi_nước
suy_ngẫm
kỳ_qu
con_c
##n_nôn
mar
doanh
bóng_dáng
hết_mình
hàng_xóm
##ayato
nghiêm_ngặt
cá_m
##n_dạng
##n_chiến
đáp_lại
##bashi
bí_quyết
phù_thủy
lối_thoát
thử_nghiệm
buồn_nôn
tăng_tốc
giảm_giá
phương_tây
vật_lý
chống_cự
truyệ
tổng_hợp
lan_tỏa
ăn_ở
cốt_lõi
ngậm_miệng
kousaka
đơn_độc
vương_quốc
đóng_gói
##_choạng
bàn_chân
cương_cứng
búp_bê
lạch_cạch
tàn_tích
khỏa_thân
an_ninh
sân_bay
loạng_choạng
bẽ
bỗng
luôn_l
nin
omura
rùa
tố
ẩn_d
ập
ủ_rũ
##foni
##ran
##um
##jean
##_tận
##_táng
nhăn_nh
thình
ngột
##_thịch
có_hạn
##_váy
##_sâu
##_dọn
##_dạy
##_nạ
##_trữ
##_ngạt
##_ray
tự_lập
##_quân
mặt_nạ
loạt
thành_phần
đồng_nghĩa
chiêu
sách_điện_tử
##n_nạn
##n_ngắn
thu_nhập
thu_dọn
tuổi_thơ
tham_vọng
tư_duy
đại_hội
chiều_chuộng
công_tắc
tín_đồ
sơ_bộ
bản_sao
thanh_niên
##_miso
chứa_đựng
hoảng_loạn
sổ_tay
cư_dân
vắng_vẻ
lan_truyền
thần_tượng
khốn_nạn
phân_ph
bunko
ẩn_náu
tĩnh_lặng
nhu_cầu
luôn_luôn
##fonietta
thình_thịch
ngột_ngạt
bẩm
cặ
cuố
còng
dưa
gắp
jim
nực
rè
suối
tĩu
vây
đút
##ov
##ken
##vi
##land
##20
##_tờ
chui
trú
trèo
##_thừa
đón_nhận
##_lự
##_địa
##_vạng
##_nhát
nghiến
##_mực
##_màu
##ait
##_kỹ
##_phích
bịa
mặt_bằng
##n_hút
##n_lộn
vui_tươi
bình_minh
đôi_chút
thuậ
liên_tiếp
số_ít
lạnh_giá
##imet
lâu_dài
cà_chua
quần_jean
đại_loại
thư_từ
giấy_tờ
chấp_thuận
diễn_biến
shiori
tiền_mặt
tiểu_thuyết_gia
áp_phích
vật_liệu
##n_xộn
sửa_đổi
dữ_liệu
xa_xăm
nhà_trường_học
pháp_luật
hỏa_táng
hung_h
ichikawa
mệnh_lệnh
chạng_vạng
đắc_thắng
rào_cản
nhút_nhát
kodama
nhân_cách
makihara
cây_cối
sinfonietta
bẩm_sinh
cuốn_hút
rèn_luyện
bow
dập
funa
mồi
mạo
nới
nốt
ogi
rong
ván
ôn_th
đính
##ni
##rg
##u_hành
khơi
chở
##_thự
##_thai
##_thạo
phô
##_líu
giác
giãn
khiển
##_chược
##_cạn
##_cải
##_tráng
##_kích
##_bào
##_ngắc
biết_bao
##_khói
##_phong
##eno
mặt_bối_rối
##uno
đưa_mắt
trông_c
di_động
sáng_s
sáng_tạo
cao_cấp
đồ_chơi
##ayase
tư_nhân
cá_tính
trang_bị
bí_ngô
cứng_nhắc
cứng_ngắc
cực_đo
độc_thân
##eet
sơ_yếu
thiên_tài
nhịp_độ
gương_mặt
mô_hình
##n_kết
##teru
##poli
tia_sáng
chói_tai
khối_lượng
sương_mù
chấn_thương
vòng_vo
thù_địch
##igisa
cựu
lưỡng_lự
mạt_chược
cá_mập
ôn_thi
khiển_trách
cực_đoan
90
_yu
ake
cạn
cướp
dân_
dõi
gạch
hưng
hưu
h30
kí
lô
luồng
lườm
pin
rom
twi
đoàn
ươ
ốm
##tu
##ợm
##ẩm_ch
nhắ
nhọn
thợ
thao
cháu
tro
##n_ướt
điền
##_vặn
##_hô
##_hòa
##_hủy
##_chiều
##_chát
##_sắt
quàng
##_mức
##_treo
từ_điển
##n_lẽn
##_thành_niên
suy_giảm
giải_thoát
thuần
phát_sóng
trẻo
khuôn_m
đồ_ngốc
##koshi
loại_trừ
##n_sóng
phần_thưởng
nhân_sự
vị_thành_niên
riko
kiểu_nhật
nội_tâm
kawataka
ruồi
cắt_giảm
tồi_tàn
diễu_hành
vụn
202
200
thủ_công
hóa_đơn
thương_lượng
vùng_đất
lòe
nông_cạn
xấu_xa
khốn_khổ
náo_nhiệt
táo_bạo
bùng_nổ
nhợt_nhạt
khử_trùng
căm_ghét
biển_hiệu
thổ_lộ
bẽn_lẽn
thuận_lợi
bowling
##politan
##ẩm_chất
bách
bồn_t
cỗ
cập
cãi
cợt
dị
dỡ
gre
kaihin
lố
màng
mãn
mải_m
tạnh
tát
uố
vạt
##bono
##si
##sha
##dị
##ễn_vọng
kháng
khiếu
##_túi
nhãn
tre
phẫu
##_lan
##_đương
##_đẳng
##_vong
##uyề
giăm
##_hạng
##_nhuận
##_sa
quang
##_giọt
##_mã
##_kín
##_binh
từ_trường
chỉ_đạo
hay_biết
##_phấn
##_xa
##_xá
##_xô
học_hỏi
bất_tỉnh
bất_an
##gian
đối_đầu
giải_tán
xem_lại
thuần_
##ản_dị
liên_kết
trẻ_trung
lâu_đài
##khov
##roji
bảo_t
đề_cử
metro
kính_vi
xoáy
đến_cùng
danh_tiếng
vật_thể
trách_móc
nhắn_tin
cứu_hộ
ảo_giác
súp_miso
trình_bày
nuôi_dưỡng
dính_líu
toàn_thân
hậu_quả
thẩm_mỹ
##aaaaaaaaaaaaaaaaaaaaaaaaaaaaaaaaaaaaaaaaaaaaaaaaaaaaaaaaaaaaaaaa
##uuuuuuuuuuuuuuuuuuuuuuuuuuuuuuuu
##kkkkkkkk
bất_động_sản
thâm_tâm
_ừm
nháy_mắt
trận_chiến
nhàn_nhã
takumi
con_cái
akebono
ươn_ướt
bồn_tắm
mải_mê
phẫu_thuật
kính_viễn_vọng
13
bục
cuồng
gọng
gọt
gồm
háo
nức
star
tết
tảng
vu
vách
vực
whisky
đồi
##hai
##ò_r
##wan
khuyết
##_tan
ngớ
triết
triể
##_thiếp
phẩm_chất
##_điên
giản_dị
##_hức
##_nhị
##_gừ
##_song
##_cỏi
##_cục
##_truyện
##_trương
##_trĩu
##ống_h
đầu_ra
hop
##_khẽ
thực_lòng
yukinoshita_h
##_quãng
mặt_hàng
bắt_buộc
##_xích
phím
##àn_k
miễn
đường_ray
đường_sắt
thông_số
nhỏ_giọt
đặt_cược
yêu_mến
từng_trải
##zawa
giúp_việc
trang_nghiêm
đông_lạnh
trai_trẻ
ký_sinh
##n_chí
tài_trợ
nặng_trĩu
tắm_rửa
chekhov
shu
giây_phút
hoan_ngh
car
yoshiteru
khóa_học
bảng_đen
truy_đuổi
thiên_đường
lộn_xộn
tội_nghiệp
tội_ác
1984
##_quyệt
đoàn_k
bùn
kanroji
hừm
ngân_hàng
nhân_lực
nô_lệ
nồng_n
bong_bóng
né_tránh
yamana
gắt_g
twitter
thuần_túy
metropolitan
háo_hức
nức_nở
hoan_nghênh
23
bê
cưng
dì
dung
gu
hố
kai
men
nứt
uy
vĩnh
án
##sp
##ận_lời
##jin
##zaimokuza
##cho
##_lớp
##_vuông
##_chi
##_chết
##_nhận_lời
##_sưởi
##_cong
##_cau
nghẹn
##_gió
##_du
##_dùng
##_núng
##_tri
##_trắng
##_trăm
nhiều_chuyện
##_nghệ
nhà_thi
mặt_hơi
##n_hợp
bất_giác
tiếp_quản
cửa_kính
##wata
vừa_qua
co_r
tương_đương
bóng_lo
kirimoto
##_hoảng
hết_mức
đồ_ngọt
hàng_loạt
##rus
nghiêm_nghị
thi_t
ritsu
đèn_l
giấy_phép
hợp_pháp
har
##n_phức
đấu_tranh
hồi_tưởng
##n_xe
truyền_thuyết
ống_nghe
tử_vong
sắc_thái
môn_học
hối_hả
nhận_biết
bến_xe
par
##sunoki
phiền_phức
kusunoki
yasuda
gầm_gừ
nhiễm_bệnh
ưa_chuộng
chua_chát
##_iroha
thiện_chí
nao_núng
cặn_bã
funakoshi
trông_cậy
khuôn_mẫu
cập_nhật
yamanashi
nhà_thi_đấu
bóng_loáng
au
bừng
cừ
cent
luộc
lệch
lung_l
mỡ
sánh
xách
út
##engo
##_ảo
##na
##jo
##dan
##zomi
khàn_
##_tang
##_tát
thượng
ngữ
trễ
trấn_
làn_sóng
##_lội
##_đua
giông
giri
##_hồng
##_dỗ
##_dứt
##_truyề
##_ka
##_bạ
##_bà
nghĩ_thầm
##_ngộ
##_nguyện_viên
##_ran
thời_kỳ
nhà_vệ
tự_trọng
##_quên
##_quay
##n_đáo
bất_kh
công_lý
mặc_bộ
kết_cấu
ông_bà
isshiki_iroha
tình_tiết
tình_nguyện_viên
##n_mắt
hình_phạt
bài_học
##kháng
##khàn
phản_kháng
##n_chương
xác_chết
##agisa
rộng_mở
danh_thiếp
nhạc_cụ
vi_trùng
phủi
phán_đoán
hỗn_hợp
lãng_quên
tựa_đề
nogi
nozomi
tích_tụ
tươi_cười
tôm
##n_quen
biến_dạng
tung_tích
giật_giật
bóng_chuyền
vận_hành
vận_chuyển
vào_khoảng_không
nông_nghiệp
quen_quen
phản_bác
phân_chi
phân_tâm
đơn_điệu
shizuka
lóe
đức_tin
quê_hương
lạc_lõng
dương_vật
jimeno
hưng_phấn
kín_đáo
romeo
đoàn_kết
gắt_gỏng
centimet
khàn_khàn
##_truyền_hình
nhà_vệ_sinh
bốt
béo
cằ
dở
dệt
hạc
hói
mị
ne
nạp
rách
sườn
sủa
tấy
ugh
ẩn_ý
##byo
##ých
##ễng
##ộn_nh
##_tanh
##_tăng
nhộn_nh
thề
thiếp
chốt
chôn
ngái
##_thục
##cha
phai
phịch
phân_c
##_linh
##_đu
giục
##_hoàn
##_hayato
##_chìm
##_nhiều
quầ
##_trước
##_trội
##_bổng
##ao_giờ
hơn_b
##_rộ
##_rít
đầu_bếp
##_phối
thực_hành
nhà_kính
ngày_trước
tay_chân
lời_lẽ
lời_thoại
tan_học
thôi_thúc
hôn_m
mất_mát
masa
ma_quỷ
tương_ứng
vô_tận
ít_nhiều
cà_r
lễ_tân
đại_s
##n_chọn
đóng_hộp
trống_trải
địa_vị
báo_thức
bạn_định
nam_nữ
độc_ác
tiền_l
virus
huých
trốn_thoát
lợi_nhuận
lập_dị
tuyển_chọn
khủng_hoảng
giảng_dạy
bi_kịch
kỹ_thuật_số
ác_cảm
##dia
trọng_tâm
nhập_viện
gắn_kết
chấm_dứt
liễu
phân_tích
##unibyo
kouhai
giễu_cợt
##mmmmmmmm
xích_đu
##hhhhhhhhhhhhhhhh
dạ_hội
tế_nhị
song_song
destinyland
thân_mật
hung_hãn
mạo_hiểm
ogiue
dân_gian
bách_hóa
co_rúm
đèn_lồng
bến_xe_buýt
bất_khả
phân_chia
nhộn_nhịp
##ao_giờ_hết
hơn_bao_giờ_hết
aza
bừa
bỉnh
hử
hôi
mịn
nagisa
rụng
ríu
sờ
sút
sim
tải
vắt
xông
##_ai
##ichi
##rin
##pla
##ver
##lay
##45
khập
##_tung
nho
##_thải
phanh
##_hiếm
##_hẹn
##_chội
##_sụp
##_cô
##_cơn
##_giọng
##_dây
##_mũi
##hi_nhớ
cũ_kỹ
##_nguyên
##_quý
##_xo
học_thuật
học_phí
to_tát
chắc_liệu
công_nghệ
thành_thạo
hip
chính_đáng
suy_sụp
##n_mửa
giải_tỏa
##uyển_sinh
sáng_tỏ
do_đó
##zaki
##n_giấu
cổ_áo
sai_trái
cầu_treo
##_khiễng
##khiết
cảnh_quan
tâm_linh
động_thái
tiếp_thu
chấp_nhận_lời
sẵn_lòng
vượt_trội
##hari
nở_rộ
diễn_x
độc_thoại
khung_thành
chất_liệu
nakamachi
shinkan
hóa_trang
mờ_ảo
hủy_diệt
hứa_hẹn
năng_động
nghịch_lý
vắng_tanh
ve_sầu
lò_vi
nôn_mửa
##ttle
chật_chội
##_asamura
lây_nhiễm
ogigami
thuần_khiết
nồng_nặc
thi_tuyển_sinh
nogiyama
mịn_màng
ríu_rít
khập_khiễng
diễn_xuất
31
_k
bôi
bùa
dàn_
gác
huyết
km
lu
lệnh
mỏ
múc
rám
sn
sưu
tước
vú
wi
yuya
ẩn_ch
ẩn_giấu
##_át
##sta
##fi
##rt
##rom
##kini
##den
##ẻm
##ân_đ
##ỳnh
##15
##ằn_qu
##_ta
##_tật
##_tảng
nhức
thỏ
than
chân_
##_thổ
##chỉnh
đi_đi
đi_sâu
##ay_ho
##_viết
##_vàng
##_hốt
sake
sakh
##_cưới
quỳ
quằn_qu
##_giúp
##_dã
##_máu
##_trầm
##ani
##_bão
lên_xuống
##n_đọc
loay_ho
bằng_phẳng
công_chúa
tiếp_nhận
hiề
nghiền
giải_phóng
bộ_nhớ
bộ_não
matsu
maza
##kuhari
vô_tâm
đồn
rõ_rệt
chân_trời
kata
cha_ruột
tobecchi
bánh_k
mer
##anagi
bàn_tay_phải
báo_chí
bạn_đọc
phim_hoạt
tiêu_chí
phong_phú
nam_tính
đám_cưới
tiền_đề
huỳnh
kiếm_sĩ
hoàn_chỉnh
kim_giây
ướt_át
lãnh_thổ
hoảng_hốt
kém_cỏi
ác_mộng
khẩu_hiệu
nền_tảng
##_chuông
naruse
quốc_lộ
thủy_tinh
kiệt_tác
hoang_dã
pháp_lý
nồng_nhiệt
vầng_trăng
##alin
nhà_thờ
dinh_dưỡng
khép_kín
phân_phối
shinkansen
ẩn_chứa
quằn_quại
loay_hoay
phim_hoạt_hình
huỳnh_quang
60
bl
bóc
câ
cúc
cọt
dáng
gun
ita
jana
kề
lính
mông
ome
rúc
vén
đục
##_ổ
##pin
##kai
trồng
##_thở
một_chiều
phông
##_đãi
giòn
##_sút
##_cường
##_cắt
##_cóc
##_cụt
##_dồn
##_mưu
##_ngẩn
vậy_mà
##_rực
##omo
##_phỏng
##_nghẽn
bắt_cóc
to_mắt
##n_lỏi
nhất_thời
bình_đẳng
đáng_giá
hayama_hayato
đặt_chân
viết_tay
phát_điên
chết_lặng
đồ_dùng
sâu_xa
giả_dối
bánh_răng
hội_đồng
hòa_nhạc
ghi_âm
họp_báo
đổ_dồn
xoăn
lỗi_thời
hành_lá
##_trợn
mắc_chứng
tsurumi
tận_mắt
lập_luận
##sso
mô_phỏng
ứng_viên
##_riêng
khai_mạc
len_lỏi
người_thân_thiết
##cek
chữa_lành
đắm_chìm
náo_động
lạc_lối
##iiiiiiiiiiiiiiiiiiiiiiiiiiiiiiiiiiiiiiiiiiiiiiiiiiiiiiiiiiiiiiii
khuấy_động
douta
phê_bình
trích_dẫn
bản_ghi_nhớ
tắc_nghẽn
_yukino
ngớ_ngẩn
hôn_mê
hửm
sns
sakhalin
cân_đối
cọt_kẹt
janacek
cõng
dân_s
mm
mầm
nano
ren
sành
sáo
sẫm
vinh
##_ánh
##_ép
##_zaimokuza
##sse
##ram
##ok
##ple
##ạn_m
##kin
##ậc
##ốm
##án_gi
##lyak
##ỵ_binh
##ng_cố
khứ
khốn
thác
chậu
chăng
phúc
##_lùi
củng_cố
##iến_b
##_đoàn
giam
gilyak
##_chương
##_gáy
##_sô
##_co
##_cỡ
##_cắp
##_cằm
##_dữ
##_dai
##_nịch
##_trả
##_trụ
##_ki
##_bàn
##_bỉnh
##_bọt
##_buốt
##_ngũ
##_khẩu
tự_giễu
##_xóa
ngoạn_m
aida
chắc_nịch
##n_lận
bao_bọc
đồng_tính
mất_trí
đường_thẳng
##n_tưởng
chikura
hành_trình
chuunibyo
vô_tư
##_hoặc
xa_vời
âm_thầm
tư_thục
gian_lận
dự_báo
##n_dắt
tính_chất
bánh_nướng
đỏ_s
xanh_lam
tắm_hơi
tinh_hoàn
nhân_tạo
vật_dụng
huýt
phá_hủy
tsunagi
tờ_rơi
thiên_nhiên
ống_tay
tích_tắc
say_mê
thô_ráp
trần_tr
khoanh_tay
tổng_thể
hấp_thụ
triệu_tập
ngăn_cách
kanji
đa_dạng
dẫn_dắt
chải_tóc
lôi_kéo
cốt_truyện
thứ_hạng
##_yuigahama
##unior
##_duyệt
##tion
thống_nhất
endo
bướng_bỉnh
##eeeeeeeeeeeeeeee
trụ_sở
cám_ơn
viễn_tưởng
phân_loại
cừu
ngoạn_mục
21
búng
cọ
cò
jan
kamen
lợn
lait
man
oán_gi
pe
tang
tụt
vịnh
xả
xiên
đô
đụng
đắp
##_ấm
##osuke
##per
##ve
##quyền
##don
##ỉn
##ôi_phục
khôi_phục
##_tên
##_tầng
##_tín
nhấm
chí
chóng
chèo
chệch
ngả
ngóc
tráng
##_thớt
có_khi
##_lách
##_đạm
##_nhịp
##_gật
##_cuốn
##_trễ
yuki
##_bữa
đầu_tư
biết_liệu
##_khu
##_nghiên_cứu
nhà_nghiên_cứu
tự_nguyện
##kima
học_kỳ
học_bổng
##ria
năm_học
mitsu
đường_cong
đường_dây
nhanh_nh
bố_trí
trung_quốc
nước_biển
số_một
lạnh_buốt
nghĩa_đen
soi
##miya
khu_phố
##ker
cáu
kỹ_sư
nổi_giận
tâm_sự
nhân_văn
trắng_trợn
nóng_bừng
bàn_tán
thiếu_sót
chậm_trễ
trôi_nổi
xoắn
hộp_thư
xếp_hạng
văn_chương
##lawan
##n_xa
nats
lập_trường
ước_tính
kyoko
ngưỡng_cửa
tái_tạo
khắc_phục
heck
khóe_mắt
đoá
##okazu
bế_tắc
palawan
##ahahahah
kanto
robot
bất_chợt
lồng_tiếng
thẩm_vấn
##art
##ard
thưa_thớt
đẫm_lệ
huyề
huy_chương
bunmi
trợ_cấp
mê_hoặc
dạ_dày
bắp_cải
thí_nghiệm
tomokazu
kỳ_quặc
ninja
##tube
khuyết_điểm
yukinoshita_hino
masashi
simbashi
ống_tay_áo
kamenosuke
oán_giận
_v
az
bưu
bàng_hoàng
cu
cống_h
er
fa
hăng
hẻm
lanh
lui
mọt
nách
oi
pu
rát
rò_r
tưa
tỉa
vận
vấp
xưa
xắn
xảo
ăn_ch
##_ô
##_ẩm
##_ấn
##ne
##ner
##gu
##tano
##tton
##oshi
##kon
##ãm
##ổm
##òe
##weet
khổ
##_tắm
nhột
chửi
trật
trục
##_thánh
##_thăm
##_thua
##chino
đi_t
phường
##_lơ
##_lăn
##_đà
##_đạn
##_vẫy
##_hổi
##_hát
##_chốt
##_chốc
##_chuyền
người_mẫu
##_nhợt
nghẹt
quỹ
trong_v
##_da
##_môi
##_màng
##_trại
##_bài
##_nga
##_ngợm
sau_cùng
mài
cảm_hứng
##_rẫy
##_khuất
##_quái
##_xu
cảm_thông
ngon_lành
tori
##n_hóa
##n_luyện_viên
##n_bạo
tiếp_diễn
dùi
lý_do_đó
##n_tập
##n_toán
##n_ngầm
nước_hoa
cao_tầng
sinh_sản
đầy_rẫy
khả_nghi
##n_dịch
tâm_thần
gió_lạnh
mục_nát
nóng_n
nóng_hổi
riêng_biệt
kính_trọng
che_khuất
vũng
phong_cảnh
da_thịt
đám_tang
tầng_lớp
hồi_hộp
bơi_lội
nag
thiên_nga
tách_biệt
thương_tiếc
xét_nghiệm
môn_toán
##ster
##kkomi
##_tốc_hành
nghịch_ngợm
khí_chất
##_vũ_hội
##shino
khởi_hành
gãi_má
phân_bổ
đa_số
đỉnh_cao
huấn_luyện_viên
tán_thành
##wich
trợ_giúp
đóng_góp
đu_quay
##_yukinoshita
_hickey
tàn_bạo
youtube
nhăn_nhó
bảo_tàng
giông_bão
lò_vi_sóng
_komachi
katakana
itada
chuunibyou
chóng_mặt
cống_hiến
rò_rỉ
xảo_quyệt
_ah
cạ
diệt
gập
hạn
hang
hót
hụt
junior
lă
lộng
lảng
mách
mượt
nén
pro
să
sếp
vay
yay
đình
##es
##ny
##ten
##diện
##_tùng
nhổ
nham
thám
than_th
triệt
##_đọng
##_vâng
##_huyết
##_nhựa
##_gh
##_sen
##_cộ
quét
quân_đ
những_ai
nhưng_mà
##_mòn
##_trệ
##_trộm
cho_nên
##_ngã
##_ngôn
lên_cơn
##kinomiya
yukinoshita_liếc
yukinoshita_yukino
thế_kỷ
##án_tiếp
##_nghề
##_quá
##_xước
tốt_lành
học_viện
ngoan
phòng_ng
phòng_không
quá_đáng
##n_lao
xe_cộ
công_dân
sento
đồng_thanh
đồng_minh
mất_công
đường_nhựa
##n_man
chủ_quan
##kuku
nước_bọt
liên_tưởng
ngủ_gật
chân_thật
sobu
##n_giải
biến_thái
gian_hàng
cầu_kỳ
trắng_xóa
rico
nóng_bỏng
kế_toán
kịp_thời
tàu_tốc_hành
họp_mặt
nguyề
du_khách
công_tố
hạ_ánh
kỷ_luật
##_loẹt
kích_cỡ
rung_chuông
thương_hiệu
thương_mại
gợi_cảm
bi_quan
xúc_tiến
lạc_quan
bổ_nhiệm
nông_th
##ân_cận
nhỏ_nhẹ
tháo_tai
đỉnh_điểm
yaki
##log
đứt_quãng
đậm_đà
nhân_loại
tuân_thủ
##thon
lúa_mạch
lay_động
minh_họa
truyện_ngắn
trú_ẩn
lòe_loẹt
lung_lay
azabu
huyết_thống
hiền_lành
đỏ_son
##_khuẩn
heckler
erina
nham_hiểm
than_thở
sentosa
27
70
bẻ
bạt
bọt
cậ
kao
lè
lược
lọc
lạm
lót
mập
migisa
nơ
of
otsuka
pn
rêu
rậm
văng
văn
đom
ồ_vâng
##_f
##tama
##uma
##xo
##ci
##c_điểm
##ld
##ứ_quán
##ìn
##_tông
nhóc
chin
chảo
chĩa
ngẫm
triều
##_thác
##_thảm
##_vu
##_vòng
##_hẹp
##_chang
##_chiến_b
người_ta
##_gội
##_cui
trong_s
##amin
##_giải
##_giành
##_bìa
##_ngầu
##_ngách
##_ngắt
##_ngáy
##eople
##_khúc
##_quyện
bắt_chuyện
bắt_mắt
##_xã
##_xót
##_xịt
##_xổm
lớn_lao
##n_hạ
bất_lợi
tele
ngồi_xổm
##àn_tụ
makuhari
sáng_mai
bóng_ma
phát_huy
vô_tội
cao_điểm
đánh_rơi
đánh_cắp
đồ_vật
koch
hình_vuông
##êng_li
âm_mưu
bài_toán
chân_trần
tạo_dáng
##_khoáng
cầu_hôn
thiêng_li
giao_dịch
bàn_b
bánh_s
bánh_xe
chạm_mắt
##n_rủa
sức_sống
##n_nhiệm
giá_cả
tuột
hết_sức_lực
hòa_quyện
trực_diện
tăng_cường
bệnh_tật
thức_tỉnh
quy_luật
dịch_chuyển
hoa_văn
diễn_giải
danh_bạ
trầm_tính
chữ_viết
thấp_kém
tùy_tiện
khô_h
tsukkomi
tsukinomiya
truyền_thống
tranh_giành
tử_cung
run_run
hồn_nhiên
chiến_thuật
súng_ngắn
hối_lỗi
thương_xót
mảnh_mai
pha_trộn
vỡ_sự
hữu_hình
cam_kết
lưu_giữ
wakana
đoàn_tụ
sát_nhân
chói_chang
lắp_ráp
thầm_lặng
watari
cờ_bạc
nhược_điểm
mạch_lạc
họa_tiết
ngứa_ran
ngứa_ngáy
tế_bào
lây_lan
##rrrrrrrr
nhíu_mày
êm_dịu
guitar
tay_trên
sáng_sủa
shuto
phân_công
đại_sứ_quán
ngóc_ngách
azami
nghẹt_thở
dùi_cui
quân_đội
nguyền_rủa
nông_thôn
kaori
lạm_dụng
ngẫm_nghĩ
thiêng_liêng
500
atsu
big
bói
dơi
dẫm
fan
gôn
han
hig
ke
lở
lân_cận
okura
tột
tao
túp
túm
u_sầu
vớ
ăn_n
##_ayase
##age
##ùn
khích
khăm
##_tựa
thong
thập
thịnh
thiệp
chen
chót
##_thản
##_thấp
cóc
phấn
##_lê
##_để
##_đôi
##_vua
##uyễn
gián_tiếp
##_hít
##_sảo
được_việc
ra_đời
##_nại
phải_biết
yuu
##_biện
##shiva
đầu_hàng
##_phầ
tự_chủ
##n_đường
##_học_sinh
công_lập
thành_tự
nhất_quán
nghi_lễ
trông_hơi
##n_minh
quan_tài
cosp
##n_nắp
di_truyền
chu_kỳ
phát_âm
##tori
vô_trách
đánh_bóng
##n_sôi
hình_minh
sinh_hoạt
tập_đoàn
thể_lực
trang_trại
cánh_cụt
định_kỳ
cấp_b
độ_ẩm
##n_chấn
bánh_t
quả_thực
##_điều_hành
##n_vặt
thú_c
đèn_
##n_nhằn
đời_thường
nửa_chừng
che_phủ
chung_kết
chibasen
phương_án
##_thực_sự
trầm_cảm
phấn_chấn
chứng_tỏ
dạy_toán
ngăn_nắp
thiên_vị
thủ_thuật
tuyển
bông_cúc
##_touka
chảy_máu
sắc_sảo
phi_thường
phi_lý
máy_tính_xách
tổng_thống
##n_kiệt
phạm_pháp
mát_lạnh
cất_cánh
thảm_họa
sát_hại
##ahahaha
nhạt_nh
biệt_thự
dầu_gội
little
okazaki
takashima
phóng_viên
phóng_đại
bạc_màu
thối_nát
##pedia
đun_sôi
giám_đốc_điều_hành
phê_duyệt
vo_ve
ẩn_dụ
giác_quan
green
khiếu_nại
cằn_nhằn
matsuo
##kimasu
natsnagi
torii
cạn_kiệt
lăn_lộn
triệt_để
thong_thả
thành_tựu
cosplay
vô_trách_nhiệm
báu
ber
dv
dại
den
dứt
gỡ
hà
lứa
mộng
mò_m
or
sứ
uh
usumi
vò
vệt
xước
đợt
##_ái
##ư_dân
##rl
##ud
##u_giác
##kom
##ven
##ụa
##lent
##zo
##ẽo
##97
##_tengo
thọc
thẳm
nguyền
##_thuyền
cót
làn_đường
phết
##_lẫy
##_điệ
##_đuôi
##_đệm
##_vú
##_vắng
##_hạ
##_hiên
##_hiếp
##_chấp
##_chrysalis
##_nhảy
nghìn
##_man
##_no
##_năm
##_buồn
hoành
thực_chất
qua_ngày
có_lẽ_nào
nhàu
nhà_vua
đúng_mực
hai_mươi
##n_điều
học_vấn
top
xe_lăn
cùng_với
dù_vậy
quay_cuồng
hisumi
lý_luận
năm_mươi
suy_yếu
suy_nghĩ_lại
##n_nát
mas
viết_lách
mẹ_con
vô_danh
##n_cố
##n_cảm
##n_suyễn
bầu_dục
soba
##n_giờ
sai_lệch
dùng_bữa
gia_tăng
dự_phòng
định_kiến
nổi_loạn
cây_xanh
thị_trường
mái_hiên
địa_lý
mười_giây
xanh_nhạt
hèn_hạ
akizuki
tàu_điệ
thái_quá
phong_thái
phong_trào
băng_đô
dashi
danh_hiệu
vi_khuẩn
ngoại_tình
đậu_ph
thủ_đô
kích_động
cứu_rỗi
sắc_mặt
ảo_thuật
buông_tay
thừa_kế
trăng_lơ
giảng_bài
bi_thảm
hào_quang
truyền_giáo
tái_nhợt
##_nghiền
trùng_lặp
ngại_ngùng
biên_bản
hen_suyễn
lưu_trữ
trì_trệ
xa_xa
##isshiki
quốc_tế
mìn
chức_danh
nhập_học
_đợi
khái_quát
gấu_váy
chữa_trị
lôi_cuốn
nãy_giờ
hâm_mộ
daiichi
vạch_trần
oginami
reshiva
chính_trị_gia
cài_đặt
##ssssssssssssssss
bịa_đặt
cà_rốt
khứu_giác
_vâng
bưu_điện
trật_tự
itadakimasu
lộng_lẫy
mách_bảo
mượt_mà
công_tố_viên
tao_nhã
khích_lệ
bánh_tart
thú_cưng
mò_mẫm
usumizu
tàu_điện_ngầm
trăng_lơ_lửng
_a
_l
bồi
bom
cắ
cán
cua
cis
cwata
diện
don
ed
iba
kè
kin
ore
rương
tưới
êm_
##bn
##at
##fun
##ren
##uchi
##con
##quốc
##zz
##09
##wn
khảo
thách
ngư_dân
trị
##_theo
có_thai
nhướ
phiếm
##_lái
##_lãnh
##_vang
##_hi
##_hòi
sag
sam
sa_thải
##_nháp
##_cập
##_coi
điều_hòa
##_mắng
##_mùa
##_mịt
##_trỏ
##_trơn
##_người
##_nguồn
##ship
chỉ_huy
##_kháng
##_phồng
ngày_một
cười_đùa
loãng
lo_sợ
##segawa
khó_coi
##n_hòa
bất_hợp
##n_ba
công_tác
thành_hình
isbn
##óc_dáng
bình_phục
chủng
##kuro
##toshi
liên_xô
vô_điều
##n_cầu
phần_trăm
bài_luận
miệng_định
trang_bìa
##n_dung
bảo_trì
bánh_p
##n_nhỏ
nóng_bức
thiếu_nữ
hiệu_trưởng
mười_tuổi
đời_sống
nguệch
nhắm_nghiền
##_ngoạc
tuần_tra
gaga
tức_là
cat
calo
băng_giá
du_thuyền
hiện_giờ
áp_suất
trầm_trọng
nhạc_kịch
nắng_nóng
thuyết_trình
kiên_định
phép_thuật
sơ_tán
bản_quyền
##les
đổi_ý
khoan_dung
air_chrysalis
##quả
kinh_nguyệt
triệu_phú
nâng_cốc
gánh_chịu
nhạy_bén
cưỡng_hiếp
##8409
##_phát_thanh
hẹp_hòi
đích_thực
thần_ch
##andwich
dũng_khí
đài_phát_thanh
bão_tuyết
##oooo
ầm_ầm
##ther
cổ_tay_áo
hehehe
rối_loạn
phơi_bày
guile
nhãn_hiệu
menu
uyể
haruno
tang_lễ
nhanh_nhẹn
đi_tiểu
##_xuân
nagano
phòng_ngừa
bánh_sandwich
máy_tính_xách_tay
##978409
cisco
cwataru
khảo_sát
isbn978409
vô_điều_kiện
nguệch_ngoạc
isbn97840945
22
cai
dụ
esso
hùng
hachi
kì
kon
kee
lọ
lồi
lạo
lõi
lượn
mụ
mẩu
nôn
ox
oẳn
pc
rể
rễ
rê
ray
skin
tâng
tweet
vóc_dáng
ô_nhiễm
ôn_hòa
ảm
ấp
##tte
##ol
##u_mến
##kun
##zai
##nh_hướng
khâu
##_tì
##_tầm
##_tuyền
chém
ngất
trầy
##_thé
phác
##_lẻ
##_đới
giở
##_thể_dục
##_chấu
##_chéo
##_ghi
##_sờ
##_soạn
##_côi
##_câu
quận
##_giặt
cảng
##_dẻ
##_dẳng
##_trêu
##_kim
##_bới
##_bảy
##_bầm
##_bịch
choàng
mà_lại
##_râm
##_khan
##_phờ
thực_vật
##sey
bằng_lòng
##n_lãm
##n_bù
quay_phim
nhất_quyết
kết_cục
nghi_thức
##n_môi
emo
ma_ám
di_tích
tương_đồng
chủ_ý
trung_lập
bóng_mềm
nước_khoáng
phát_quang
##_hoi
cao_độ
cao_lớn
hình_bóng
xấu_tính
máy_lạnh
chân_tay
##_túc_xá
kéo_lại
trang_nhã
##n_dĩ
ký_túc_xá
ngón_trỏ
gây_rối
đền_bù
đáp_án
##_hổng
hmmm
đèn_đ
động_não
đen_tuyền
tuần_l
nghi_ngờ_liệu
##lick
che_mặt
giơ_tay
cứng_đầu
quy_trình
đội_ngũ
lỗi_lầm
phong_tục
mồ_côi
trầm_tư
tù_tì
phá_sản
chứng_nhận
chứng_sợ
chóp
chất_độc
yuta_asamura
##burg
tam_giác
lầm_bầm
sân_ch
siêu_tốc
gợi_tình
lật_trang
##gata
phạm_tội
phỏng_đoán
khẩu_vị
biến_đổi
lưu_ý
##tonagi
satoshi
trìu_mến
lỗ_hổng
narutonagi
bốc_khói
khiêu_dâm
khai_giảng
lắp_đặt
xám_xịt
the_thé
hiệp_hội
khuynh_hướng
nước_tiểu
dai_dẳng
shizuzawa
bơ_phờ
đau_nhói
chấn_động
thon_thả
doujin
tiềm_thức
núm_vú
thụ_động
châu_chấu
trinh_nữ
võ_thuật
thao_túng
dị_ứng
lố_bịch
triển_lãm
tiền_lẻ
dân_số
gilyaks
vấp_ngã
khô_héo
atsugi
nhạt_nhẽo
gagaga
thần_chú
uyển_chuyển
skinship
ảm_đạm
trầy_xước
phác_thảo
26
400
_m
_y
_ng
aka
cuốc
dé
gừng
hiên
hiếu
kẽ
kỵ_binh
lẫ
lăng
lầy
lùa
lươn
mớ
mc
mỏi
múa
mini
natsu
quyên
rủ
son
tồ
tứ
vố
xòe
ăn_b
đầm
ướp
ấn_định
##eg
##ek
##_j
##gram
##ớ_trêu
##uh
##u_tượng
##car
##ận_động
##jà
##áč
##lan
##zer
##ú_sĩ
khỉ
##_tụng
##_tạng
thước
thịch
trớ_trêu
không_nh
một_lực
phú_sĩ
##_lường
##_lọc
##_đai
##_đập
##_víu
##_chải
##_châm
##_chóc
##_nhòm
##_sưa
##_sét
##_sũng
##_côn
##_gin
##_dại
##_dành
##_diếp
##_trọ
##_trịa
##_komachi
làm_ng
##_ngợi
##_rợn
đầu_hè
nhà_trọ
mặt_s
mặt_biển
thứ_tư
nghe_ra
học_thuyết
logo
toa
##n_hậu
##n_hướng
bước_ngo
tivi
vui_chút
đối_lập
đồng_loạt
##n_mươi
bỏng
##n_niệm
diêm
tương_thích
kiy
##top
đánh_lạc
hết_lòng
##kova
koshi
##rush
máy_sưởi
cá_ng
char
chú_thích
nhân_quả
cấp_cứu
mơ_ước
mơ_mộng
mơ_màng
##omizu
trắng_tinh
phù_du
thất_nghiệp
nội_quy
hiệu_suất
##erry
##ersey
cầm_cốc
hòa_thuận
hòa_giải
mười_bảy
chia_cắt
yoga
##n_khói
hatano
kính_râm
ghim
đổ_nát
vũ_trụ
miễn_dịch
du_côn
##_viễn
danh_mục
thuộc_lòng
trượt_tuyết
nhiệt_huyết
hạ_cánh
vụn_vặt
chuyển_hướng
lan_man
insta
natto
kỷ_yếu
ống_nhòm
quá_khích
hóa_học
hiếm_hoi
lộ_trình
thanh_lịch
trừu_tượng
mũi_tên
say_sưa
##_ngày_càng
dày_d
giảng_viên
ướt_sũng
điện_
đảo_lộn
##n_kẽ
chế_tạo
rau_diếp
quý_hiếm
dâu_tây
nghịch_nghịch
đạo_diễn
hei
mí_mắt
đo_lường
mochi
bocchi
muỗi
dera
chức_vụ
yakini
sei
hoang_vắng
thẩm_phán
gấu_trúc
đầy_đặn
rùng_rợn
đều_đều
tròn_trịa
lũy
xua_đuổi
khịt_mũi
dư_vị
yugibu
xâm_phạm
thiện_cảm
tiềm_ẩn
long_não
cám_dỗ
bó_sát
thí_sinh
sững_sờ
ửng_hồng
keiyo
##2015
phô_trương
thao_tác
triết_lý
bê_tông
vĩnh_viễn
##danuma
trấn_an
phai_nhạt
quần_đ
dàn_nhạc
nanoro
##_phần_ba
đèn_pin
nhướng
##_ghi_âm
##burger
sân_chơi
déjà
lẫn_lộn
##áček
không_những
làm_ngơ
bước_ngoặt
instagram
yakiniku
déjà_vu
_s
_saki
ara
ama
bro
bla
cào
cồn
click
dắt
hú
húp
huyền
hợt
kê
kana
kiếp
lách
meo
mon
muôi
nả
oda
people
ró
ron
sư
ung
wor
xăng
yan
yaha
za
zel
ùa
ớt
##_ỉ
##_âu
##by
##bon
##ad
##fe
##pu
##vân
##vận_động
##ãn_c
##jaya
##ly
##õn
khua
##_tù
##_tề
##_tới
##_tấn
nhả
nhúng
thườ
thính
thớt
thiêu
thrush
chổi
chuộc
chợp
trạc
trùm
làn_khói
##_la
##_lắc
##_lóa
##_đâu
##_vô
##_vẩn
##_hầm
anh_cả
##_chiên
##_chấm
sama
##_nhộn
##_gai
##_sáo
##_cương
nghếch
##_giày
##_giòn
##_dở
ra_tay
##_mấy
##_nam
##aido
##_tru
##_trông
##_kinh
##_bước
##_bóp
##_ngưỡng
cảm_tình
##_rắc
hoho
##_khớp
bị_cáo
thực_tại
##_nghẹt
##_nghếch
quan_niệm
tự_ý
##n_độn
cười_nhạo
##_xả
##_xưng
##êm_ngưỡng
trả_giá
xe_máy
tengo_ka
##ris
##urashi
năm_tháng
vui_nhộn
suy_luận
đường_hầm
##n_mạo
##n_miệng
##n_mạch
##_thoáng
đặt_cốc
yêu_quý
chiêm_ngưỡng
con_r
ma_thuật
hành_tinh
##ân_ph
thu_hoạch
##n_thượt
vô_hại
cao_trào
##n_cong
âm_ỉ
chẳng_lẽ
quan_tâm_liệu
buồng
xuất_viện
chỗ_đứng
máy_ghi_âm
càng_ngày_càng
thoa
cổ_tích
đau_buồn
cá_hồi
khả_thi
đơn_v
giao_phó
vòng_đua
đóng_dấu
lắc_vai
hội_học_sinh
thị_lực
bím
kiểu_dáng
nóng_lòng
thân_thể
chịu_khó
rượu_gin
hasegawa
đổ_xô
bệnh_xá
phim_truyền_hình
sha
sở_thú
cụt
vũ_lực
phương_hướng
băng_đạn
du_học
tín_nhiệm
nhiệt_đới
vật_lộn
ngốc_nghếch
hồi_kết
chán_ng
##n_xen
inch
tsudanuma
khuyên_tai
sân_vận_động
đề_cao
##soba
xoa_bóp
nhựa_đường
precu
luật_pháp
loài_người
196
##shin
thần_thánh
nông_dân
bế_mạc
##ân_sự
xa_xưa
ngăn_cô
trọng_lực
vững_vàng
biện_minh
cưỡng_chế
lương_tâm
đan_xen
chói_mắt
chói_lóa
khai_thác
vệ_sĩ
dầu_m
leng
chỉnh_tề
##inyl
diễn_tập
_hmm
chừng_mực
tưởng_chừng_như
tiềm_năng
dâng_trào
hàm_răng
dinh_thự
kenken
phô_mai
2021
uốn_cong
bất_khả_thi
nho_nhỏ
bánh_kếp
sành_điệu
vinh_dự
huýt_sáo
trần_truồng
janáček
đô_thị
tưa_miệng
đình_chỉ
thám_tử
lè_lưỡi
##_fuka
higurashi
vớ_vẩn
dvd
hoành_tráng
nhàu_nát
đậu_phộng
thách_thức
bất_hợp_pháp
chủng_tộc
oxy
kiyomizu
koshien
cá_ngừ
huyền_thoại
nản_lòng
zelkova
thườn_thượt
tengo_kawana
đơn_vị
precure
cạm
dò
diệ
dân
dẻo
hẻo
két
líu
mina
mứt
nang
nan
nêm
rạ
rì
rưới
sấy
sấp
vọng
vân
vòm
xì
xửa
xỉn
ý_cậu
ăn_s
ăn_kh
ấn_độ
##eng
##_ong
##bun
##ari
##hama
##tail
##rai
##ust
##ct
##mu
##yan
##ấn_t
##ặm
##ơ_tr
##ẫng
##way
##_tí
nhuố
nhện
nhúc
nháp
thung_l
chô
chanh
ngàn
ngọc
ngạt
trơ_tr
##_thí
phấp
##_liền
##_vặt
##_vãn
giẻ
gieo
gimoku
giãn_c
##_hái
##_hút
##_thể_xác
##_chúc
sa_sút
##_nhàng
##_nhích
##_góp
##_cóng
##_cầm
điều_phối
rao
##_mạo
##_mara
##_miếng
##_mượn
##_nang
##_non
##_trận
##_trọc
##_trốn
##_kỵ
##_bổ
##_biên
##_bịp
##_bụi
##shimi
##shiro
để_dành
khác_giới
##_rữa
hon
hokk
##katsu
##_phới
thời_cơ
nhà_lãnh
tự_xưng
##kiêng
cách_ly
##_xát
toxo
tate
phòng_vệ
##n_bí
cơn_s
cơ_chế
công_nhân
thành_tiếng
quay_vòng
thay_mặt
hôn_c
miền
##wasaki
##ual
ăn_trộm
chi_trả
con_b
bốp
##n_nớt
ma_túy
hành_tây
di_chúc
sáng_tác
##kuta
nước_da
xa_lánh
đánh_cá
đánh_đập
chết_đuối
##n_sĩ
lạnh_cóng
hình_tròn
hình_mẫu
##ima
sinh_dục
chẳng_mấy
tham_lam
solo
##urikura
áo_cho
##_yomiuri
gia_tộc
cầu_tuyết
định_hướng
kẻ_ngốc
##n_rén
hội_nghị
hội_ngộ
bíp
nội_tạng
đỏ_rực
biểu_tình
riêng_lẻ
bàn_tay_trái
##lie
nửa_miệng
akira
dấu_trang
đội_hình
đội_trưởng
tiêu_hóa
tinh_vi
shr
hoa_cúc
chồng_chất
##_sở_hữu
du_hành
shira
khung_hình
trầm_giọng
viêm
##lapo
lalapo
dây_xích
nari
bảng_hiệu
khuyên_nhủ
non_nớt
##_totsuka
cứu_vãn
nhịp_nhàng
thanh_xuân
mờ_ám
mờ_mịt
##_miura
thô_tục
trăng_tròn
##_thơm
điệp
cải_tiến
lơ_là
treo_cổ
tái_hiện
nuốt_khan
quái_gì
luật_lệ
kịch_tính
khẩu_trang
biên_lai
bồ_câu
giám_hộ
ăn_kiêng
199
##shu
##cky
đơn_thu
cuộn_tròn
moto
lục_ổ
mugi
cưỡng_bức
biệt_lập
sibe
len_d
thẩm_quyền
tê_dại
trung_học_migisa
tra_tấn
thối_rữa
dư_thừa
bấy_nhiêu
thống_kê
hung_dữ
jag
ẩn_nấp
nhôm
xâm_nhập
khuất_phục
trơn_tru
lề_đường
toàn_quốc
##tainer
phật_giáo
tay_trong
kỳ_quái
tố_tụng
nhăn_nheo
sáng_suốt
lốp
kaihi
##_kawasaki
##hhhhhhhhhhhhhhhhhhhhhhhhhhhhhhhh
##plas
sưu_tập
mercury
##ssette
phúc_lợi
yukipedia
huyền_bí
lui_tới
ăn_chút
yakisoba
##_chiến_binh
trong_sạch
_asamura
bồi_thường
êm_ái
sagamin
tuần_lễ
natsunagi
quyên_góp
vốn_dĩ
mặt_sốc
nanorobot
rón_rén
ung_thư
con_rối
diện_mạo
hẻo_lánh
nhuốm
nhúc_nhích
thung_lũng
phấp_phới
giãn_cơ
##_marathon
hokkaido
nhà_lãnh_đạo
toxoplas
cơn_sốt
chẳng_mấy_chốc
áo_choàng
đơn_thuần
28
ar
bảnh
bưng
bạch
dồ
dặn
gon
gò_m
goo
hm
hờ
hưởng
kiện
lột
mổ
muộ
mút
nòng
ong
quyện
rắ
sừng
sun
sói
sli
spa
tảo
tua
tủy
vuông
vinyl
xố
xáo
xui
đờ
địch
đem
ầm
ổ_khóa
##_ao
##iz
##pon
##ms
##mon
##mame
##jan
##ds
##line
##óe
##ỏm
##10
##50
khăng
##_tướng
nha
nhử
nhiên
nhiếp
thây
châ
chướng
chèn
trúc
trịch
trợn
##_thối
một_trăm
một_phần_ba
##n_ích
điếm
phước
phẩm
##_lang
##_lăng
##_vã
##_vây
##_vảng
##_văn_h
##_vẹn
giun
##_họ
##_hợt
##_hachiman
##_hayama
##_hụt
đãi
##_chiếm
##_chủng
##_chớp
sa_mạc
##_nhối
##_nhọn
##_gác
##_cốt
##_cộp
##amo
##_giũ
##_dạ
##_dâu
ran
##_mạ
##_mượt
##_trừng
##_kiệt
##_két
##_kỉnh
##_bát
từ_chức
đầu_lưỡi
##eon
##_khiếu
##_phổ
##_phiếm
thế_lực
quan_ch
nhà_tù
##kitani
##_quáng
tay_vị
tay_không
cách_thức
##n_đài
##_xẻo
học_giả
toạc
phòng_thí
bất_công
##n_bóng
xe_lửa
tengo_lặp
công_nghiệp
tiếp_sức
khoang
lý_lẽ
đối_kháng
đồng_thuận
mất_ngủ
đôi_mươi
mới_lạ
giải_đáp
xem_ra
con_d
bốn_mươi
mù_quáng
##n_nứt
tên_lửa
hành_hạ
thuở
trung_thành
khán_đài
mẹo
vô_địch
##_hoạn
khuôn_khổ
đặc_sản
##koro
##kohama
lạnh_ngắt
koi
chơi_trò
tối_
sắp_đặt
##_khoát
##kei
dự_vũ_hội
phản_c
trang_trải
##n_dỗi
##eman
kỹ_càng
thẳng_đứng
quả_nhiên
phù_phiếm
kế_nhiệm
marukun
hashi
kính_ngữ
nguyên_vẹn
##reen
cassette
phương_ngữ
phương_châm
độc_quyền
danh_dự
vật_chất
ngoại_ô
##lash
dây_chuyền
hỗn_độn
##n_xao
tsun
lừa_bịp
truy_cập
##_cửu
thầy_giáo
rung_lắc
##_tokiwa
đương_đại
cứu_trợ
phục_kích
kim_cương
đất_liền
đổi_mới
ngẫu_hứng
năng_khiếu
trùng_khớp
ác_quỷ
lỡ_nhịp
nâng_ly
mươi_giây
tiên_tri
lò_sưởi
197
bàn_ủi
hamburger
xa_xỉ
book
hậu_bối
trọng_tài
##ahahahaha
rou
khám_nghiệm
sốt_ruột
chiến_trường
cứng_đơ
giặt_giũ
phân_vân
xua_tan
đức_tính
dư_luận
light_no
họa_sĩ
trợ_lý
bơm
##pper
tượng_trưng
jazz
vòng_vây
xâm_chiếm
hộ_mệnh
mai_mối
xôn_xao
ikejiri
hải_quân
joker
hời_hợt
chiêu_đãi
giác_ngộ
cãi_vã
quang_đãng
##kkkkkkkkkkkkkkkk
vĩnh_cửu
##mmmmmmmmmmmmmmmm
sờn
sưu_tầm
nhức_nhối
đi_đi_lại
gunpla
_yukinon
cáu_kỉnh
hăng_hái
nóng_nảy
lảng_vảng
bàn_bạc
tột_độ
thập_kỷ
dứt_khoát
cót_két
isbn978409451
doujinshi
tồn_kho
yanke
##_fukada
dẻo_dai
líu_lo
rạn_nứt
tateyama
narita
điệp_khúc
gò_má
hờn_dỗi
muộn_màng
slide
xốp
xáo_trộn
xui_xẻo
nhiên_liệu
trịch_thượng
phước_lành
phẩm_giá
quan_chức
tay_vịn
phòng_thí_nghiệm
con_dấu
light_novel
36
_ayase
bg
báng
bền
cấy
cồng
dái
dồi
gan
gộp
hốc
hồn
ichino
jin
jersey
kg
ky
kaa
lộp
mr
mấu
mốc
núng
ok
oải
pau
pon
purikura
rình
rãnh
sp
sải
sỏi
súc
som
sạc
spo
tẻ
tị
tỉ
tục
tăm
tạt
ân_h
ân_s
ô_u
ùn_t
đê
##edo
##_isshiki
##bara
##ag
##32015
##rk
##cc
##ọn_l
##lk
##lon
##zhe
##ềng
##we
##ngel
khom
##_tìm
##_tuyển
##_tẩy
thiểu
chă
chê
chần_
chọn_l
ngời
trắc
tróc
vành
##_thiên
##_thổi
##_thiển
cóng
##chừ
##chin
nóc
như_không
##n_y
điêu
phạt
##_đắc
##_đìa
##_vò
người_bệnh
##_sướng
quân_sự
##_giáp
##_dào
##_dãi
##_narasaka
yuko
##_keng
##_bù
##_bẹ
##_bỉ
##_bán
##_bãi
##_bạch
##_bênh
choco
##shiyama
cảm_lạnh
sự_ích_kỷ
##tara
tiến_xa
tiến_hóa
##_khăng
yukinoshita_hơi
sanshiro
##ento
hỏi_thăm
nhà_máy
nhà_riêng
tự_nghĩ
##n_đâu
bắt_giữ
##_xứng
loẹt
trở_lạnh
toán
tan_r
bất_đắc
##ấp_hành
container
cơ_học
quay_gót
bao_bì
##gisa
ban_ch
miyama
tình_đầu
mở_lòng
##_tâm_thần
bỏ_sót
quyết_đoán
cotton
##_bộn
chủ_sở_hữu
trung_gian
chuo
phát_minh
cao_quý
khuôn
chết_chóc
##n_cảnh
ghế_so
lâu_đời
soạn
tư_tưởng
túi_du
áo_đấu
áo_tắm
áo_giáp
cổ_xưa
cá_chân
##khốc
phản_diện
đại_chúng
quanh_năm
giao_thừa
vòng_cung
##n_châu
trắng_n
ria
gió_mùa
hội_trưởng
##n_nhẹ
động_kinh
đỏ_tươi
lạ_mắt
##_tác_dụng
nguôi
yoyo
báo_động
trực_quan
tamago
ghi_bàn
dấu_chấm
tiêu_thụ
tiêu_vặt
tinh_dịch
sherry
gari
ngang_hàng
ngang_bằng
đẩy_lùi
lẽ_thường
thiết_thực
hồi_sinh
##lato
phá_bỏ
phá_hoại
naka
kỷ_lục
sơ_đồ
vuốt_tóc
thủ_đoạn
tuyển_tập
tươi_mát
thô_thiển
##sti
hoàng_hô
ôi_chúa
tổng_số
tổng_quát
vùng_vẫy
trứng_tráng
luật_chơi
bám_víu
198
đen_bóng
thứ_ba
tàn_khốc
phiền_đâu
hồng_nhạt
led
hoang_tưởng
lắc_lắc
bóng_râm
pop
đàm_thoại
##ood
cây_bút_bi
chật_hẹp
thăng_tiến
lê_bước
jirom
búi_tóc
canh_gác
ngụy_biện
eriko_fukada
mê_cung
##_đoạt
##lingual
mãn_t
mãn_châu
nói_thẳng_th
_hikitani
dụi_mắt
ikeda
thụ_thai
tướng_quân
mật_ong
##dere
doanh_nhân
##uuuuuuuuuuuuuuuuuuuuuuuuuuuuuuuuuuuuuuuuuuuuuuuuuuuuuuuuuuuuuuuu
cuồng_nhiệt
vu_nữ
triết_học
parco
quần_bó
bừa_bãi
bừa_bộn
xông_hơi
##_ổn
##iiiiiiiiiiiiiiiiiiiiiiiiiiiiiiiiiiiiiiiiiiiiiiiiiiiiiiiiiiiiiiiiiiiiiiiiiiiiiiiiiiiiiiiiiiiiiiiiiiiiiiiiiiiiiiiiiiiiiiiiiiiiiiii
nhấm_nháp
trong_vắt
ăn_nói
lăng_mạ
đầm_đìa
nhướng_mày
arashiyama
brother
ronin
chán_ngấy
leng_keng
##kutagawa
khăng_khăng
tsundere
đi_đi_lại_lại
bgm
dồi_dào
ichinose
mấu_chốt
ân_sủng
ô_uế
ùn_tắc
##zheim
thiểu_số
chần_chừ
chọn_lọc
tan_rã
bất_đắc_dĩ
ban_chấp_hành
ghế_sofa
túi_du_lịch
29
_th
bệ
com
cáo
comi
cla
dời
dậm
gra
gyo
hàn_
hahahaha
kỉnh
mf
mại
mặn
nu
nương
nấp
ot
obi
ogata
prom
sọc
tch
ton
tụng
tân_b
vạng
xối
yanagi
óng
ăn_r
đố
ấu
##night
##gao
##ron
##rand
##op
##xedo
##cao
##ks
##kame
##kku
##kuni
##dung
##ụm
##ởn
##lla
##ẫn_n
##ww
##wood
##_tống
nhĩ
nhầy
nhéo
thé
ngọng
tròng
trũng
trấn_t
##_thờ
##chu
đóm
phản
phẫn_n
##_lóc
##_đỏ
##_đẫn
##_đềm
##ayu
##_vơ
##_vỡ
##_vẽ
##_vẳng
##_vãi
##uyo
giăng
giáp
girl
##_hai
##_hatsu
đãng
##_chữ
san_l
##_nhện
##_gương
##_góc
##_sho
##_cỏ
##_cáp
quầng
côn_đồ
cô_dâu
##_giống
##_dược
##_dòng
##_dính
##_mo
##_mu
##_mưa
##_miện
##_mỏng
##_né
##_nành
vào_sổ
##_trú
##_trực
##_ko
##_bông
##_bẹp
##_bina
làm_qu
##_ngần
##shira
##_rẽ
##_rách
##_ráo
##taro
biết_đâu
##kari
##_khoán
yukinoshita_cau
##ahara
##rate
mặt_tiền
##n_đạp
bắt_nguồn
cười_khổ
học_hành
học_trò
##seki
ngon_miệng
toyo
town
tan_nát
ai_lại
##und
##n_line
xen_kẽ
xuống_đường
mặc_cảm
mil
bình_thản
mất_mạng
trông_chừng
##n_ma
##n_mực
nhanh_trí
bỏ_bê
con_nhỏ
##n_nghi
khoảng_không
tên_tuổi
masu
tương_ph
nước_đá
vô_cơ
vô_lăng
##ần_c
mỉm_cười
##n_cậu
xiềng
sinh_sống
hướng_dương
##_tự_nhiên
dài_dòng
áo_mưa
chuẩn_mực
tai_mèo
thể_xác
##ber
##_yui
##ket
cầu_v
dự_trữ
cá_thể
chú_trọng
trang_sức
đại_lý
định_hỏi
giữ_gì
##n_dập
##emon
quanh_co
giao_lưu
bảo_mật
tính_năng
bàn_đạp
##bata
##ball
trắng_ngần
##n_vởn
hội_thao
đèn_ph
đè_bẹp
##yoshi
thất_lạc
nữ_thần
tuxedo
xác_thực
xác_đáng
xác_suất
hikigaya_hachiman
bệnh_hoạn
phim_ảnh
giết_tokiwa
gas
giảm_sút
đẩy_mạnh
nishi
ca_hát
khóc_lóc
áp_bức
vật_phẩm
thuyết_giảng
chuyển_t
la_mắng
tận_cùng
trừng_trừng
cơm_điện
đùa_tục
##ste
dày_vò
##hehe
văn_phòng_phẩm
hứng_chịu
ngắm_trăng
lông_mu
rau_bina
quý_tộc
hư_vô
lạc_đề
chim_sẻ
biến_điều
biên_soạn
mươi_lăm
tiên_tiến
tiên_phong
cất_giữ
khóe_miệng
thúc_ép
##ding
bóp_nghẹt
pasi
tàn_ph
##fukamachi
hikikom
botoshi
thủy_thủ
kansai
roku
kuro
vệ_tinh
silent
khám_xét
ngoan_cố
cột_sống
_đồ
suzuki
super
đích_thân
chiếm_hữu
##ebina
pocky
am_hiểu
huy_động
##des
alzheim
jizo
canh_tác
vương_vãi
vương_miện
##urin
khinh_bỉ
phồng_má
gol
chua_ngọt
bàn_chải
yamano
beat
hộ_tống
êm_đềm
toàn_cảnh
hải_sản
bản_gốc
nhắn_line
20032015
màng_bọc
triển_vọng
thượng_lưu
giriyak
wifi
##fie
##_kia
##eeeeeeeeeeeeeeeeeeeeeeeeeeeeeeee
cừu_đức
chí_mạng
trong_veo
proust
văng_vẳng
bói_toán
lởn_vởn
cắn_môi
diện_tích
đèn_đỏ
akasaka
dày_dặn
quần_đùi
mugito
toxoplasma
dồn_dập
hmph
đờ_đẫn
nhiếp_ảnh
tối_ưu
tẻ_nhạt
tỉ_mỉ
trắng_nõn
tamagoyaki
mãn_tính
tân_binh
##gaoka
trấn_tĩnh
phản_tác_dụng
phẫn_nộ
làm_quà
toyota
giữ_gìn
pasiva
hikikomori
alzheimer
aa
at
bến
blog
ci
dưỡng
fo
gột
giếng
góp
hách
hái
ii
in_
jung
keo
lai
lội
lâm
lốc
lõm
lẩu
lấn_
mấp
osaka
okano
oden
rên
rang
rợp
rưng
sọ
sâm
sụt
spi
tản
uốn
uni
vồng
véo
xệ
xịt
yao
ôn_tập
ăn_c
đảng
đốm
ếch
ủi
##_ya
##_ướt
##aki
##gen
##gle
##sis
##tch
##tao
##pani
##ptop
##uậ
##upe
##ju
##dai
##ểnh
##ẩn_đoán
##ỉm
khắt
##_tạc
nhảm
tôi_đoán
thủng
chao
chập
chồn
chẩn_đoán
ngõ
ngấm
trố
trau
trịnh
##_thình
##_thiếu
có_giá
có_hậu
nón
như_không_khí
điề
đi_đ
phiế
phiêu
##_lược
##_lén
##_luậ
##_điểu
##_đốt
##_đói
##_đóm
##_vá
gin
##_chạy
san_m
người_tình
người_xưa
##_nhỉ
##_nhọc
##_nhung
##_sấy
##_sàn
##_sau
##_sớm
quẫn
##_giao
##_giấc
##_dò
##_mong
##_nộ
##_trán
##ins
##ane
##_kì
nhìn_xa
##_béo
##_ngất
vậy_ngươi
##_rầm
##_rưng
hom
hoshi
##kaku
##_khe
##_khiết
yukinoshita_mỉm
##enter
##enjaya
ngay_ngắn
##_nghịu
yuigahama_nở
tự_giác
tự_kết
##kichi
tay_lái
mặt_phẳng
##_xướng
##_xỉn
khó_tính
##unko
##n_lùng
cơ_khí
công_suất
tiếp_nối
hikari
tin_nh
thích_ứng
mikawa
đồng_cỏ
##wara
##ware
mới_to
đột_nhập
chàm
cola
rõ_liệu
##n_ngươi
##kuji
doge
bóng_đ
phát_thanh
vô_hiệu
vô_hạn
đồn_đại
##n_cổ
##n_so
tuyệt_chủng
kozu
sinh_lý
chẳng_thể
nghĩa_trang
giả_tưởng
soseki
sangenjaya
bàn_thờ
thoai
kashi
áo_lót
trung_học_mi
cổ_đại
saitama
##kes
cầu_cứu
cầu_mong
cá_đuối
tiểu_luận
trái_lại
quần_co
kinh_điển
kinh_dị
giao_phối
bánh_c
chuyển_thể
thất_thường
đỏ_ngầu
tránh_né
biểu_đồ
vang_dội
hiệu_phó
##lius
##lium
xanh_thẳm
chia_ly
chia_rẽ
đời_thực
##_tác_phẩm
tòa_án
saki_ayase
che_chắn
tăng_trưởng
bệnh_tâm_thần
dấu_hôn
lá_chắn
tinh_khiết
phong_ấn
cacao
danh_nghĩa
áp_đảo
thiết_yếu
trầm_thấp
huệ
laptop
dây_th
##n_xo
inu
tsuk
đậu_nành
nakano
truy_tìm
timpani
ống_chân
thầy_cô
noi
tử_thi
đùa_cợt
cứu_thương
hương_thơm
##llo
cánh_tay_phải
thắng_cược
trăng_lớn
hoàng_gia
ander
bikini
phổ_thông
hào_phóng
fujoshi
##n_kề
quý_mến
căn_bản
ăn_mòn
ngây_ngất
nhận_lời
khoa_học_tự_nhiên
tan_trường
##cks
##cktail
thần_thoại
##_chờn
hạt_dẻ
moi
paris
thấu_hiểu
hikio
thèm_ăn
ưu_ái
sea
seven
cường_độ
tâm_lý_học
khoai_lang
ngắt_quãng
##cedes
thùng_thình
cấm_kỵ
nhân_hậu
##tty
hollywood
ryokan
ló_dạng
##n_nghị
rối_tung
_hachiman
##urai
khát_vọng
khuyến_nghị
2015
##_ad
_tôi
showa
##_liễu
lay_chuyển
tẩy_rửa
hộ_chiếu
căm_thù
nhà_thầu
đà_điểu
##short
toàn_diện
maruno
doanh_nghiệp
phân_phát
bunko_j
##201
kháng_cự
starbu
##_chiba
ngữ_cảnh
ngữ_điệu
cà_rồng
##_xoa
chân_dung
bánh_kẹo
mercedes
blue
trần_trụi
nóng_nực
hụt_hơi
săn_lùng
cận_kề
mập_mèo
đom_đóm
##cio
thịnh_nộ
cấp_bách
cấp_bậc
sứ_mệnh
samurai
_ngh
hiếu_chiến
ướp_lạnh
charles
điện_ảnh
yahata
tự_ý_thức
1960
hôn_cô
con_bé
sibelius
google
tảo_bẹ
##_aomame
##_văn_học
##_phổ_thông
phản_công
ân_huệ
yoyogi
comiket
ăn_ramen
##_hatsukano
tương_phản
đèn_pha
tàn_phá
silentnight
yamanote
gột_rửa
in_ấn
lấn_át
rưng_rưng
khắt_khe
chập_chờn
trịnh_trọng
đi_đọc
phiêu_lưu
quẫn_trí
tin_nhắn
mới_toanh
dogeza
quần_cotton
andersen
_w
ace
bấp
cọc
clo
cần_c
dội
fm
gò
gán
hắc
hah
haa
hand
hò_r
hống_h
je
kengo
lh
lung
mận
mail
nai
neet
ou
pow
ry
rây
rame
rít
st
sl
sặc
sán
sứa
sel
sco
tống
tần_
tóe
us
um
uss
u_nang
vảy
wan
web
xổ
xay
xao
xấp
y_học
zom
ân_nhân
ôn
ý_đồ
ý_chính
đò
ậm_
##_fukamachi
##baya
##non
##are
##gon
##sy
##hy
##hon
##tin
##fait
##otsu
##oru
##ps
##pura
##uồm
##can
##ky
##ện_vọng
##dựng
##án_đổi
##lé
##zan
##zel
##ẫn_viên
##ự_trị
##èn_ngh
##wai
##_tiệc
##_tủy
nhói
chỏ
chùng
chọi
chép
ngộ
ngạo
ngự_trị
tri
trỗi
##_lưới
##_lem
##_lõa
##_đều
##_việt
##_vọt
##_hà
##_hận
##_hót
##_nhi
##_nhụa
##_gậy
##_gom
##_gạt
##_sông
##_cạo
nghèn_ngh
quân_
##_dạn
##_dồi
##_dượng
##_dép
##_dẫn_viên
raku
##_mốc
##_mộc
##int
yugami
yuji
##_keo
##_kềnh
##_bơ
##_bặt
##_bền
##_bento
choko
##_ngồi
##_ngửa
nếu_như
chỉn_ch
##_rễ
##_rút
##_rạc
##taru
hoán_đổi
lên_án
bị_động
yukinoshita_nheo
##ens
chiến_k
yuigahama_mỉm
yuigahama_yui
ngày_kia
tay_nghề
cách_cư
##n_địa
cười_thầm
cười_trừ
##_xạo
học_hè
bằng_cấp
to_điều
tab
trả_ơn
trường_công
tengo_nghĩ
công_xã
mặc_váy
bao_vây
hit
chính_thống
chính_quyền
bass
nhất_trí
hôn_
thích_đáng
nghiề
đồng_bằng
đồng_tiền
đồng_lõa
đồng_đều
bình_luậ
##n_mai
thường_tình
giải_mã
kỳ_thi
yêu_sách
yêu_mèo
đột_phá
coupe
bố_cục
nhớ_nhung
##n_ngừa
mara
di_sản
sáng_lập
chủ_chốt
dopp
##_rối_loạn
rời_rạc
nước_ngọt
##mous
##n_thủ
king
vô_tuyến
im_bặt
hiện_thân
fufufu
##n_cỗi
##zaka
hình_sự
hình_chữ
hàng_hiệu
dậy_thì
sinh_học
giả_mạo
hướng_dẫn_viên
chuẩn
tạo_dựng
quần_short
cấp_dưỡng
vịt
vị_thần
tính_mạng
độ_chính
vòng_lặp
bàn_là
bàn_học
##n_chắc
##n_chìm
##uuu
nhờn
bánh_gạo
chuyển_trường
chạm_khắc
hài_kịch
##n_vui
tệ_hại
kiểu_pháp
hợp_xướng
tupper
thiếu_hụt
##ere
rượu_mạnh
rượu_vang
ruồng
yoko
hát_ru
hazel
ghi_nhận
che_miệng
dấu_ấn
megurin
show
ngang_nhiên
hoa_mỹ
hoa_hồng
chồng_chéo
chiếu_hậu
niêm
tường_thuật
ca_sĩ
ca_ngợi
phương_thức
băng_keo
nguyện_vọng
độc_nhất
tiền_s
##_video
trầm_trầm
chữ_số
ngoại_khóa
dây_điện
chứng_rối_loạn
dạy_học
tsuka
nat
tiết_học
##_loi
ngăn_ngừa
chuyên_mục
ống_khói
##_tobe
cứu_tinh
thua_kém
tamotsu
ngã_ngửa
##_pan
thanh_thản
cún
tươi_t
##llins
##_bình_dương
trần_tục
trăng_nhỏ
ani
chớp_chớp
##gaku
cải_cách
cải_dai
onee
##_trẻo
lông_mi
sôi_nước
bản_địa
xúc_xích
mạng_nhện
mạng_lưới
nhận_định
xuyên_tạc
dã_man
##book
bực_mình
khởi_chạy
thứ_bậc
vận_m
nheo_mắt
bóp_cổ
kem_dưỡng
tàn_ác
phiền_cậu
bán_cầu
bạo_hành
##ighball
bộc_phát
kumi_ad
roya
khai_phóng
bụi_b
##yugaoka
se_lạnh
lẻ_loi
điềm_báo
limous
quỷ_quyệt
bĩu_môi
pier
xua_tay
gốc_rễ
nhấn_chìm
ruột_thịt
nguội_lạnh
thử_thách_lòng
##_whisky
##bie
jiyugaoka
ryoko
canh_bạc
rối_bù
_hayato
##ffi
##ffee
##_maru
thống_trị
mệnh_đề
246
hàm_ý
hàm_lượng
geta
hạng_mục
châu_phi
kenta
úp_mặt
râm_ran
yousuke
bỗng_nhiên
ẩn_dật
##rgan
biết_bao_nhiêu
kháng_cáo
##aaaaaaaaaaaaaaaaaaaaaaaaaaaaaaaaaaaaaaaaaaaaaaaaaaaaaaaaaaaaaaaaaaaaaaaaaaaaaaaaaaaaaaaaaaaaaaaaaaaaaaaaaaaaaaaaaaaaaaaaaaaaaaaa
cuồng_tín
lệch_lạc
ngữ_pháp
trấn_áp
cằn_cỗi
tiền_lương
##rinet
dàn_dựng
luân_ph
vinh_quang
giam_giữ
đụng_chạm
tráng_lệ
đoán_ý
##ney
chửi_bới
##rrrrrrrrrrrrrrrr
yuuta
denim
mộng_mơ
##udding
masami
bánh_pudding
cai_trị
dụ_dỗ
kì_lạ
lạo_xạo
_yui
blazer
sư_tử
thính_giác
##_biên_tập
len_dệt
kaihin_so
rắn_chắc
##_họp
yankee
cồng_kềnh
lộp_cộp
paul
spor
điêu_luyện
nói_thẳng_thừng
mại_dâm
ấu_trùng
nhầy_nhụa
cầu_vượt
trốn_học
trau_dồi
san_mỉm
bóng_đèn
starbucks
_nghĩ
_wow
bấp_bênh
hò_reo
hống_hách
lhr
lung_tung
power
xổ_số
zombie
ậm_ừ
chỉn_chu
bình_luận_viên
độ_chính_xác
tupperware
cải_daikon
kumi_adachi
limousine
luân_phiên
kaihin_sogo
_to
_sao
ac
ashi
ari
asa
angel
bích
bội
buốt
cn
câm
cro
center
dra
ex
ever
gù
gài
gom
geo
gạc
gội
gáo
gốm
grand
hắt
hina
imo
katsu
lầu
lin
lãi
lóa
lẩn
luồn
lụa
mao
musa
mộc
ní
non
nạt
organ
panh
rồng
rầm
rón
rượt
rén
sột
sùng
tì
ushi
vác
viếng
võng
wd
xạo
yang
zara
ăng
đệ
đúc
##ew
##en_g
##_ebina
##awa
##ger
##ishi
##son
##ần_hóa
##fuu
##for
##rs
##rô
##rya
##ryo
##odi
##pt
##mang
##yêu
##kam
##jima
##quyết
##qui
##dem
##lling
##28
##26
##zen
##ền_định
##ngen
##_ton
##_tấu
##_tắp
##_tồn
##_tợn
nhe
nhào
thuyên
thềm
cher
chặc_lưỡi
ngân
trập
trọn
trằn
##_thét
##n_yu
##n_quyết
phình
##_lông
##_lanh
##_light
củi
củ_cải
##_đế
##_đũa
##_viếng
##_voi
##_hở
##_hối
##_hứa
##_hẫng
##_thể_loại
##_nhột
##_sả
##_súng
##_sục
##_siêu
##_sanagi
##_cay
##_căng
##ongi
quáng
##_giám
##_dễ
ra_mặt
##_mò
##_may
##_mài
##_nỉ
##_trống
##_trồng
##_kép
##_bá
##_bó
##_bám
họng
##iển_v
##shiko
chỉ_số
chỉ_tiêu
##_rập
##_rạp
tiến_c
tiến_sĩ
ho_nhẹ
hotaru
##_phu
##_phụ
thực_địa
##aho
thời_thượng
câu_thoại
nhà_cửa
tự_trách
##_quýt
##_đầu_tiên
##n_đạo
##_xạ
##_xào
##tsuki
toshi
tooru
tachi
tako
tatara
##n_hội
##untai
bất_ổn
##n_lẻ
##n_bẩy
teen
con_tin
công_sở
thành_ngữ
mặc_định
khoái
khoét
bước_nhảy
bước_đầu_tiên
thôi_thì
ban_mai
năm_tuổi
đối_thoại
aomame_nghĩ
ghẻ
##walk
dễ_dãi
##n_mồi
mở_trang
thông_lệ
##_thoải
giải_cứu
lo_liệu
nhỏ_con
chiku
coffee
bố_con
mad
mari
hành_chính
diềm
##ân_yêu
thu_gom
thuần_hóa
phụ_lục
phụ_chiên
doki
doria
khán_phòng
bóng_mượt
nước_miếng
##mote
##n_thở
phát_sinh
liên_trường
vô_vị
nụ_hôn
cao_nóng
cao_ráo
số_dư
đặc_vụ
đặc_quyền
đồ_
đồ_giặt
loại_hình
##_năng_lực
##n_ca
##n_cốc
##n_sở
##n_sắc
phần_tư
tuyệt_nhất
ghế_ngồi
sâu_b
tưởng_niệm
giả_kim
máy_chiếu
máy_giặt
máy_sấy
nghỉ_phép
##n_gió
biến_thể
trung_học_i
mạnh_dạn
chạy_trốn
chạy_marathon
tạo_hình
giáo_lý
gia_dụng
gia_sư
dự_tiệc
cá_vàng
cha_con
##mmy
kéo_theo
quần_chino
lễ_phép
kinh_hãi
thiền_định
thẳng_tắp
đông_chí
giao_lộ
bảo_quản
kẻ_thua
sức_bền
##n_vùi
hội_chứng
hội_thảo
##inawa
giới_nghiêm
thất_hứa
media
nội_vụ
##erto
##n_khóc
tiến_trình
haro
trực_ca
nguyên_bản
mời_gọi
may_vá
vỗ_nhẹ
##_ngoai
maaya_narasaka
đeo_vai
gacha
##ree
##dokawa
hoa_kỳ
ca_khúc
độc_tài
shima
trầm_tĩnh
thuộc_tính
vi_sóng
hạn_h
nhắm_mắt_lại
vụt
an_tâm
nhảy_dựng
phán_quyết
chứng_khoán
tủ_giày
##n_xanh
tạp_hóa
tùy_ý
inage
inari
chất_béo
kỷ_nguyên
thăm_dò
thăm_viếng
thiên_văn_học
lập_trình
vuốt_phẳng
##_soạt
##bukuro
tiệc_tùng
ước_muốn
lầm_tưởng
siêu_hình
siêu_năng_lực
thanh_tú
thanh_thiếu
sắc_nét
303
kimono
say_xỉn
sáu_mươi
##hei
##hello
phi_công
trăng_chiếu
xoa_xoa
dao_cạo
cộng_sự
cam_nhạt
cam_quýt
đào_bới
xoay_sở
bảy_viên
ứng_xử
one
thỏa_đáng
tổng_biên_tập
tổng_giám
ngượng_nghịu
nảy_nở
##n_kinh
rửa_bát
than_khóc
hoài_cổ
bút_dạ
quảng_bá
chim_cánh
chim_hót
dữ_tợn
đạo_cụ
ve_má
giai_cấp
lò_nướng
wakame
thẻ_tí
nuôi_dạy
bàn_gi
##_vest
valent
gãi_đầu
hạt_giống
moe
##fukuji
bốc_hơi
bob
board
lục_túi
bán_đ
vở_kịch
đan_mạch
ropp
ưu_việt
căn_bếp
##mei
sushi
giặt_đồ
bánh_quy_tự
mỹ_phẩm
thẩm_định
live
hiệp_ước
phân_tán
chật_vật
chật_cứng
ryoan
canh_chừng
##peare
khuỷu_tay
##ffe
ưa_thích
thiệt_mạng
enishi
jack
rỉ_sét
_tr
vòi_sen
phẳng_lặng
gelato
ikebukuro
kendo
trích_xuất
tà_ác
thân_mến
minh_bạch
võ_đài
nhãn_cầu
marine
doanh_số
doanh_thu
ẩn_danh
chiêu_thức
nhắn_ngắn
##_hôm
2022
##_sagami
quang_học
bảo_tồn
stars
vu_vơ
hop_lo
bê_bối
dung_hòa
uy_tín
parfait
lung_linh
đại_sảnh
bôi_trơn
dáng_vẻ
dân_sự
cutty
fader
nhột_nhột
trục_xuất
hụt_hẫng
săn_mồi
##kukukuku
rậm_rạp
bàn_bếp
beretta
##ssssssssssssssssssssssssssssssss
kinkaku
trị_liệu
##_hikigaya
hùng_hồn
sonny
works
thiêu_đốt
dò_xét
minagisa
ăn_sô
chôn_vùi
motosu
hashiba
dái_tai
rình_rập
nguôi_ngoai
nương_tựa
othello
##_showa
masukawa
nhiếp_ảnh_gia
univer
điền_kinh
phiến_diện
thoai_thoải
##kespeare
đòn_bẩy
chiến_kỵ_binh
nghiền_nát
marathon
ruồng_bỏ
niêm_phong
tươi_tắn
cntt
nín_thở
sột_soạt
võng_mạc
##odie
thuyên_giảm
trằn_trọc
tiến_cử
##untain
thanh_thiếu_niên
tổng_giám_đốc
thẻ_tín_dụng
valentine
roppongi
600
72
92
_u
_sự
as
ago
ame
akutagawa
bú
bè
bập
cưa
cẩm
cải_m
dẫu
edo
fay
gờ
gào
ganh
gram
hò
hằng
hen
hahahahaha
junko
kiệu
kya
kép
lự
lấm
luộm
momo
nanh
nán
nịnh
niệm
nani
os
ohi
oshi
oto
omote
pun
para
pet
rô
rọi
rốn
sòng
sàn_
stu
sms
té
tỏi
tiện
tấp
tẩm
tana
uỵ
uma
uno
vọt
vểnh
viển_v
wei
xứ
xói
zai
ín
ý_bạn
ăn_nhẹ
đậy
ủa
ức
##_á
##_ủ
##_ắp
##_ốm
##ben
##bana
##ble
##nn
##nin
##aru
##ado
##gắn
##sắc
##hu
##ty
##fo
##33
##rong
##phi
##pan
##u_y
##u_nhân
##mono
##k4
##kiến
##kyu
##je
##zon
##êsu
##ỵu
##11
##nhà
khít
##_tất
##_tường
##_tồi
##_ten
nhang
nhục
thun
chinh
cháo
chri
chòm
ngẩn
##_thuộm
làn_gió
##che
một_hai
##n_ảo
pho
phập
phần_
phu_nhân
##_ló
##_lên
##_lột
##_vót
##uyu
##_hông
##_ham
##_hao
##_hài
##_hung
bạn_tình
##_chay
san_n
sashimi
sark
người_hùng
##_nhục
##_gượng
##_gợi
##_gáp
##_gói
##angi
##_shi
##_sàng
##_săn
##_cớ
##_cúng
##_cằn
được_cái
nghị
nghiế
quế
điều_độ
##amame
##_giấy
##_dỡ
##_me
##_mông
##_meo
##_miệt
##_mọn
##_mạp
##_muộn
##_nảy
##_trặc
##_trọt
##inkan
##anomachi
##_kamakura
##_bợ
##_búa
làm_đẹp
nghĩ_ngợi
##_ngầm
##_nguyệt
##_rú
##_rán
##_răn
##_rủa
##tal
hoe
hou
hoshino
##ome
nào_là
##iger
##_khướt
##_phách
##_phàm
thực_thể
thế_chấp
##_quyển
chiến_b
##_nghèo
##rac
yuigahama_đáp
yuigahama_liếc
nhàn_r
nhà_sư
nhà_khoa
##suất
ngày_đêm
thật_ích_kỷ
##_quần
##_quạt
##n_đan
cười_gượng
##_xắn
##_xèo
theo_đuôi
lớn_nhỏ
học_viên
loli
##ses
toàn_n
tofukuji
cốp
aikatsu
##n_hạn
##n_hơi
mắt_nheo
##une
bất_tận
quá_cố
##n_lụt
##n_bá
xe_tăng
công_trình
công_chức
koma
xuống_cấp
xuống_nước
thành_ra
bao_dung
tiếng_nhật
bước_đệm
hide
##sal
komachi_mỉm
vui_sướng
đưa_đón
đồng_bộ
đồng_nhất
bình_dị
isshiki_liếc
mất_lòng
đường_dẫn
##n_tắt
##n_mạng
##n_muộn
thông_thạo
thông_gió
##_thoái
thường_kỳ
vừa_vặn
##uar
nhỏ_mọn
chibi
chà_xát
cocktail
bố_cậu
##n_nguyện
magic
dick
đàn_áp
đàn_kiến
chủ_trì
chủ_đạo
##kumura
thu_âm
vô_cớ
trẻ_thơ
hiện_trạng
cao_tuổi
xa_hoa
số_liệu
đánh_số
đánh_bạc
fumi
fuji
futama
đặc_tính
##n_cận
hình_quả
##êng_năng
##imi
sinh_động
sinh_tồn
tối_thượng
xuất_thân
xuất_trình
điểm_danh
mong_ước
nghỉ_dưỡng
đầy_ắp
kazan
tiền_tuyến
trung_học_phổ_thông
cổ_phiếu
##_yo
khuỵu
gia_hạn
cán_bộ
cá_voi
##không
nhân_d
định_vị
##ema
cấp_tiến
thẳng_lưng
giao_hợp
lòng_sông
ký_hiệu
thư_mục
tính_khí
vòng_hoa
bánh_rán
##omiyaki
trắng_trơn
rice
chạm_sàn
hầu_bàn
##n_vinh
đèn_n
đèn_tắt
##n_nhiễm
mei
kế_vị
kosaka_nghĩ
đen_trắng
thiếu_trí
sakisaki
saki_kawasaki
báo_thù
nguyên_thủy
xoắ
chung_chung
chung_thủy
cứng_cáp
chiều_hướng
tuần_trăng
##aaaaaaaaa
megu
tiêu_hao
ngược_đãi
hoa_hậu
tức_thời
cafe
dabe
shir
đá_bào
áp_tai
căng_cơ
##n_lý_lịch
khe_khẽ
ngoại_phạm
cụ_thể_nào
đậu_xanh
nade
sân_trường
lừa_gạt
##_hoàng_tử
hayashi
mở_cửa_sổ
shinanomachi
sơ_sinh
sơ_suất
tựa_cằm
thủ_dâm
tuyển_thủ
khuyên_răn
tích_trữ
tử_hình
tử_thần
##_bảo_hiểm
thua_lỗ
lộ_diện
tốc_lực
sân_nhà
thương_cảm
mảnh_dẻ
siêu_thực
siêu_phàm
gấp_gáp
đất_đai
mềm_mỏng
say_khướt
buông_x
xét_xử
tôn_vinh
thắng_thua
thảo_dược
thừa_hưởng
phi_lê
giảng_đường
dao_g
##ella
lãnh_đạm
phức_hợp
##gal
cải_trang
##que
thỏa_thích
fujino
truyền_bá
bản_lý_lịch
##n_kém
lễ_hội_trường_học
tiện_dụng
mẫu_vật
khí_quyển
rũ_vai
anime_truyền_hình
biến_
heh
nhận_dạng
tiên_quyết
gượng_ép
leo_thang
lưu_thông
bổ_ích
lò_xo
kiêu_căng
bờ_vực
##_cư_xử
hạt_nhân
mountain
đáy_lòng
bán_lẻ
sát_thủ
sát_cánh
mũ_bảo_hiểm
thủy_ngân
thủy_cung
dead
lương_thiện
đa_cảm
điều_tra_viên
yaku
yawata
gầm_rú
ưu_tú
siêng_năng
len_đan
sukumura
hoang_đường
##aaaaaaaaaaaaaaaaaaaaaaaaaaaaaaaaaaaaaaaaaaaaaaaa
chiếm_thế
chiếm_giữ
yosuke_fukamachi
cốt_yếu
pico
amatsu
nôn_n
không_trung_thực
panda
vẹo_đầu
thăng_trầm
bunji
náo_loạn
kỳ_dị
hy_sinh_mạng
##ting
thời_đại_học
_huh
ẩm_thực
khinh_miệt
dang_dở
##ppi
thống_đốc
2013
2014
20110
bắp_chân
thâm_niên
nghèo_khó
mãn_nguyện
##tsuya
micrô
_tệ
phew
phe_phái
song_sinh
tempura
tĩnh_mạch
tranh_cử_chức
tẩy_chay
##igiri
cự_ly
thụy
trinh_sát
mật_độ
nhẫn_tâm
viễn_vọng
viễn_cảnh
joh
trận_lụt
ayaka_totsuka
thánh_địa
ninna
gắp_thú
shiori_yomiuri
hung_hăng
dị_giáo
green_g
uốn_l
carl
nozomi_ki
dở_tệ
phân_cấp
bất_khả_chiến_b
kmh
trồng_trọt
_yukinoshita
phúc_âm
cọ_xát
mitsuru
xoắn_tóc
huyền_ảo
chửi_rủa
trục_trặc
quỹ_đạo
hang_động
lảng_tránh
##_senpai
mập_mạp
of_light
trong_suốt
bigard
hans
ăn_năn
chót_vót
hà_lan
origami
edamame
catwalk
ấp_ủ
thước_đo
heike
amazon
shakespeare
rì_rầm
ăn_khớp
trơ_trẽn
jagayama
thây_ma
1970
roux
okinawa
speman
trắc_ẩn
vành_đai
soạn_thảo
jiromai
_thế
hàn_gắn
xối_xả
##_mochi
góp_phần
hách_dịch
keo_kiệt
lâm_sàng
mấp_máy
##_yasuda
tsukui
cần_cẩu
hands
selfie
tống_tiền
tần_suất
##bayashi
##waii
ngạo_mạn
tiền_sảnh
center_gai
everg
hắt_hơi
linus
tì_vết
viếng_thăm
##mangu
khoái_cảm
ghẻ_lạnh
bàn_giao
universal
gào_thét
ganh_đua
lựu
luộm_thuộm
studio
uỵch
viển_vông
xói_mòn
chinh_phục
phập_phồng
nhàn_rỗi
nhà_khoa_học
toàn_năng
dickens
futamatao
nadeshiko
deadline
201106
green_green
nozomi_kirimoto
bất_khả_chiến_bại
34
81
800
_nh
ab
aha
bd
bang
bành
bít
cù
cặc
cựa
cõi
cùi
cran
dj
dí
diều
dúi
esp
ehehe
gy
gara
gomi
guốc
gaha
hao
hun
hạch
hiếp
hếch
iq
iza
iro
kyu
kaho
lường
lùng
lảm
mó
mòn
mánh
mui
múi
mono
ny
nạn
name
nee
níu
night
nuông
nyan
ori
oha
over
okon
pr
pachi
play
rập
sỉ
sung
sáp
sượt
stan
tấn
tọa
tsk
tahara
tiger
ura
uchi
umm
url
vươ
vẩy
vani
zo
zen
âu_y
ô_li
úc
ăn_l
ăn_hàng
đắ
đạ
ọp
ối
ốc
##ed
##etsu
##_e
##_ỏi
##_ương
##_ẹp
##_òa
##nai
##ak
##ata
##gahama
##gaya
##il
##sc
##soni
##scar
##rge
##ou
##pg
##ppo
##p_nháp
##uto
##cd
##cto
##cem
##certo
##mst
##moni
##kami
##kaya
##kuya
##ận_hội
##jama
##dk
##dam
##dii
##ấng
##25
##zono
##ân_h
##ò_kh
##ũn
##ẽ_ra
##ằn_ngo
##40
##như
khêu
khựng
khò_kh
##_tùm
nhát
thiể
thạch
thân_nh
chino
chích
ngọ
ngợm
tru
trăn
##_thô
##_thà
##_thôi
##_thắt
##_thon
##_tháp
##_thốn
có_dễ
đi_tắt
phái
phích
##_lúc
##_được
##_đan
##_vă
##_vở
##_vác
##_vần
##_vui
##_vợt
##_vận_hội
gime
giêsu
##_hải
##_hino
##_hấu
##_hỏa
##_hàm
##_hùm
##_chợ
##_chuốt
##_chùi
sachi
safa
saeg
##_nhĩ
##_nhanh
##_nhét
##_nhân_
##_game
##_giếm
##_si
##_sỡ
##_sôi
##_sầm
##_suốt
##_cột
##_cởi
quiz
cô_độc
cô_la
##_giường
##_dao
##_dỏm
##_miên
##_minami
##_nọ
##_nẻ
##_trên
##_tràn
##_trập
##ant
##_bla
##_bệch
làm_công
##_ngựa
##_ngụm
từ_thiện
mà_cả
chỉ_thị
tuyền
đầu_thú
##tato
##take
##phật
hot
hol
lên_đường
lên_giọng
##kato
##kinon
##kinoshita
##omon
##_khải
##_khuyết
##_khuôn
thực_thi
thế_trận
thế_vận_hội
thời_showa
chiến_dịch
yuigahama_khẽ
nhà_tiên
nhà_tài
tự_ái
thật_thà
##_quậy
tay_chải
cách_biệt
cách_âm
##n_đo
cười_chế
##_xẻ
##_xao
##_xuyến
lol
ngoằn_ngo
tag
##n_hữu
##unun
bất_đồng
bất_hòa
trả_phí
##n_liệu
##n_luận
##ngoku
conan
công_phu
kuni
mặc_khải
chính_trực
hơi_tệ
hơi_nheo
baba
##_sinh_vật
komachi_nở
komachi_hikigaya
vui_đùa
miaki
##ốc_liệt
đồng_phạm
isshiki_hơi
isshiki_nở
ghềnh
suy_thoái
trông_tệ
trông_cậu
đường_băng
lấy_làm
lấy_được
##n_mò
##n_mùa
thông_hơi
thông_thoáng
thông_suốt
kỳ_cự
chà_đạp
coke
collins
bố_dượng
##n_nuôi
nhớp_nháp
hành_hương
tương_xứng
sáng_rực
##kubo
trung_ương
##_radio
phụ_đề
đọc_lại
đọc_đi
dori
chuor
##ản_gi
bóng_mát
nước_máy
##n_thất
phát_tán
##tora
vô_giá
cao_cả
cao_nguyên
đánh_vần
fushimi
đồ_hộp
##kou
##kov
##kolingual
tuyệt_mệnh
mua_bán
kochi
kotori
kobayashi
ghế_lái
##_kỳ_lạ
sinh_lực
sinh_sả
nghĩa_địa
tối_sầm
##ruko
son_môi
##mia
##ming
tổn_thất
dài_hạn
kadokawa
áo_bla
cổ_kính
đau_thương
đau_thể_xác
tai_hại
##_y_tế
##aaaaa
chào_đời
đêm_hôm
chansu
##ros
cảnh_cáo
trang_chủ
đại_b
sagami_minami
giao_hưởng
bối_yomiuri
thư_pháp
bà_cụ
ấm_điện
yên_lặng
##bas
trắng_trẻo
trắng_bệch
quả_bóng
kẻ_trộm
hmmmm
##n_răng
##n_rủi
##n_vãn
gió_mát
hội_thoại
hội_chợ
thị_giác
đèn_xanh
##n_nhượng
giấy_gói
động_đất
kế_thừa
tiếp_thị
biểu_lộ
biểu_ngữ
biểu_bì
xác_minh
yomiuri_senpai
lạy
thiếu_thốn
nặng_nhọc
cầm_cự
mười_phút
rufun
xanh_tươi
vết_bỏng
góc_cạnh
thuốc_bổ
tòa_tháp
##n_không
ghét_sự
giường_bệnh
che_kín
đổ_vỡ
thức_giấc
vỗ_vai
đeo_bám
tiêu_hủy
thái_bình_dương
tinh_tường
gae
gar
gal
##ress
##resso
dòng_điện
##dori
cử_tri
##_vật_chất
ca_nhạc
caffe
băng_dính
108
tạm_bợ
nam_trung
dummy
trí_óc
##_tử_tế
nhạc_p
nhiệt_kế
viề
viol
##_cơ_thể
vật_tư
chữ_y
chữ_u
ngoại_giao
##jiki
chứng_tử
chứng_khó
tủi
##ryu
tạp_kỹ
tsume
nago
nan_y
đảm_nhiệm
phép_tính
hayakawa
sơ_cứu
sơ_hở
##ette
bản_sắc
truy_lùng
cơm_hộp
cơm_bento
ngắn_hạn
noren
ước_gì
súng_trường
cứu_mạng
lau_chùi
##_people
yukinonchi
siêu_nhân
thanh_kiếm
tươi_đẹp
sắc_thể
tận_tâm
khủng_bố
##llum
lon_ton
tô_điểm
tôn_nghi
trần_thế
phi_tiêu
pha_trò
trăng_non
and
vỡ_òa
hữu_cơ
##elg
cạo_trọc
cộng_tác
##gashi
##garu
cải_bào
màn_trập
bảy_mươi
pháo_tay
onigiri
tổng_quan
truyền_nhiễm
nảy_lửa
##n_kịt
tái_bút
vùng_biển
tuyên_ngôn
chế_biến
tiện_ích
than_vãn
ăn_món
kịch_liệt
giấu_giếm
cơ_sở_vật_chất
biến_cố
biên_nhận
tung_bay
bận_tâm_chút
ăn_yak
1926
đen_kịt
bàn_ra
bàn_gh
đoạt
thảm_tập
paella
tháo_dỡ
thấu_đáo
boong
quest
lục_soát
mur
bán_kết
thủy_lợi
deja
đa_năng
nhập_vai
ưu_thế
dầu_xả
tỷ_số
##meg
##megu
##yuki
sablé
sug
suzumi
dẫn_chương
kẹo_sô
gần_như
##andai
khoai_mì
takaage
pháp_sư
##pacem
quỷ_dị
quỷ_dữ
polo
poker
nổ_súng
ngành_nghề
daikichi
thần_kỳ
##tten
_chuyện
##bikuni
thăng_chức
vung_gậy
hiroshima
##n_nghĩ
hiểm_nghèo
##urdan
benz
##iniku
2012
2011
tế_thần
enter
ichijo
mệnh_danh
##sando
##unaway
shogi
shogaku
xâm_lược
dựng_đứng
thù_hận
_hikigaya
châu_âu
bảo_hiểm_y_tế
nhàn_nhạt
truyện_cổ
tố_cáo
tốn_kém
dưa_hấu
mạo_danh
đính_chính
cựu_chiến_binh
ốm_yếu
dị_dạng
kháng_thể
##_saki
thẩm_mỹ_viện
khuyết_tật
yoshiteru_zaimokuza
dung_lượng
nứt_nẻ
thượng_phong
tôm_hùm
new
rách_nát
hôi_thối
nhoài
tước_đoạt
bóc_lột
mầm_non
sáo_rỗng
giam_cầm
mansoni
tráng_miệng
nhanh_nhạy
kyoko_yasuda
đoán_mò
oi_bức
vận_tải
ăn_chay
##nery
youtuber
vay_mượn
thám_hiểm
yakitori
lót_ly
##_xã_hội
tột_cùng
báu_vật
berni
trị_giá
bánh_piz
##oooooooo
hachiemon
##gatari
lầy_lội
ăn_bám
điện_áp
black
kanagawa
meo_meo
chuộc_tội
chợp_mắt
dầu_mỏ
sấy_tóc
xì_mũi
##hhhhhhhhhhhhhhhhhhhhhhhhhhhhhhhhhhhhhhhhhhhhhhhhhhhhhhhhhhhhhhhh
gondo
gonado
sunny
chướng_mắt
trúc_pan
##amoto
##kkkkkkkkkkkkkkkkkkkkkkkkkkkkkkkk
ponkan
súc_miệng
somen
##well
##stian
graffi
milimet
xiềng_xích
chuyển_tiếp
##stein
golf
yaobikuni
kashikom
dây_thép
marunouchi
sặc_sỡ
um_tùm
xao_xuyến
##hyd
ngộ_độc
nghèn_nghẹt
hôn_em
doppelg
hình_chữ_nhật
tsukasa
anisaki
royal
bụi_bặm
_nghĩ_lại
aristo
dragon
george
lẩn_trốn
takoyaki
bước_nhảy_vọt
trung_học_iba
shimada
agokohama
cải_muối
omotesando
smspacem
ức_chế
christian
phần_phật
san_nở
nghiến_lợi
chiến_binh
lolicon
##_yoga
đèn_neon
tuần_trăng_mật
buông_xõa
nôn_nao
evergreen
studios
cựa_quậy
crane
dí_dỏm
espresso
hao_mòn
hiếp_dâm
izakaya
múi_giờ
nylon
okonomiyaki
rập_khuôn
âu_yếm
ô_liu
đắn_đo
ọp_ẹp
##mstrong
##monica
khò_khè
thiển_cận
thân_nhiệt
safari
saegusa
nhà_tiên_tri
nhà_tài_trợ
ngoằn_ngoèo
kỳ_cựu
áo_blazer
violin
nagoya
tôn_nghiêm
ăn_yakiniku
bàn_ghế
dẫn_chương_trình
bánh_pizza
gonadotro
graffiti
230
45
56
65
_i
_j
_ơ
_ôi
_ta
_ph
_on
_zaimokuza
_isshiki
ali
aji
aeon
bại
bon
bầy
bén
cầ
cược
cẳng
cùn
dấ
dột
dan
dãi
dine
dpe
dunaway
ele
fre
feb
fran
flash
gồ
gami
hiế
hya
hóm
hana
hahahahah
highball
hk4
ih
iwa
jd
kama
kuu
lp
lữ
luống
lọn
lộn
lủng
lụi
lỏm
lcd
ldk
my
mun
machi
mủi
mướp
mandai
nôi
nài
nama
neo
nen
nya
nara
op
oku
ocho
obon
pen
per
psy
rơ
rổ
ram
rụi
ryu
sầu
sàng
sập
ste
tú
tân
ur
uzu
udon
vá
việ
vớt
ver
xâu
xức
xưởng
xẹp
yone
zoni
zone
ý_thích
ăn_đồ
đọ
đanh
ấn_ph
ấn_bản
ẩn_s
ốt
ồ_không
ổn_th
##eh
##eki
##eko
##_in
##bin
##ach
##ashi
##gốc
##guya
##ia
##ic
##iễu
##han
##tô
##tle
##tomo
##tamin
##38
##rm
##rd
##run
##oro
##py
##ut
##ushi
##ution
##ucc
##cy
##cro
##cco
##ccio
##ạn_nh
##vol
##dwich
##len
##lse
##lori
##lles
##llie
##llium
##nger
##nhảy
kha
khâm
khiếm
khẩn
khốc_liệt
##_tv
##_tẻ
##_tà
##_tsu
##_toàn
##_tấm
##_tám
##_tóm
##_tuyệt
nhó
nhung
nhậu
nhánh
thớ
thiện
thừng
thẫm
thpt
thân_yêu
chồi
chuối
chớm
chén
chuộng
ngũ
ngấy
ngấu
ngăm
ngói
ngòi
không_tưởng
##_the
##_tha
##_thun
##_thạch
có_học
là_lạ
##chan
##n_ố
##n_án
phũ
##_lười
##_lẳng
##_lão
##_đông
##_đấy
##_đúng
##_đạt
##_vo
##_vít
giương
giấm
giũa
##_hay
##_hác
##_hóng
##_hấp
##_hỉnh
##_hira
##ới_đi
nói_năng
nói_thầm
nói_riêng
nói_lên
nói_đúng
##_cha
##_chở
##_chọi
san_c
sada
sakig
sakura
saber
saint
satsuki
##_nhác
##_nhảm
##_nhũn
##_gà
##_gon
##_gấu
##anger
##_sh
##_sững
##_sai
##_sịt
##_cọ
##_cọc
##_cân
##_cấm
nghêu
quấ
điều_khoản
##_giản
##_giun
##_giêng
##_dậy
##_dẻo
ra_điều
##_mười
##_mang
##_mặc
##_màn
##_meg
##_nàn
##_nập
##_nuôi
##_trù
##_trượt
##hime
##_kẹp
##_kyo
##_kệch
##_ba
##_buổi
##_bệt
##_buồm
làm_đi
làm_loạn
nếu_ngươi
cảm_ơ
thì_có
vậy_ý
##_rời
##_rắm
##_rưới
##_ramen
đầu_mối
##tachi
##phone
honey
##oman
##_khôi
##_khống
##_phùn
yukinoshita_hỏi
yukinoshita_bối_rối
yukinoshita_khẽ
san_thích
sandwich
##end
##ennon
##_nghiến
qua_lo
yuigahama_trùng
yuigahama_vặn
nhàm
nhà_thơ
nhà_hát
tự_th
tự_cung
##kiko
##kiyaki
##_quẩn
tay_cầm
mặt_đối
mặt_u
đúng_ra
##n_đáng
##n_đáp
học_thức
học_lực
học_toán
loui
love
##ser
##tsumi
ngoái
to_miệng
totto
tara
taro
bất_kính
##n_lennon
##n_bật
##n_buôn
teri
xe_hơi
xe_ngựa
connery
cơ_bụng
cơ_cấu
công_lao
##_nghĩ_lại
tất_yếu
tất_chân
##ripi
bước_tiến
##sawa
##ging
thôi_miên
bat
bach
back
battle
kết_liễu
hôn_bạn
nghi_phạm
bây_giờ_đây
mirin
milan
bình_lặng
bình_chọn
bình_phong
trông_già
dễ_tính
đường_kính
mới_tinh
##n_tử
thông_thái
thường_dân
giải_nhiệt
giải_a
##aaa
chiyo
chi_tiêu
chi_phối
bộ_dạng
bộ_tộc
quyết_toán
quyết_liệt
tròn_xo
cole
co_giãn
coca
mall
ma_quái
master
hành_xử
##ân_x
##kuri
dogen
chuồng
##ản_gốc
nước_lạnh
màu_da
##n_thờ
##n_thân
kitano
phát_nhạc
phát_ốm
##_hoe
cao_học
cao_tốc
xa_rời
số_mệnh
đánh_quả
đặc_sắc
##kotsu
senpai_mỉm
##n_cla
koyama
hàng_không
hàng_ngũ
duyệt
âm_điệu
âm_hưởng
âm_ấm
sinh_đôi
chẳng_trách
tối_đen
tối_muộn
tối_giản
nghiêm_cấm
lâu_nay
##_tự_cấp
sole
soạn_nh
tư_pháp
uống_cốc
kaku
kare
kaguya
áo_thun
tháng_giêng
cổ_tròn
mạnh_tay
chạy_đua
##_khoắng
sensei_nở
sensei_mỉm
quan_hệ_thể_xác
khuếch
gia_cố
cầu_nối
chào_bố
chào_cô
cá_n
cá_nướng
tiểu_sử
tiểu_quỷ
##mmer
##_thiết_bị
trang_thiết_bị
định_lý
định_luật
định_dạng
kinh_thánh
##n_dẫn
##n_dán
quanh_quẩn
nổi_điên
nổi_dậy
bảo_thủ
tâm_huyết
thư_tình
thư_thái
gây_sự
vòng_đời
##n_chỉ
##n_chúc
##n_chỉnh
##n_chiếu
##n_chúa
đề_thi
ấm_cúng
bánh_ma
bánh_bao
bánh_chi
bánh_xèo
bánh_mochi
yếu_kém
tài_hùng
##n_văn
##n_vặn
trà_đạo
thú_vui
thú_si
##n_nhạt
kiểu_mẫu
động_lượng
động_mạch
hợp_lệ
đỏ_hoe
biểu_thị
tu_sĩ
hiệu_lực
hòa_tan
##lip
rượu_whisky
ruby
xanh_lục
xanh_xao
yoshino
##n_khởi
hasu
ngon_tuyệt
ghi_điểm
buồn_vui
che_chở
đèn_trần
mưa_rào
mưa_phùn
bệnh_dịch
phim_hài
giơ_lòng
hộp_nhạc
cứng_cỏi
hoàn_trả
chiều_tà
đeo_tai
tiêu_khiển
tinh_trùng
sở_trường
##reze
giảm_thiểu
##doro
##haru
vũ_trang
hoa_h
hoa_màu
hoa_giấy
##_hành_tinh
nhân_tính
niag
nilon
phong_độ
da_trần
đấu_tập
đấu_vật
shiki
shikato
shiruko
văn_minh
trí_thức
áp_môi
nhiệt_thành
vita
vi_sinh_vật
vitamin
phấn_khởi
hạ_mắt
hạ_thấp
chữ_ký
thấp_bé
bay_bổng
rút_tiền
dạy_dỗ
##n_xin
nabe
may_mà
giày_dép
giày_lười
tắt_radio
tranh_thủ
tranh_chấp
tranh_vẽ
kiên_cường
kozo
shinran
##etti
chống_chọi
ngăn_điều
chuyên_tâm
cơm_trộn
thiên_thể
thiên_chúa
ống_hít
thủ_tướng
ngụ_ý
##bus
##butsu
chiến_thứ
rung_nhẹ
##_tokyo
cứu_hỏa
phục_tùng
lộ_mặt
lầm_ý
thương_tích
##_trò_chơi
siêu_nhiên
thanh_trượt
đất_sét
mềm_nhũn
mũi_nhọn
say_đắm
nhấp_ngụm
thô_sơ
thô_kệch
##ston
##stra
##stle
##stpa
việc_làm_việc
đăng_tải
tôn_tử
tôn_thờ
cánh_tay_trên
phớt_lờ_sự
##_tích_tụ
thảo_đơn
khoa_trương
phiu
ana
ngắm_cảnh
phổ_quát
cộng_hưởng
##gashira
cải_tạo
cải_xanh
ứng_tuyển
lông_thú
lông_vũ
bộ_đồ_ăn
##tein
##tera
chọc_trời
##masa
rau_xào
khúc_xạ
mẫu_đơn
khí_hậu
khắc_họa
##_ngại_vật
cư_trú
tay_áo_khoác
biên_giới
heming
thoáng_chốc
bồ_hóng
giám_khảo
mizusa
ghen_tuông
wase
ăn_ý
đóng_cửa_sổ
##cola
##boko
##board
##bold
##bohyd
##_cao_su
đuôi_tóc
răng_rắc
##shine
cháy_bỏng
##_chuột
bàn_pa
có_ích_lợi
toàn_thư
tụ_họp
thảm_kịch
thảm_yoga
vali
ahahaha
vận_rủi
phiên_dịch
##ân_cách
mod
pall
paripi
xương_tủy
quốc_lập
boy
boso
bohe
queen
000_yên
hậu_vệ
mushi
bán_buôn
cong_lưng
tia_lửa
khai_báo
kushi
kuru
bắt_chéo
ưu_điểm
ưu_đãi
170
sean
sengen
sengoku
lưỡi_dao
##_thiêng
_điểm
sugaru
sukiyaki
summer
bánh_quy_giòn
kẹo_cao_su
chải_chuốt
hổ_phách
chấm_hết
gấu_bông
phản_biện
##papa
đài_truyền_hình
hiệp_sĩ
nguồn_lực
pok
potato
##kanyama
hijiri_sanagi
bạc_hà
ám_sát
nhân_đạo
chắp_tay
##_rock
thử_thai
huynh
huy_hoàng
daikanyama
vạch_đích
_chúc
##bishi
hiroo
ryokai
nữ_hoàng_vũ_hội
nhếch_nhác
##pero
ló_mặt
##tic
mạch_máu
_hayama
ẩm_mốc
##ffon
##ffle
bent
##ppucc
2017
himena_ebina
bắp_tay
liều_mạng
tượng_đài
ene
nghèo_đói
nghèo_nàn
mã_đề
revol
dota_thức
macbook
shoto
chủ_nghĩa_cộng
douro
bùng_phát
cục_tẩy
fukusukegami
fukusukegashira
##ghetti
bebe
gai_góc
tẩy_trang
tẩy_giun
nhu_mì
mai_chiếu
hất_cằm
ikea
nối_tiếp
rào_chắn
##fufufufu
mật_thiết
mật_mã
tomamizu
aoyama
hải_âu
jourdan
camera_ẩn
keisei
keisuke
nhãn_dán
con_cáo
marc
marl
tốn_công
chiêu_trò
cặn_kẽ
##nikov
_yuigahama
thợ_săn
2023
màng_nhĩ
quang_cảnh
bục_giảng
cuồng_loạn
vu_khống
yukinoshita_hít
card
carbohyd
cừ_khôi
trấn_a
phủi_bụi
nekolingual
rách_rưới
bất_khả_kháng
azato
vắt_óc
vắt_kiệt
##_air
##_xoay
chân_không
mất_trí_nhớ
tsunagi_touka
peper
mitsubishi
tomokazu_maru
cub
fastpa
khổ_hạnh
khổ_dâm
đi_tới_đi
##_ghép
cận_cảnh
of_the
triều_tiên
thịnh_soạn
little_people
natsnagi_touka
denmoku
##udy
edm
kèn_cla
lọ_lem
mụn
đèn_điện
_yay
hiếu_khách
tứ_chi
dày_dạn
mont
monjaya
yaharo
zaza
khua_khoắng
dầu_mỡ
ăn_không
len_dày
jaguar
kaihin_ma
armstrong
nòng_cốt
sừng_sững
chân_m
chướng_ngại_vật
hashish
##mmmmmmmmmmmmmmmmmmmmmmmmmmmmmmmm
oải_hương
##baraki
trắc_nghiệm
nakajima
1981
jiromawa
##iiiiiiiiiiiiiiiiiiiiiiiiiiiiiiiiiiiiiiiiiiiiiiiiiiiiiiiiiiiiiiiiiiiiiiiiiiiiiiiiiiiiiiiiiiiiiiiiiiiiiiiiiiiiiiiiiiiiiiiiiiiiiiiiiiiiiiiiiiiiiiiiiiiiiiiiiiiiiiiiiiiiiiiiiiiiiiiiiiiiiiiiiiiiiiiiiiiiiiiiiiiiiiiiiiiiiiiiiiiiiiiiiiiiiiiiiiiiiiiiiiiiiiiiiiiiiiii
gyoza
gyokuro
tonkotsu
san_liếc
##_kozono
chuyển_tải
kuroko
toxoplasma_gon
sụt_sịt
ngõ_cụt
trung_học_miyoshi
inulingual
seagal
##cious
cloudy
rye
ramen_cốc
rakugo
natnagi
vận_mệnh
pierre
sportop
asakura
imouto
musashi
sùng_đạo
##demy
##n_yukinoshita
tachikawa
chikuwa
madge
sâu_bướm
faye
gờm
hò_hét
sàn_nhảy
tấp_nập
tanabata
zaitsu
##_tenmangu
nhục_nhã
nghị_lực
hoen_ố
shirayama
yakuza
john_lennon
gahapapa
lùng_sục
lảm_nhảm
níu_kéo
nuông_chiều
pachimon
sung_sướng
tọa_lạc
khêu_gợi
cười_chế_giễu
chuorinkan
vô_giá_trị
kochitora
caffeine
suginami
ichijoji
shogakukan
truyện_cổ_tích
kashikomari
aristotle
_iroha
_takuya
_onii
dấn_thân
dinesen
febreze
hiến_pháp
hóm_hỉnh
lủng_lẳng
mủi_lòng
nài_nỉ
rơm
ramune
sàng_lọc
túy
uzumasa
ấn_phẩm
ẩn_sâu
ổn_thỏa
khâm_phục
khiếm_khuyết
ngấu_nghiến
##_hiratsuka
nói_đúng_ra
##_meguri
làm_đi_làm
honeyto
qua_loa
tự_cung_tự_cấp
mặt_đối_mặt
louis
teriyaki
giải_akutagawa
chiyoda
tròn_xoe
dogenzaka
kitano_tenmangu
soạn_nhạc
bánh_chiffon
thú_singapore
niagara
hemingway
##ppuccino
revolution
carbohydrate
fastpass
đi_tới_đi_lui
kèn_clarinet
monjayaki
kaihin_makuhari
toxoplasma_gondii
39
48
46
52
75
96
930
_yo
_yumi
_sai
_eh
ae
av
achi
aru
ash
a_ray
bb
bw
bung
buôn
bina
bee
can
cật
cận
cống
cội
cchi
cạp
cặn
cạy
c201
dâ
day
dược
dâm
dạt
dha
dna
dặm
ea
ein
e_ngại
engel
fri
gx
gợ
gân
gảy
gớm
ger
gyu
gand
gum
gặm
hr
hiến
héo
hàu
htt
hằn
h50
hân_h
ise
ibaraki
jr
jui
juku
jean
kino
kame
kenji
lt
lặ
lượ
lâng
luận
lòi
mạ
mác
miên
min
mino
mau
mura
maya
mem
maih
ninh
nõn
oh
oly
occ
pri
pla
puyo
rành
rữa
ròng
róc
rớt
rei
rpg
sc
sả
sò
sồi
sig
suất
sậm
sứt
ston
sweet
sky
tá
tw
tào
tanh
tấc
un
usu
usa
uke
vấy
vơi
việt
vẩn
vượn
win
xù
xẻ
xưng
án_mạng
ùng
đẻ
đẩu
ẩu
ở_riêng
##ey
##_ù
##_ả
##_ố
##_ân
##_ốc
##_ja
##bai
##bone
##ac
##ake
##ace
##gg
##id
##iano
##sát
##ssa
##sko
##sone
##sche
##hto
##hahahaha
##tr
##tra
##tel
##tine
##flash
##rama
##rah
##rano
##oki
##peri
##ul
##uần
##cino
##com
##ccu
##muri
##myu
##mpi
##mbold
##yui
##ytail
##yjama
##jp
##dư
##day
##dom
##lu
##lumi
##lle
##zza
##zsche
##ền_mạch
##ỵt
##ĩm
##12
##54
##ngu
##ngumi
khấu
##_tu
##_tơ
##_tách
##_tạnh
##_tóe
nhâm
nhão
thè
thải
thêu
thót
chiết
chối
chuốt
chùm
chân_đ
chụm
changi
ngai
ngần
ngân_
ngưng
trần_
trạch
##_thăng
##_thám
##chủ
##chúng
##chke
##chủng
##chsh
một_mạch
như_ý
##n_âm
##n_ảnh
##n_phi
phàng
##_lì
##_long
##_lắng
##_len
##_lúp
##_lâng
##_line
##_đả
##_đẻ
##_đau
##_đảm
##_đẩu
##_đàm
##_đẳng_cấp
##_vượng
giu
gian
gimm
khiêng
##_hĩnh
##_him
##_hưu
##_hãm
##_highball
nói_đi
##_chồi
##_chống
##_chanh
##_chứa
##_chém
san_nh
san_nghĩ
người_th
người_qu
##_nhà
##_nhái
##_nhuần
##_gục
##_gừng
##_gãi
##_sài
##_sỏi
##_sọc
##_sạc
##_sợi
##_sẫm
##_cày
##_cùi
##_cẫng
quất
quai
quân_b
điều_tệ
##ambo
##_giri
##_de
##_dời
##_dầu
##_dán
rada
lại_lại
##_mị
##_mí
##_mẫn
##_mina
##_mãnh
##_mím
##_nông
##_nua
vào_giờ
##ans
##ansha
yugahama
##_kệ
##_kẻ
##_bơi
##_bon
##_bảng
##_bơn
##_báu
##_bẩn
##_bản_gốc
làm_ăn
làm_tình
làm_thịt
nghĩ_lẽ_ra
choshi
##_ngon
##_ngưởng
##_ngón
chúng_em
cảm_tính
cảm_biến
cảm_kích
vì_sao
##_rang
##_ròng
##_rinh
##_rát
##_rầy
##_rựa
##_rưỡi
##_ruộng
đầu_độc
##tag
##tare
##phy
##phor
hoodie
##ombone
##iga
##_khốc
##_pha
##_phì
##_phật
##_phân_cách
yukinoshita_tiến
thế_tục
sanwa
##ahua
##enia
thời_sự
thời_lượng
##onnai
##oncino
chiến_h
##_nghiện
câu_thơ
câu_văn
hỏi_đáp
##rap
##ral
yuigahama_định
yuigahama_cau
yuigahama_hít
nhà_khách
nhà_tắm
##sui
##sushi
##suka
##suru
##sual
ngày_giờ
ngày_sinh
tự_phụ
##kiri
##kicho
##_quỳ
##_quỹ
##_quai
##_quặc
mặt_đường
mặt_thực_sự
##n_đe
##n_đắp
cười_nói
##_xù
##_xé
##_xắc
##_xinh
##_xăm
##_xảo
##_xụp
##_xẹo
cảm_thán
lời_lẽ_ra
học_bạ
học_thể_dục
lon_r
##sel
##sengumi
ngoáy
tou
toki
tokoro
tan_biến
tan_ca
tan_sở
tabas
taenia
cố_chấp
##yashiki
phòng_chống
aiyo
##n_hô
bất_thành
bất_tử
##n_lạc
##n_lâm
##n_lăn
##n_láy
##n_bài
##n_báo
##n_buồm
tehe
concerto
##_định_mệnh
tengo_đoán
cơ_mặt
công_trường
công_giáo
công_an
tiếp_viên
##rie
##ritsu
cửa_miệng
thành_thị
thành_phầ
mặc_vest
đâu_đây
đâu_vào
hihara
hime
hiace
thay_đồ
chính_sự
chính_nghĩa
chính_tả
hơi_bối_rối
tiễ
tin_vui
##giri
##m_chiến_b
nhất_là
nhất_trường
##_sinh_thái
kết_án
kết_hô
hô_hấp
komachi_nheo
komachi_khẽ
vui_tính
thích_mèo
nhẹ_tay
aomame_lặp
misu
mirac
đồng_tử
đồng_toán
bình_dân
bình_xịt
isshiki_mỉm
isshiki_lén
đôi_lúc
suyễn
suy_tim
suy_tư
##wari
ngồi_xếp
dễ_mến
mới_đây
##n_tóc
##n_tiếng
##n_mi
##n_mọn
thông_chắn
thông_đồng
thông_no
đáng_thương
thường_niên
hayama_hơi
hayama_nở
giải_khát
giải_đố
giải_độc
đứng_yên
lo_lắng_liệu
đặt_cọc
chihu
bỏ_dở
bộn
bộ_đàm
sách_vở
quyết_chiến
con_ch
con_lăn
mù_mịt
sống_còn
##n_ngắt
khoảng_trống
ma_sát
hành_quân
hành_hung
di_cư
di_dời
##ân_ch
tương_quan
sáng_chế
##_dụng_cụ
##kuto
trung_cổ
dog
nước_dãi
kita
kira
kimi
kisha
mẹ_ngươi
phát_nổ
liên_minh
vô_định
vô_thưởng
vô_phạt
vô_mục
##_hoodie
cao_niên
đánh_máy
đánh_cược
furi
fukami
chết_đói
hoàn_tác
##n_cất
##n_sùng
##n_sms
kounibyo
kokoro
hình_n
hình_xăm
##_lạp
sử_bạn
kể_ra
xin_ph
ghế_tròn
ghế_đẩu
##imachi
âm_bội
âm_u
âm_trầm
##ám_hiểm
bài_bản
sâu_rộng
tối_mai
tối_cao
tưởng_nhớ
buff
kiểm_toán
##ruse
solium
son_nhạt
##n_giao
zaimokuzaki
zaimokuza_mỉm
giúp_ngươi
dài_tập
kalash
túi_tiền
áo_gió
áo_hoodie
đau_chút
đau_cơ
đau_tai
tai_cô
tai_tengo
liệu_pháp
saika
khó_chịu_khó
##seid
ít_ỏi
##beth
##berg
##_phục_vụ
##_yama
##_yoshi
cầu_hô
dự_thảo
dự_bữa
chào_bạn
chào_tengo
chào_miura
chào_nhanh
cá_chép
cá_thối
cá_bơn
đêm_tối
tiểu_thư
tiểu_hành_tinh
trái_phép
trái_xo
chaga
##_nhân_tạo
##mmm
cảnh_vật
trang_sách
cánh_buồm
định_hình
định_đoạt
##n_dầu
thiền
thi_cử
đông_nghẹt
nổi_cơn
vị_giác
bảo_trọng
bảo_cậu
bảo_lãnh
bảo_đảm
tâm_điểm
tâm_giao
tính_phí
đền_đáp
cây_trồng
nhờ_vả
##bari
##bako
##bare
chạm_trán
quả_thật
kẻ_yếu
##n_rách
hài_cốt
##n_vi
hội_họp
trống_không
trà_trộn
đèn_hậu
##n_nhiệt
##n_nhọt
##n_nhiễu
mục_lục
meet
nội_y
trời_phú
biểu_thức
tur
tuýt
giỏi_toán
##erseid
cầm_quyền
hạnh_nhân
##lia
rượu_sa
mười_năm
mười_tám
tỏ_lòng
xanh_dương
tác_nhân
tác_hại
kawasaki_liếc
##_tình_yêu
yotsu
yotsuya
thuốc_độc
tòa_thị
##n_khai
ghét_bỏ
hèn_mọn
happ
trực_thuộc
trực_thăng
kính_lúp
tamal
nguyên_tố
##n_phát
che_mắt
chen_chúc
##_nhật_tâm
##_nhật_bản
mưa_gió
giết_chóc
vỗ_cánh
hy_lạp
quy_hoạch
quy_giòn
lá_nguyệt
đội_tuyển
tiêu_dùng
chibademy
thái_cực
tinh_xảo
shon
dịch_thuật
##dora
chigusa_nheo
vũ_trường
đế_quốc
đế_bệt
nhân_tố
nhân_thọ
niet
cappuccino
phương_trình
băng_p
băng_chuyền
băng_bó
da_lộn
dazai
da_gà
dachsh
nam_mỹ
độc_đoán
vẫy_vẫy
shichi
shiro
văn_x
tiền_án
danh_vọng
##_phẩm_giá
nhạc_ja
tín
tín_dụng
nhiệt_liệt
ấm_áp_chiếu
vip
view
visual
vật_nuôi
căng_phồng
humbold
tù_đọng
thấp_độ
xinh_xắn
nhảy_lùi
nhảy_cẫng
thuyết_âm
thuyết_nhật_tâm
niềm_tin
##jicha
chuyển_kho
chuyển_nhượng
chuyển_giao
la_mã
laser
la_giri
xử_tử
xử_án
yoshimori
tủ_kính
dạy_học_sinh
##n_xuýt
##_gato
ly_kỳ
ly_whisky
tùy_tùng
ino
tsuku
đậu_miso
chất_thải
tiết_thể_dục
tranh_minh
bancho
shine
shinji
shinsengumi
bãi_bỏ
sơ_sài
lặp_lại
chống_trả
chuyên_khoa
thiên_tai
ống_hút
##ley
irohas
thủ_quỹ
##_soi
##_soạng
ngụ_ngôn
bông_tai
tự_động_viên
váy_ngắn
rung_cảm
rung_rinh
##_toán_học
thua_trận
gương_soi
tam_quốc
hương_hoa
##_panh
##_para
siêu_cao
siêu_ngọt
thơ_mộng
thanh_bình
thanh_lọc
sắc_đẹp
sắc_nhọn
mờ_mờ
kim_phút
mềm_yếu
cử_động_cơ_thể
##sou
hệ_sinh_thái
tôn_sùng
##_giáo_sư
dày_cộp
lật_đổ
cánh_tay_trái
súp_lơ
thảo_mộc
pha_lê
trăng_lưỡi
hoàng_đế
ansa
anre
billie
hữu_hiệu
dao_rựa
phó_giáo_sư
lãnh_chúa
##_mìn
nhiệm_kỳ
linh_vật
linh_dương
linh_trưởng
linh_thiêng
##kkan
chớp_nhoáng
camphor
xoay_vai
##queen
##quette
trình_diện
##_thông_tin
hiển_vi
onna
xóa_sổ
thỏa_thu
lông_tơ
truyền_miệng
hấp_hối
##ineko
##n_kính
##n_kịch
phạm_trù
cổ_hủ
##tes
##tetsu
tác_dụng_lực
rửa_mặt
tái_bản
có_mặt_trái
vùng_đệm
##mark
già_nua
rau_m
rau_quả
tiện_nghi
quý_báu
ác_tính
ác_liệt
ác_độc
bút_danh
##uuuuuuuuuuuu
xúc_xắc
chim_hét
nâng_đỡ
cơ_sở_dữ
não_bộ
não_tủy
takao
rác_thải
##goho
biến_động
ve_kamakura
##_vũ_trang
tiên_sinh
tiên_đoán
lưu_vực
bổ_dưỡng
giai_thoại
tung_tóe
cất_hộp
mizush
##_đối_diện
##cojp
194
1945
##bol
##boshi
gánh_vác
đen_láy
răng_hàm
thúc_cùi
thảm_khốc
valse
##_ria
con_sóc
##okada
kìm_hãm
đơn_thân
gãi_gáy
gãi_gãi
lỗ_khóa
moon
mori
mother
1200
tàn_sát
tàn_dư
đâm_chồi
quốc_tịch
boo
bour
phòng_bệnh_viện
hậu_cung
lục_lạc
mì_cốc
phiền_lòng
phiền_nhiễu
khéo_tay
bán_ảnh
sát_thương
mũm
mày_mò
đa_cấp
đa_nghi
roi
rock
rolling
roses
toei
khai_trương
chuột_đồng
chuột_túi
yamashita
yamazaki
##lock
game_thủ
nâu_hồng
##mes
150
sex
seki
sốt_may
lef
cường_tráng
gục_đầu
lồng_ghép
sumo
suke
suỵt
chải_lông
chấm_điểm
khoai_môn
liềm
liền_mạch
đậm_đặc
##_orimoto
tenjin
##paka
châm_cứu
ngập_tràn
khen_thưởng
phóng_khoáng
thầm_nghĩ
110
gahaha
pochi
ranh_mãnh
tây_nam
pichi
mím_môi
huy_hiệu
daisho
sẹo_bỏng
pandora
##biko
lê_đôi
alto
nồng_độ
chì_cơ
##onic
ryochin
eihto
hé_lộ
##n_nghiệp_dư
dư_ảnh
dư_âm
liệt_giường
rối_rắm
bịt_tai
_hả
râu_ria
##uraya
thấm_đẫm
thấm_nhuần
##_maaya
mê_sách
mê_tín
5050
dạ_quang
nhồi_nhét
hài_hòa
bắp_cày
cd_kịch
##_lợi_nhuận
thâm_hụt
quạt_mặt
goho
gohei
gollum
180
187
revi
trộm_cắp
##mories
eo_biển
quấy_rầy
macbeth
shobo
shochu
##_yukinon
247
dép_lê
##_ic
##_izumi
cục_bộ
cộc_cằn
song_trùng
đua_marathon
tem_mèo
vòi_nước
phẳng_lì
quần_leg
145
ban_nha
dải_phân_cách
##_ushikawa
hộ_khẩu
vướng_mắc
vướng_víu
đắc_địa
khuất_dạng
trụ_cột
geho
xô_đẩy
##cafe
##caccio
nhà_thám_hiểm
bàn_phẳng
biển_báo
nối_đuôi
nấm_mốc
thụ_tinh
trinh_thám
gentaro
tướng_lĩnh
mật_khẩu
##ăn_nhật
móc_khóa
kodansha
tay_trắng
minh_mẫn
tản_bộ
vo_vo
thánh_ca
phân_l
truyện_ma
tố_chất
##umai
chiêu_mộ
lan_truyền_thông_tin
dưa_chua
đút_túi
funabashi
nốt_nhạc
ogikubo
##_kích_thích
trông_coi
dân_chủ
kín_tiếng
nhắn_sms
trojan
bách_khoa
great
##sion
##site
starting
triển_khai
nồng_nàn
##_chihiro
harmonica
béo_phì
necafe
sờn_rách
sờ_soạng
##rince
quỳ_gối
matsudo
blu
blah
gundam
đục_ngầu
##_kiri
manzai
xiên_xẹo
đô_la
chí_hướng
ngả_lưng
mitsuke
soi_gương
natsanagi
mọt_sách
puff
##gujo
khổ_sở
itadaki
protein
##_ghế
##_ghề
phòng_ngự
khô_hanh
kaori_orimoto
thịnh_vượng
đèn_flash
hoành_hành
đậu_phụ
isbn9784094515
cai_ngục
hachiko
mụn_nhọt
ngất_ngưởng
_ngươi
mcqueen
ăn_bữa
##caron
##lanc
charlie
kanae
odawara
bím_tóc
dầu_mè
rìu
xì_xụp
ngọc_trai
trơ_tráo
giẻ_rách
honda
con_bọ
hội_ngộ_định_mệnh
1990
1994
motoya
spaghetti
chân_lý
koibana
koisuru
route
yankees
báng_bổ
ponytail
rình_mò
somei
nakasone
cáo_buộc
clarinet
hàn_quốc
yanagiyashiki
đố_kỵ
##www
##ayuki
##eeeeeeeeeeeeeeeeeeeeeeeeeeeeeeeeeeeeeeeeeeeeeeeeeeeeeeeeeeeeeeee
atm
four
sâm_panh
ăn_cắp
ếch_nhái
homuuu
hoshimyu
##n_xoăn
jeff
slr
wanny
fufufufu
yokoyama
vận_may
##aaaaaaaaaaaaaaaaaaaaaaaaaaaaaaaaaaaaaaaaaaaaaaaaaaaaaaaaaaaaaaaaaaaaaaaaaaaaaaaaaaaaaaaaaaaaaaaaaaaaaaaaaaaaaaaaaaaaaaaaaaaaaaaaaaaaaaaaaaaaaaaaaaaaaaaaaaaaaaaaaaaaaaaaaaaaaaaaaaaaaaaaaaaaaaaaaaaaaaaaaaaaaaaaaaaaaaaaaaaaaaaaaaaaaaaaaaaaaaaaaaaaaaaaaaaaaaaa
sports
_totsuka
_tobe
action
zarasu
##form
maripin
đồ_ă
đồ_ăn_nhật
##n_sở_hữu
hạn_hán
hạn_hẹp
bán_đảo
ryoanji
_ushikawa
cẩm_thạch
lấm_lem
##talin
house
komae
xoắn_xuýt
hoa_hậu_mina
dao_gọt
biến_áp
##aaaaaaaaaaaaaaaaaaaaaaaaaaaaaaaaaaaaaaaaaaaaaaaaaaaaaaaa
thụy_sĩ
lựu_đạn
gym
monogatari
nameko
oharai
sỉ_nhục
vươn_vai
##ctoria
kunitachi
galfie
nhạc_pop
tủi_thân
cộng_tác_viên
murphy
deja_vu
doppelganger
anisakis
bại_lộ
freud
gồ_ghề
kamaboko
munch
penra
đọ_sức
khẩn_trương
nhóm_chiến_b
chớm_nở
ngòi_nổ
sakigake
##_kyoka
tottori
chào_bố_mẹ
bánh_macaron
analog
waseho
bohemia
bentler
enechke
chủ_nghĩa_cộng_sản
marlbo
peperoncino
_yumiko
achilles
bwv
cật_lực
cội_nguồn
einstein
gợn_sóng
gyudon
gandhi
juicy
ltd
lâng_lâng
maihama
olympi
occam
ròng_ròng
róc_rách
sứt_mẻ
stones
tào_lao
ẩu_đả
khấu_trừ
nhâm_nhi
thót_tim
trần_gian
##n_phiền
gimme
người_quản_gi
quân_bài
radar
##onnaise
lon_rỗng
tokorozawa
tabasco
bất_thành_văn
đâu_vào_đấy
kết_hôn_muộn
miracle
thông_noel
chihuahua
con_cháu
vô_mục_đích
xin_phép
buffet
kalashnikov
trái_xoan
chagagawa
meets
rượu_sake
nietzsche
băng_perseid
văn_xuôi
nhạc_jazz
humboldt
thuyết_âm_mưu
chuyển_khoản
tam_quốc_chí
camphorki
thỏa_thuậ
cơ_sở_dữ_liệu
mizushina
bourbon
sốt_mayonnaise
daishoki
eihtou
review
quần_legging
hoa_hậu_minagisa
nhóm_chiến_binh
olympic
06
130
33
35
49
51
69
815
95
94
_g
_sa
_kawa
_ha
_ryo
_meg
_okada
af
ain
an_th
ass
aaaaaaaaaaaaaaaaa
axi
azuki
aria
akohama
abiko
bụ
b5
bai
binh
băm
buô
bìm
bru
bấc
bứt
buôn_l
cậy
cáng
cuống
cáp
cân_x
dề
dấm
diếp
dẹt
dome
eq
el
eki
echino
fina
fer
for
flip
gạ
gam
gòn
gằm
gel
genji
hớ
hỡ
hong
hama
hích
heo
hảo
hara
hải_m
haaaaaaaa
hõm
hóp
hyak
h20
ic
id
ich
ira
isu
isa
itai
jk
jō
kang
kru
kno
kayu
lệ
lú
lới
lảo
lít
luyến
lumi
lùm
lõng
lùn
mậ
mò
mè
máng
mảng
miệt
mri
muô
mame
muri
miếu
mmm
mineko
nề
nỡ
nung
núp
nim
nọt
nặn
nana
nấc
now
nyu
nima
oo
oz
oai
ola
obo
off
offi
ooooooooo
ps
pam
pee
plato
prince
quyển
ră
rx
rã
rộ
rin
rước
rỏi
ráo
rặng
ráp
réo
rạch
rem
ret
sề
sé
sw
sên
sui
sto
sono
set
sis
scan
sonic
stalin
tơ
tnh
tami
tuốc
tẩu
up
uso
uber
vồ
vế
vẩ
vỉ
vạn
vắc
vữa
vun
vẹt
we
wb
wu
way
who
waaaaaaaaaaaaaaaaaaaaaaaaaaaaaaaaaaaaaaaaaaaaaaaaaaaaaaaaaaaaaaaa
xơ
xắt
xắc
xúi
xóm
xấc
yah
yatsu
ze
zu
zangi
ân
ói
óc
ô_vuông
ôn_bài
ù_ù
ý_niệm
ăn_ng
ăn_d
ăn_g
ăn_vặt
ăn_xin
đai
địu
đúp
đèo
đấng
ẩn_sĩ
ồ_
ồn_l
ồn_phát
ổ_đĩa
ổ_đạn
ứ_đọng
ừmmm
##eta
##_am
##_ống
##_áng
##_au
##_uất
##_wata
##_jo
##bra
##buri
##bane
##nu
##nen
##nya
##asegawa
##acious
##gan
##gui
##gana
##gdo
##gigami
##ing
##iễn
##số
##sinh
##ski
##spo
##hana
##haha
##tz
##tchi
##tem
##tland
##fé
##fly
##31
##37
##rino
##rte
##ăn_mặt
##p_b
##pen
##ppa
##up
##uta
##cara
##cci
##mai
##mom
##mere
##mimi
##ye
##kya
##komi
##vẽ
##jimachi
##dn
##dy
##daya
##dayu
##ờn
##lm
##lta
##lter
##lbi
##luh
##leman
##27
##24
##zuna
##zov
##ổn
##ôm
##ẩn_qu
##18
##wei
##46
##ẵn
##ngeki
##nhan
khét
khẩy
khiếp
khướt
##_tấp
nhệ
nhị
nhân_b
nhím
nhòe
nhăn_mặt
nhẵn
thầ
thặng
thậm
thuyề
three
chợ
chong
chững
chài
chừa
chúi
chuna
chậc
chùn
ngỏ
ngục
ngớt
trá
trộ
trát
trombone
có_nghĩa
có_một
##chính
một_chiến_binh
như_chơi
##n_i
##n_hi
##n_ri
##n_ốc
##n_ép
##n_ổn
phở
phao
phảng
##_lỡ
##_lóng
##_lượt
##_lọt
##_lụt
##_lùn
##_đủ
##_đè
##_đậu
##_đăng
##_đảng
##_đền
##_đỉnh
##_đùi
##_đếm
##ayoshi
##_vĩ
##_vỗ
##_vận
##_vương
##_vút
##_vuốt
##_vén
##_vẹo
giằng
gimo
gifu
gimu
khiên
##_hề
##_họng
##_hói
##_hạch
##_hiếu
##_hênh
##_hasegawa
nói_ngươi
##_chà
##_chiế
##_chuộc
##_chăn
##_chẳng
##_chuyên
##_chèo
##_chặn
sat
sad
sach
sashi
sawa
saba
sale
saga
san_định
saling
sa_ngã
san_y
san_hơi
san_bật
san_ngắt
##_nha
##_nhô
##_nhí
##_nhừ
##_nhường
##_nhộng
##_nhánh
##_nhắm
##_nhấp
##_nhăn
##_nhuộm
##_go
##_gổ
##_gào
##_gân
##_gẫm
##ange
##_say
##_sữa
##_sâm
##_súp
##_spa
##_can
##_còng
##_cắn
##_cuộn
##ongo
quánh
quặng
quẩn
điều_động
điều_ích_kỷ
điều_lẽ_ra
điều_nọ
trong_trẻo
##amu
##aman
##amine
cô_tịch
##_giũa
##_dinh
##_dưa
##_dốt
##_duyên
##_dâng
rai
ra_sức
rais
rapper
ragdo
##ướu
##_mỡ
##_mời
##_mống
##_mọng
##_men
##_măng
##_mệt
##_mẩn
##_mướt
##_mor
##_mĩm
##_na
##_ni
##_nâu
##_nồi
##_nanh
##_náo
##ain
##_tròng
##_trinh
##_trạch
có_thể_lực
##ink
##inin
##any
##ance
yuri
yubi
##_kẹo
##_kayama
##_kei
##_kèn
##_bệ
##_bí
##_bôi
##_bột
##_bời
##_bai
##_bách
##_bái
##_bùng
##_bói
##_bón
##_bẫm
##_bậc
##_bunko
##_blanc
làm_chứng
làm_chủ
làm_bỏng
làm_khó
làm_bạ
làm_gương
làm_ruộng
##ật_bản
cho_qua
choma
##_ngỏ
##_ngọc
##àng_hình
##aomame
##shinhan
màn_d
##amazov
thì_ra
thì_thôi
khác_nào
##_rô
##_rỉ
##_ranh
##_rung
##_rền
trước_lực
trước_sau
đầu_lẽ_ra
đầu_bảng
đầu_hói
##tashi
##taki
##tasis
homo
hono
hojo
hojicha
biết_ngươi
lên_men
##kar
##kake
##kaja
##karya
##oma
##omori
##igo
haydn
##_khá
##_khối
##_khóc
##_phất
##_phân
bịp_b
##aur
thực_nghiệm
##ươm
yukinoshita_nở
yukinoshita_vặn
yukinoshita_lùi
yukinoshita_ấn
thế_gian
thế_yếu
sansho
##ons
chiến_s
##_nghét
qua_chuyện
quan_l
qua_mặt
quan_ngại
hỏi_ý
##ratsuka
##raku
yuigahama_bật
nhà_ăn
nhà_chọc
nhà_cung
nhà_nghỉ
nhà_sớm
##suku
ngày_sau
tự_tạo
tự_phát
tự_truyện
tự_phục_vụ
##_quế
##_queo
##_quân_sự
tay_chơi
mặt_tối
mặt_nửa
mặt_đáng
mặt_komachi
mặt_hayama
mặt_isshiki
đúng_mức
haiku
hai_phần_ba
##n_đẻ
##n_đó
##n_đất
##n_đọng
##n_đồng
##n_đơn
bắt_nhịp
cười_hơi
##_xương
##_xít
##_xuôi
##_xệch
##_xỉu
nghe_đâu
loạn
lo_âu
loop
##tsuko
ngon_ng
tora
toàn_t
toru
to_tiếng
to_tròn
tozai
tokyu
toppi
toil
torano
tabata
##chiyo
cố_giữ
cái_là
cái_trí
cái_quái
##yako
bắt_đầu_từ
aiko
##n_hạng
##n_hei
mắt_cáo
bên_cạnh
bất_bình
bất_đối
bất_quá
trả_đũa
##n_lan
##n_lượng
##n_lấn
##n_lẽ_ra
##n_bà
##n_bỉ
##n_bán
teko
tere
teleman
conce
trường_phái
trường_quay
tengo_thức
tengo_áp
tengo_hiếm
cơ_động
cơm_ch
cơ_đốc
cơ_mà
công_chính
công_đối_diện
komoro
tiếp_lời
tiếp_viện
tiếp_đón
cửa_hiệu
cửa_chớp
xuống_dốc
thành_thực
thành_phẩm
thành_trì
mặc_kệ
bao_xa
tiếng_lóng
hiền
hito
hiko
hiyo
hikey
thay_bộ
hơi_vặn
tiêm
tiff
##giải
bal
baka
ban_n
baro
ban_ph
ba_giây
hôn_n
komachi_liếc
##amel
năm_giây
thích_sách
đối_xứng
hôm_nọ
aomame_hơi
aomame_đoán
mix
mike
mitaka
seno
ish
đồng_ca
đồng_hương
đồng_xu
đồng_áng
isshiki_phồng
mất_sự
tình_địch
suy_ra
suy_dinh
đường_bộ
đường_mòn
lớp_toán
lớp_màng
##n_tạp
##n_móng
thở_nông
thông_tục
thông_dịch
đáng_ra
đáng_nghi
thường_phục
thường_nhật
##_tâm_lý
đứng_hình
đứng_tên
nhỏ_hẹp
xem_mặt
xem_bói
yêu_chiba
yêu_hatsukano
##_ý_muốn
ăn_theo
chip
chim_ch
chi_nhánh
bỏ_lỡ
bỏ_ngỏ
đột_biến
bộ_máy
bộ_váy
bộ_lọc
bộ_sạc
cos
cor
coc
coro
costa
co_thắt
cooki
con_ri
con_đẻ
nhớt
##n_nguyên
##n_ngạch
##n_ngưỡng
##n_nguyệt
tên_riêng
mary
mass
quyết_định_hướng
##amitsu
##amicom
mức_nước
hành_tung
hành_nghề
diana
chủ_thể
chủ_trương
##kuin
trung_lưu
phụ_giúp
doro
đột_nhiên_nheo
chu_cấp
bóng_thuận
nước_lớn
nước_đọng
nước_rút
màu_mỡ
##mory
##mode
##mosis
kim_ch
kim_chỉ
kiran
kitô
##too
##toka
vô_gia
vô_trùng
vô_song
##_hoàn_hảo
imag
cao_tay
cao_thượng
xa_sự
đánh_hơi
đánh_gục
##ần_s
fumimi
##koi
##koku
##kosha
##n_cả
##n_cô
##n_sự
##n_sệt
tuyệt_đẹp
##zake
mua_chuộc
koto
koro
kobo
kofu
kojimachi
hình_tượng
hình_mặt
hình_trụ
hình_quạt
hình_para
tuổi_đầu
##imét
hirasaka
hiragana
âm_tiết
sinh_thái
sinh_mệnh
hiratsuka_sen
tối_ngày
##ayasu
butter
sắp_sửa
chỗ_quái
##_trí_tuệ
máy_kho
máy_phát
máy_kéo
máy_lọc
soda
##n_giấy
##n_giấc
zaimokuza_vặn
cửa_hàng_không
hinofu
hino_yukinoshita
##milla
tổ_ấm
dài_hơi
lời_nói_thẳng
lời_nói_xấu
kara
kaki
kari
kabu
karate
kawaii
kalbi
áo_p
áo_j
áo_len
mối_thù
trung_học_tư
trung_học_khỏe
trung_học_bán
cổ_tengo
tail
tai_hình
taiga
tai_họa
taisho
mạnh_gấu
##zuru
sai_hướng
saiyan
vai_trần
cứ_việc
##bel
##bert
##_yuka
##kegi
##kemon
cầu_lông
ushikawa_nghĩ
chào_yuigahama
chào_xã
chào_họ
chào_buổi
chào_mời
cá_thu
tiểu_tiện
##khẩu
chacha
cha_dượng
##roro
##roid
##roquette
##roform
nhân_quyền
nhân_khẩu
kéo_gáy
quần_chúng
lễ_nghi
trang_mạng
tobe_chải
cánh_tả
sớm_một
miura_đáp
định_ăn
định_thần
định_cư
định_nhảy
kinh_phí
kinh_niên
##n_dạ
##n_diệu
##arashi
cấp_tính
thi_viết
thi_bù
thistle
chăm_chút
vị_thế
lòng_tin
ký_kết
ký_tên
thư_thoại
thư_ngắn
gây_gổ
bất_kỳ_lực
vòng_nguyệt
bàn_luận
##n_chặt
##n_chút
##n_chắn
##n_chăn
##n_chùa
quên_lãng
đền_chùa
cây_cảnh
mơ_tưởng
đơn_giả
bánh_táo
bánh_ham
trắng_biến
rica
rium
riamitsu
chạm_mặt
kẻo
kẻ_ác
kẻ_sọc
##n_ràng
ngay_lập_tức_là
sức_ép
sức_hút
tài_nguyên
##n_vơ
##n_vật
##n_váy
gió_thoảng
hội_tụ
môi_giới
##inashi
thị_kính
thị_hiếu
##_không_hai
trà_nhật
tràn_lan
##_trung_hải
thú_tội
đè_nén
đèn_chiếu
##yoza
##yoshino
bức_xạ
##das
##dal
##daka
tệp
giấy_báo
giấy_bạc
meh
mel
melo
messe
nữ_nhân
nữ_quyền
động_đậy
nóng_rát
kế_tiếp
nội_trú
hợp_lực
kawaka
phản_ứng_dây
mái_chèo
tuấn_t
xác_lập
lạ_sao
lạ_mặt
nghiêng_cốc
nghiêng_cằm
thiếu_vắng
địa_hình
địa_trung_hải
maru_nheo
hiệu_lệnh
cầm_ly
cầm_đũa
hòa_nhịp
hòa_tấu
##lit
mười_một
ruse
ruro
rufuu
xanh_mướt
đời_tư
ngu_dốt
nửa_ngờ
nửa_đùa
nửa_mê
sự_kiện_toàn
young
yokai
##n_khúc
báo_giá
hata
haku
halog
hawaii
trực_ban
kính_cẩn
nguyên_sinh
nguyên_lý
nguyên_đơn
nguyên_chất
ghi_đè
mamizu_wata
chester
chen_lấn
miyazawa
đổ_chuông
tăng_lực
##_email
bệnh_tình
xoài
giết_ngươi
ôm_hôn
hyung
vượt_bậc
##mane
megane
chibapedia
tinh_thể
shina
cực_ngầu
##repe
##has
chigusa_o
vũ_đạo
đẩy_viên
hoa_nở
ngày_mai_sau
đến_điều
chiếu_lệ
niwa
nike
nico
nichiyo
phong_tỏa
cari
cass
cabin
ca_rô
hít_khói
nở_nang
xếp_li
băng_hà
băng_video
băng_đảng
##umiko
date
da_đen
datem
nam_nhân
nampa
nam_á
diễn_kịch
du_nhập
shia
shio
shimane
tiền_nhiệm
tiền_giấy
đá_mài
hiện_hữu
công_tầng
áp_má
bé_nhỏ
trầm_lắng
##_vệ_binh
nhạc_trưởng
nhạc_rock
tín_ngưỡng
vi_mô
vision
human
hạ_bệ
hạn_ngạch
##_lộn_xộn
ngoại_cảm
ngoại_vi
ngoại_ngữ
ngoại_tuyến
hồi_âm
thấp_thoáng
phủ_quyết
phủ_sóng
nhảy_b
nhảy_vọt
yuipon
yui_hatsukano
thuyết_giáo
thuyết_ích_kỷ
trực_tiếp_theo
chuyển_biến
chuyển_ca
chuyển_mùa
la_vỡ
xử_tồi
tình_yêu_thương
##ần_lực
chứng_chỉ
chứng_thực
chứng_nghiện
thị_trưởng
tủ_trò_chơi
hỗn_tạp
204
ly_thân
ly_rỗng
ly_đồ
ly_hô
ly_co
ly_highball
tạp_âm
tùy_chỉnh
khô_cằn
inui
tsuki
tsuten
chất_lỏng
nak
naga
nakam
lấp_ló
tiết_mục
tắt_thở
thổi_kèn
band
bandai
kiên_cố
vợ_con
phép_nhân
shinbashi
shincho
thăm_quan
cởi_bộ
cởi_tất
bản_án
bản_vẽ
chuyên_dụng
chuyên_chế
chuyên_sâu
thiên_bẩm
thiên_niên
lập_cập
ống_chiên
##lein
thủ_thế
thủ_thư
##_solo
khuyên_bạn
noko
##buta
##buko
##buro
tử_vi
nhắc_đi
bông_thái
tiệc_nướng
##_thái_bình_dương
##ssai
xã_hội_đen
ước_điều
kêu_gào
rung_ghế
##_lịch_sự
thua_cược
lau_mắt
lau_miệng
lau_mông
laurie
lộ_thiên
nhặt_túi
tình_ca
hương_chanh
lầm_điều
##_trì_hoãn
cằm_tựa
siêu_tục
siêu_mạnh
siêu_cấp
siêu_cay
siêu_nhân_
siêu_ngon
thanh_nhã
thanh_sô
chúc_phúc
tươi_sống
sắc_l
sắc_màu
khủng_long
kim_giờ
##lls
khỏe_kém
tình_cảm_ích_kỷ
##_micro
buông_thả
vàng_nhạt
nhầm_tưởng
##soku
##sort
mô_tô
##_yếu_phẩm
london
đăng_ảnh
tôn_chỉ
tôn_kính
##_hào_quang
##_hào_nhoáng
toàn_lực
lật_lòng
##_tích_hợp
##_tích_tắc
phi_lợi_nhuận
trăng_th
trăng_sáng
trăng_đẹp
trăng_mật
tuyết_tùng
hoàng_thể
anto
xoa_bộ
vỡ_mộng
thắc_mắc_liệu
bing
bingo
bida
dao_cắt
ngụm_khói
##ely
đảo_chính
##kkk
cải_xuân
kiến_tạo
kiến_trúc
##m_fu
xoay_tròn
ứng_phó
##quỷ
trình_tự
trình_chiếu
trình_duyệt
pháo_đài
vì_thế_giới
onacious
xóa_tan
lông_xù
tổng_điểm
tổng_kết
bày_bán
hấp_bơ
hấp_tấp
##_tinh_hoàn
thang_âm
cung_ứng
##tei
##teko
rửa_cốc
tái_phạm
tái_chế
##_nghiêng
##_tư_bản
##_tư_vấn
tuyên_truyền
nuốt_lời
căn_chỉnh
nghịch_tóc
tha_thiết
quái_thú
điệu_nhạc
điệu_nhảy
khúc_mắc
khí_tượng
khí_quản
sổ_đỏ
nhún
nhúm
adren
ủy_viên
kịch_bản_gốc
lạc_điệu
lạc_hậu
mát_không_khí
mát_thổi
vắng_lặng
đạo_sư
đạo_luật
bền_bỉ
bền_chặt
biến_hình
biên_độ
ve_đầu
ve_bộ
ve_chú
ve_vai
ve_lưng
ve_gáy
vect
##_khoái_lạc
bám_trụ
gói_gh
hea
hero
hebo
hiện_thực_hóa
trọc_đầu
khiêm_nhường
gượng_đáp
lưu_lượng
lưu_ban
giật_cục
giật_gân
cất_dụng_cụ
wari
wats
wakegi
ăn_o
ăn_ảnh
##cor
1900
1954
##point
dã_thú
##box
##bori
răng_cửa
răng_nanh
##shmere
sóng_thần
##_chuỗi
##diva
toàn_trường
va_vai
_cố
ahahahaha
ham_mê
bóp_nát
naruto
mob
mor
motsu
nhỏ_nhoi
vết_thương_lòng
1230
pase
pass
pachin
paje
fukadas
##isha
thấu_sự
hạn_chót
bùn_đất
xương_sống
xương_quai
quốc_hội
yumichi
chihiro_am
taishi_kawasaki
bốc_thăm
##_chế_nhạo
bott
bofun
botao
hậu_môn
hậu_thư
hậu_hĩnh
lục_giác
lục_chiến
mì_ramen
trọng_đại
##_cấu_trúc
muh
mule
vô_tình_lạc
bán_mạng
bán_dẫn
bán_nguyệt
hồng_vệ_binh
cong_queo
mũ_đan
thủy_sinh
yumiko_miura
cưỡng_đáp
des
descar
dengeki
lương_thực
lương_tri
lương_hưu
sưởi_ấm
nhập_cảnh
roger
biệt_zaimokuza
khai_sinh
chuột_lang
kukuku
kukku
kurama
yasu
yasai
yamapi
side
nâu_nhạt
nâu_sẫm
sepp
sốt_sô
len_m
len_cổ
lưỡi_mèo
##rrr
##_tài_liệu
sabon
sabre
sue
suông
hoang_tàn
bánh_quy_ca
lẻ_tẻ
mỹ_nhân
đích_danh
lành_nghề
đắt_đỏ
xám_nhạt
##cebook
takatsu
##_or
tenshinhan
khốn_đó
karamazov
##ords
##pas
##pact
phân_giải
khối_u
quỷ_quái
hiệp_đấu
nãy_cậu
115
119
poi
poster
pokemon
lennon
##geta
##kane
nhiễm_trùng
wataru
##_tiễn
##ook
nhân_học
giáo_dục_phổ_thông
động_cơ_thể
thuyền_trưởng
gián_điệp
##tti
_chơi
otagaya
đắng_nghét
thăng_cấp
alph
sấm_rền
vung_búa
hiroshi
kích_thích_trí
bọ_lưỡng
bọ_cánh
jito
jishu
chì_hình
chì_máy
quyền_sở_hữu
vĩ_mô
eiko
eiyoshi
vương_vấn
##val
shizue
đức_phật
bơ_vơ
benkei
mê_đắm
mê_mẩn
táo_kẹo
táo_bón
##ppin
bấy_giờ
thống_khổ
2018
2019
đu_đưa
enka
thâm_nhập
quạt_thông
dè_chừng
ichiran
##_ruồi
1800
lây_truyền
lăn_tròn
mã_mor
sầm_uất
resort
_tuyệt
eo_thon
##aline
chày_trường
phe_chiến_binh
macar
tuôn_trào
chủ_nghĩa_duy
chủ_nghĩa_tư_bản
chủ_nghĩa_khoái_lạc
cục_u
lớn_tiếng_nói
beck
cài_cúc
longer
##_tụm
nghỉ_việc_làm
cự_li
jubako
##pia
##pin_màng
##pizza
khuất_tầm
nhu_yếu_phẩm
trụy
gela
mai_mềm
nhà_thiên
biển_cả
ikedaya
nấm_hương
đàn_bà
châu_mỹ
châu_á
trinh_nguyên
160
xộc_xệch
##fufufu
fi_hi
lạch_bạch
lưỡng_cư
tom_co
êm_tai
##_anime
toàn_quyền
hải_đăng
phật_tử
võ_sĩ
thánh_thiện
trào_lưu
trào_dâng
phân_định
mark
cá_mòi
truyện_hei
bẽ_mặt
bỗng_chốc
ninnin
##nichi
hưng_cảm
khuôn_miệng
2024
màng_đệm
uốn_tóc
uốn_xoăn
uốn_khúc
##sia
##_sable
quang_phổ
##kkkkkkkkkkkk
triết_gia
miễn_trừ
caramen
carmilla
dung_mạo
gucci
thi_tuyển
ritsugi
park
parka
bừng_mặt
thượng_hải
phủi_tuyết
dở_khóc
tiền_lệ
nho_chua
luân_ch
luẩn_qu
wild
yuya_hino
chân_chính
hiền_nhân
mầm_mống
##plex
janjan
manju
tụt_dốc
chín_mươi
chín_chắn
đoán_lẽ_ra
##ahahahahahaha
##ahahahahahahahah
huyền_diệu
cut
cure
facebook
hăng_say
lanh_lợi
vận_tốc
##guchi
##guro
mài_sắc
mài_giũa
nagayama
##stern
diệt_chủng
gập_gh
lộng_gió
proje
##_ghiếc
erina_kozono
nơ_vít
##xophone
bánh_sừng
ngẫm_nghĩ_lại
fantasis
hanami
higashi
keng
túm_tụm
nhạt_nhòa
hàn_lâm
mộng_mị
orwell
vò_rối
vò_nát
phết_bơ
mascara
_liệu
bồi_bàn
bom_mìn
cắn_răng
donki
bất_hợp_tác
chủng_loại
cổ_tay_áo_khoác
hehehehe
cairo
hùng_biện
hùng_vĩ
kì_quặc
konkon
ngất_xỉu
##_lẻn
giở_trò
tuần_lộc
_mềm
kẽ_răng
mcluh
tồn_đọng
tứ_tung
thước_kẻ
toa_xe
hạ_cánh_tay
heian
seiko
seiuchi
seikatsu
lũy_tiến
_suy
amazake
cào_xước
sư_phạm
sư_phụ
world
##puta
##_dở_cười
##ân_phục
máy_ghi_âm_ic
chán_ngắt
dân_tộc
minato
rì_rào
vân_tay
ăn_súp
##bune
##mushi
nháp_ly
chôn_cất
gieo_rắc
bíp_điện_tử
shiraa
lalaport
1993
##shugi
siberia
toxoplasmosis
2831
bạch_quả
mổ_xẻ
sừng_giày
sunshine
vuông_v
vuông_góc
nha_khoa
nhan_sắc
##n_ích_kỷ
##_văn_hóa
1979
bookmark
naritake
ganbare
hốc_hác
kyon
tục_ngữ
tăm_bông
đê_chắn
chăn_nuôi
chê_bai
phạt_đền
1987
nói_thẳng_thắn
##uuuuuuuuuuuuuuuuuuuuuuuuuuuuuuuuuuuuuuuuuuuuuuuuuuuuuuuuuuuuuuuuuuuuuuuuuuuuuuuuuuuuuuuuuuuuuuuu
compact
class
nuru
óng_mượt
óng_ả
##open
##kuniya
nhĩ_kỳ
giăng_mạng
##_kosaka
milimét
rokuon
golden
tối_ưu_hóa
ciba
dưỡng_lão
lâm_bệnh
sụt_cân
nhảm_nhí
ngấm_ngầm
hominin
phát_thanh_viên
bánh_croquette
bánh_crepe
##2013
blues
scotland
usb
usj
xao_lãng
##kyuu
tri_thức
nghèn_nghẹn
rakusai
doppler
royale
bụi_bẩn
##rrrrrrrrrrrrrrrrrrrrrrrrrrrrrrrr
masami_aomame
powerpoint
bội_đạo
mao_trạch
musashino
rượt_đuổi
sùng_bái
đệ_tử
##ford
nhehe
##_hối_hận
toshie
toshiharu
sâu_bọ
vụt_tắt
board_game
_trường
bè_phái
bập_bênh
henry
lấm_tấm
nanitani
osama
ohisa
ohitashi
otowa
punsu
xứ_sở
##nnnn
photo
hideha
nhân_dân
nhân_dịp
xoắn_ốc
meguro
dao_găm
uốn_lượn
819
hếch_cằm
kyushu
orion
orihime
urawa
zenkosha
đạn_lạc
##ppori
ngọn_giáo
truffle
gimemories
##_sôi_nổi
làm_công_ăn
holden
holmes
##n_hữu_tính
##ununu
ghềnh_thác
sinh_sản_hữu_tính
kẹo_sôcôla
bernie
bernilla
gondola
gonadotropin
gonadotropin_màng
_junior
cẳng_chân
eleven
iwate
nenbutsu
okusha
psyllium
ryugujo
steve
##rmone
kha_khá
ngũ_giác
sadat
cảm_ơn_ngươi
cocacola
kakumei
khuếch_đại
cá_nóc
tài_hùng_biện
hoa_huệ
kushiage
trấn_an_
mont_blanc
chân_máy
jiromawar
arukana
bbq
cận_thị
eats
gớm_ghiếc
gumhiro
hiến_tế
kinokuniya
luận_tội
miên_man
minamoto
memento
prix
sản_lượng
tanh_tách
usagi
xẻng
chối_cãi
chân_đế
ngân_chiếu
##_himeno
san_nheo
người_thân_yêu
chiến_hào
tehepero
thành_phần_nào
vô_định_hình
turkey
happon
dachshund
visual_kei
shinjitsu
moonlit
mũm_mĩm
##_kiriko
motoyawata
someiyoshino
_tobecchi
marlboro
thỏa_thuận_ngầm
_meguri
ainu
an_thần
axit
bụ_bẫm
buôn_bán
buôn_lậu
cân_xứng
echinoco
final
flippe
gạ_gẫm
hớ_hênh
hỡi
hải_mã
kayukinon
lảo_đảo
lumilumi
miệt_mài
nền_móng
oaiko
office
răn_đe
rộn_ràng
sền_sệt
séc
scandal
tnhh
vẩn_vơ
vun_trồng
wbc
xúi_giục
thặng_dư
thậm_tệ
thuyền_buồm
chong_chóng
chunagon
có_một_không_hai
phảng_phất
giằng_xé
sagae
salinger
raispo
ragdoll
làm_bạn_bè
màn_diễn
honoka
bịp_bợm
nhà_cung_cấp
ngon_ngọt
topping
toilet
toranoana
##yakodon
bất_đối_xứng
telemann
concept
hikoboshi
tiffany
ban_nãy
baroque
ban_phước
suy_dinh_dưỡng
thông_dịch_viên
cookie
con_riêng
vô_gia_cư
imagine
hình_parabol
hiratsuka_sensei
butterfly
máy_khoan
máy_phát_điện
áo_pyjama
áo_jersey
trung_học_tư_thục
##_yukata
bánh_hamburger
melos
phản_ứng_dây_chuyền
tuấn_tú
halogen
mamizu_watarase
chigusa_ogigami
datemaki
ly_cocktail
nakamuraya
thiên_niên_kỷ
siêu_nhân_quỷ
##m_futon
adrenaline
vectơ
gói_ghém
watson
pachinko
pajero
chihiro_amaya
botaoshi
rogerman
yamapikarya
seppuku
mã_morse
fi_hip
tom_collins
truyện_heike
dở_khóc_dở_cười
luân_chuyển
luẩn_quẩn
yuya_hinohara
gập_ghềnh
fantasista
mcluhan
03
08
00
05
033
220
38
58
54
650
77
88
82
87
84
850
_n
_r
_an
_se
_ya
_mo
_ko
_ho
_ma
_sen
_quả
_uh
_we
_hehe
_ebina
ax
aku
ami
aho
aso
amen
acc
akam
ak4
aaaaaaaaaaaaaaaaaaaaaaaaaaaaaaaaaaaaaaaaaaaaaaaaaaaaaaaaa
akane
abune
br
bã
b6
bàng
biện
bah
bậu
bra
bahama
bri
biếm
bana
beet
brai
bambo
ce
cf
cúng
cuộ
cra
cami
cạch
cớm
cine
cand
cuội
cườm
cum
cpu
clu
dt
dĩ
dỗ
dấy
dama
dượng
dừa
dem
dãn
dũa
drya
daman
es
ey
e9
enh
edi
eva
eros
fe
fun
far
fait
flick
fyan
funun
famicom
gỉ
gw
gang
gao
gắng
góa
gla
gee
gor
gur
guar
glori
glu
glock
hh
hp
hủ
hũ
hống
háng
hươ
hóc
hãng
hel
hộc
high
higi
hòm
huno
hợm
h45
io
iv
inh
iki
itsu
iri
ito
iii
iran
jun
jomon
kỉ
kền
kuri
kamo
kongo
klein
kuuuuuuuuuuuuuuuuuuuuuuuuuuuuuuuuuuuuuuuuuuuuuuuuuuuuuuuuuuuuuuuuuuuuuuuuuuuuuuuuuuuuuuuuuuuuuuuu
lững
lết
lặt
lơi
lốt
lóng
lúp
lem
lửng
lúm
mp
muố
miết
mương
mah
măng
mơn
mami
muu
myo
mõm
mưu
móp
mambo
mlm
nệ
nỉ
nện
nắn
niệu
nura
nạng
nép
nuu
nựng
neri
nei
nuno
nướu
nfufufu
oa
ow
oang
oán
omi
osh
ova
old
oben
odori
oyakodon
pd
pai
pig
pura
puku
pean
psp
pomo
perry
plen
rợ
romi
ruộng
rèn
rinkan
ss
s1
sch
sậy
sếu
sởi
sem
suu
sda
sém
ser
see
sủi
sũng
sight
spe
sti
sci
schu
squi
sssssssssssssssssssssssssssssssss
sân_h
sần_s
tớ
tạ
tm
tật
túc
tạc
tịnh
tịch
túa
tpo
tếch
tone
tàng_hình
tươm
ul
uri
ugo
uuuuuuuuuuuuuuuuuuuuuuuuuuuuuuuuuuuuuuuuuuuuuuuuuuuuuuuuuuuuuuuuu
urya
ufo
uruse
vc
vạ
vy
vv
vó
van
vút
vân_
vênh
vtr
wr
w1
whi
wana
wee
wahaha
were
wrap
xụ
xịu
xèo
xém
xếch
yến
yin
yomi
yana
yaaaaaaaaaaaaaaaaaaaaaaaaaaaaaaaa
yếm
yahara
yaho
zi
zuri
ái
én
ì_
ô_nhịp
ô_nhục
ý_ép
ăn_nh
ăn_ph
ăn_lòng
ăn_hạng
đầ
đả
đụ
đần
đực
đắn
đáo
đăm
ōoka
ặc
ốp
ổ_c
ợ_hơi
ục
ủ_bệnh
ỷ_lại
##eshi
##eph
##ese
##eda
##ela
##eck
##edi
##eral
##_ă
##_ó
##_ay
##_ơi
##_eo
##_on
##_ục
##_óng
##_wa
##_úp
##_za
##_aya
##_fa
##bs
##bhi
##ban
##bli
##blis
##buna
##ồn_c
##nam
##nun
##natsu
##nal
##aro
##a_tô
##alo
##atama
##gina
##gusa
##gur
##gamo
##grand
##garashi
##it
##io
##iki
##iko
##iro
##iba
##ido
##itai
##idas
##sama
##sque
##sberg
##hn
##hen
##hahahahah
##hahahahaha
##tơ
##tam
##thi
##ttsu
##turi
##tdo
##tho
##tne
##tryo
##ư_xử
##fri
##fight
##fgu
##89
##rn
##rra
##rsu
##raya
##rem
##o_
##oan
##ochi
##obe
##ăn_liệu
##đầu
##ắn_liệu
##pri
##pui
##pyo
##pli
##pus
##psi
##ption
##press
##uồi
##uro
##ure
##uts
##xứ
##xưng
##cs
##cầu
##cãi
##ckh
##cti
##ction
##crate
##cchan
##mp
##my
##min
##myo
##mer
##mbun
##yō
##yer
##yfu
##kka
##kki
##kui
##komachi
##kuyo
##kuyu
##vy
##vin
##van
##vịt
##ã_hội
##juku
##qua
##dd
##dài
##dka
##domo
##dding
##án_ph
##lg
##lai
##leo
##lah
##low
##lsto
##lus
##lum
##lomon
##lbas
##lgiri
##lvin
##21
##ặn_th
##ữ_tình
##ơ_hội
##ơn_phương
##zy
##zuyo
##ân_m
##ổn_ng
##éry
##06
##17
##75
##ws
##wer
##wsh
##wland
##ừu
##61
##änger
##çoi
khạc
khảnh
khúm
##_tã
##_tứ
##_tủ
##_tê
##_tam
##_tước
##_tái
##_tama
##_tuộc
##_tốt
##_tánh
##_tặng
##_tòa
##_tàu
##_tấc
##_tow
nhơ
nhẫ
nhích
nhẩm
nhu_nh
nhẽo
thăn
thiếc
thần_d
thướt
thân_x
think
thần_lực
thán_ph
chẻ
chè
chắt
chun
chuya
chùi
chòi
chểnh
ngà
ngỡ
ngấn
ngôn
ngổn_ng
trâm
trấn
trớn
trẹo
trans
trữ_tình
không_h
không_động
không_ích
không_hại
không_tài
không_kém
không_quân
##_thử
##_thỏ
##_thắn
##_thiệt
##_thãi
##_thẩm
##_thiệp
##_thép
##_thẫm
##_thõng
có_trí
##chy
một_lòng
đón_ch
như_viên
nhướn
như_ngươi
##n_anh
##n_áp
##n_ói
##n_em
##n_ayase
##n_isshiki
đi_lạc
đi_đôi
phờ
phế
phà
phiến
phượng
pher
phel
phân_nh
phần_c
##_lở
##_liên
##_làng
##_leo
##_lon
##_lâm
##_lấp
##_lói
##_lứa
##_liếm
##_lùa
##_lõm
##_lượn
##_lethe
##_lãm
##_lụa
củ_sen
của_ngươi
của_cải
##_đàng
##_đinh
##_đục
##_đính
##_đun
##_đâm
##_đấm
##_điếu
##_đứt
##_đọa
##_đơn_phương
##_vợ
##_vạ
##_vọ
##_ván
##_vụng
##_véo
##_vạch
##_vứt
##_vani
##_vinyl
giò
giòi
##_hờ
##_hé
##_hằng
##_heo
##_hảo
##_hám
##_hấn
##_hẻm
nói_liệu
nói_điều
nói_đùa
##_chan
##_chào
##_chét
##_chim
##_chiêu
##_chót
##_chén
##_chắn_liệu
##ất_cứ
saa
sas
sara
saku
sami
san_v
sasaki
san_ph
san_sát
salo
sagawa
san_biến
sapi
saeko
san_vặn
san_hô
saxophone
saraya
sa_đọa
người_làm
người_ích_kỷ
người_người
người_nhà
##_nhược
##_nhan
##_nhào
##_nhấm
##_nhòa
##_nhót
##_nhịn
##_nhằn
##_nhìn
##_gở
##_găng
##_gắm
##_gãy
##_gắp
##_ghi_nhớ
##_se
##_st
##_sứ
##_sải
##_súc
##_son
##_sạch
##_sana
##_sườn
##_sản_nh
##_sủa
##_cm
##_cò
##_cừ
##_cất
##_cậy
##_cần
##_câm
##_cẩm
##_cạp
##_cáu
##_car
##_cộm
##_cướp
được_mùa
quây
quát
quản_gi
quân_phục
quặn_th
điều_nhiệt
điều_đọng
##amon
##amus
cô_lập_tức
cô_đọng
##_giã
##_giông
##_giang
##_giỏi
##_dường
##_dấp
##_dạt
##_del
ra_đi
rano
rasse
rasko
##_mổ
##_mích
##_mảng
##_mét
##_mép
##_mặn
##_mamizu
##_muya
##_mùi
##_mini
##_mart
##_nã
##_nơ
##_nấy
##_nắn
##_nịnh
##_nồng
##_nặng
##_nạp
##_nọt
##_nộp
##_nứt
##_núm
##_nagisa
##_nấng
##aimo
##aine
##_trề
##_triết
##_tráp
##iner
##indo
##incar
##hisa
##hiko
##ank
##anon
##an_tính
yury
yusuke
yutori
yubin
yubari
yumin
##ước_mơ
##_kan
##_kom
##_kudo
##_koi
##_koshi
##_key
##_bo
##_bọ
##_bò
##_bè
##_bắc
##_bìm
##_bro
##_bốn
##_biếc
##_bol
làm_lại
làm_giá
làm_toán
nghĩ_trí
choo
cho_hay
##_ngôi
##_ngời
##_ngán
##_ngăm
##_ngóng
chúng_sinh
##shiku
##shiba
mà_ngươi
cảm_ứng
nên_tra
sự_vật
tuy_vậy
##_re
##_rọi
##_ren
##_rốn
##_rùa
##_ryo
trước_lượng
trước_kia
rồi_đây
đầu_tay
đầu_sách
đầu_máy
đầu_hiệp
đầu_đáp
đầu_đuôi
đầu_đũa
đầu_búa
##taria
##pho
hog
hor
hoo
hoka
hoạch
holi
home
ho_khan
homu
hormone
lên_mạng
lên_cốc
lên_lớp
##kata
##kaba
##kare
##kado
##kapon
##kachu
##kadokawa
##iểu_hiện
##omom
##omen
##omer
##omone
##ompli
##eor
nào_ngươi
##igan
##igamura
hay_liệu
##_khao
##_khùng
##_khẩy
##_khảm
##_phả
##_phức
##_phiến
##_phẩy
##_phân_ph
bị_đơn
bị_can
bị_đơn_phương
##aun
thực_lại
thực_khách
thực_thụ
thực_lúc
##ungee
yukinoshita_định
yukinoshita_nghĩ
yukinoshita_tối
yukinoshita_bật
yukinoshita_đáp
yukinoshita_vẫy
yukinoshita_ngắt
yukinoshita_chải
thế_quái
sano
san_thức
sanzu
san_tiến
santetsu
##ahoshi
##enen
##enry
thời_gia
thời_niên
chiến_d
chiến_qu
##_nghễ
##_nghén
quan_phòng
qua_ngươi
hỏi_lại
hỏi_đi
có_lẽ_ngươi
##raw
##rara
##razu
##ragamo
yuigahama_hơi
yuigahama_tối
yuigahama_hỏi
yuigahama_lặp
yuigahama_tiến
nhà_qu
nhà_thiết
nhà_hình
nhà_xác
nhà_tối
nhà_sách
nhà_nguyện
nhà_quản_lý
nhà_chiến
nhà_nhân_
nhà_ố
nhà_toán_học
nhà_tâm_lý
nhà_phân_ph
tự_lực
tự_quyết
tự_vấn
tự_đại
tự_kỷ
tự_chấm
cậu_cư_xử
##kiba
##kizuki
##_quỵ
##_quàng
##_quét
##_quầy
tay_thuận
tay_sai
mặt_trái
mặt_hốc
mặt_a
mặt_ích_kỷ
mặt_cắt
mặt_yuigahama
mặt_tử_tế
mặt_hối_hận
##n_đôi
##n_đông
##n_đòn
##n_đặc
thứ_yếu
thứ_mười
bắt_ruồi
cười_tục
cười_dạ
cười_khẩy
##_xứ
##_xì
##_xới
##_xược
##_xâm
##_xộc
##_xíu
##_xòe
lớn_mạnh
lời_chế_nhạo
hiểu_ý
hiểu_liệu
hiểu_ngươi
học_luật
học_xã_hội
loe
loét
lohas
##seline
##tsuru
##tsuma
##tsubashi
##tsumon
khó_đoán
khó_tả
khó_nhọc
khó_nhằn
ngoi
ngoặt
ngoặc
ngon_giấc
toáng
tochi
to_thế
toku
toro
tooi
tojo
tokai
tokima
tolsto
tower
toan_tính
to_bè
taki
tari
tabe
take
tasaki
tagawa
tatoshi
tatsuya
##ching
##chiai
##chiba
##chippin
cố_dụ
cố_giấu
cố_lén
cố_nhịn
##yagi
bắt_đầu_tư_vấn
phòng_hội
phòng_ban
aio
aid
aita
aichi
aihara
ai_cập
ai_nấy
##n_ho
##n_hà
##n_hiếm
##n_hôn
##n_hủy
##n_har
##n_hou
mắt_bão
##unagi
##unky
bất_bại
bất_biến
bất_tài
bất_tí
bất_lão
bất_lịch_sự
chắc_trời
chắc_chắn_liệu
quá_giang
##n_làng
##n_linh
##n_lặp
##n_liền
##n_lụi
##n_bút
##n_bắn
tech
teru
terra
xe_điện
xe_kéo
##_động_viên
phím_
trường_sinh
trường_y
trường_tư
tengo_thầm
tengo_nheo
cơ_như
cơ_lưng
cơ_del
công_dụng
công_nhỏ
công_phá
công_hẹp
công_hút
##_nghĩnh
komei
tiếp_tế
ayataka
tất_dài
tất_đi
tất_bật
##rier
##rihy
##ribori
cửa_định
cửa_sông
xuống_định
xuống_cốc
thành_b
thành_viện
thành_đạt
kun_thích
mặc_cả
mặc_yukata
khoáng
quay_lòng
bao_cấp
bao_quát
ayase_thích
bước_chân
him
hiya
hirom
hiten
hippi
hijiki
chính_quy
chính_điện
chính_maru
##uizawa
##satsu
##sakura
##sage
hơi_chế
hơi_ích_kỷ
hơi_kì
gọi_thoại
tin_học
##giây
##gishi
##giton
##giue
tại_sao_ngươi
lý_giải
##m_chùi
##m_chởm
thôi_việc
base
bali
ban_hành
batt
batto
basho
basso
bafun
nhất_khoa
##_sinh_học
kết_thân
hôn_s
hôn_gi
hôn_ngắn
komachi_định
komachi_tiến
vui_thế
thích_vị
thích_trò
thích_asamura
thích_thua
thích_tác_phẩm
##tsukasa
đối_trọng
đối_một
nhẹ_cốc
nhẹ_má
nghi_vấn
aomame_học
aomame_chỉnh
aomame_nheo
aomame_ghét
aomame_hít
aomame_cởi
mio
mid
mikoshi
miyoshi
mitake
miyuki
misawa
mi_nagisa
isono
isobe
đồng_chơi
đồng_toán_học
đồng_trinh
bình_thủy
isshiki_trùng
isshiki_bối_rối
isshiki_cau
mất_hồn
tình_cảnh
tình_lãng_mạn
đôi_hôn
trông_bạn
trông_ổn
trông_bẩn
##waran
##wabara
đường_chuyền
lấy_cốc
##n_từ
##n_tỏa
##n_tiếp
##n_tuyệt
##n_mờ
##n_mày
##n_mác
##n_mẫn
##n_mảnh
##n_muồi
nhanh_thế
mở_trừ
mở_vở
mở_mang
thông_cáo
thường_thức
thường_tán
vừa_định
hayama_nghĩ
hayama_nheo
hayama_mỉm
hayama_liếc
giải_toán
giải_o
emiko
##_tâm_hồn
##_thế_giới
kỳ_quan
kỳ_tích
kỳ_thị
kỳ_cục
kỳ_kinh
nhỏ_hình
nhỏ_thiên
nhỏ_xinh
nhỏ_xíu
yêu_ghét
yêu_quái
yêu_ayase
yêu_komachi
##_ý_nghĩ
ăn_tráng
chika
chikko
chica
chiritsu
chirem
bỏ_chúa
bỏ_túi
đột_kích
đột_quỵ
bộ_lạc
bộ_luật
bộ_truyện
bộ_đệm
bộ_kim
bộ_vest
sách_học
sách_ảnh
sách_tranh
chà_đá
trò_lừa
trò_hề
con_nuôi
colle
mù_mờ
##n_nữ
##n_nến
##n_nút
##n_nén
sống_thực
sống_mũi
##n_ngược
##n_ngâm
##n_ngòm
mag
mashi
maji
mapp
ma_điện_tử
makku
match
makkan
matryo
magiton
điện_tín
hành_quyết
die
dia
tương_nhỏ
tương_lên
sáng_kiến
học_sinh_học
chủ_lực
chủ_ngữ
##kusa
##kumi
##kuman
thu_nhận
trung_chuyển
trung_tính
trung_hoa
trung_trầm
trung_đông
phụ_cấp
phụ_âm
phụ_tùng
dot
dor
dop
doru
dokapon
khá_giả
chuồn
chu_vi
chuuni
chusha
bóng_gió
nước_ngầm
màu_lanh
##moda
##morsu
##n_thu
##n_thuyết
kichi
kill
kikk
kizuna
kikuyu
mẹ_vợ
phát_cuồng
phát_ngán
##tos
##tobo
vô_độ
vô_thanh
vô_thời
vô_hồn
vô_li
vô_tri
vô_duyên
##_hoài
ngủ_trừ
im_miệng
cao_đầu
cao_chút
cao_ngạo
cao_đẳng
xa_trí
xa_yuigahama
##_tế_nhị
đánh_động
đánh_đổi
đánh_bắt
đánh_bài
fure
fufu
fuhahahaha
fuhahahahaha
fukui
đặc_ân
thế_giới_thực
hết_trí
đồ_nhật
đồ_án
đồ_cổ
đồ_bơi
##kochi
##kori
##kofu
##kokohama
##koron
loại_trí
##_năng_động
##n_cớ
##n_cường
##n_cực
##n_cục
##n_của
##n_cừu
##n_số
##n_sơ
##n_sô
##n_sao
##n_sán
tuyệt_vì
tuyệt_phải
tuyệt_biết
một_số_phận
lạnh_nhạt
koko
kouka
kohai
kokichi
kohei
kogarashi
hình_cầu
hình_thù
hình_thái
hình_hoa
hình_mèo
hình_vẽ
bán_tranh
hàng_thủ
mang_vác
mangut
xi_lanh
xin_chúa
xi_nhan
ghế_xếp
ghế_chéo
##imon
âm_vật
âm_lịch
âm_hộ
âm_vang
âm_tốt
sinh_ra
sinh_trường
sinh_tố
sinh_mạng
sinh_nở
sinh_sôi
tới_lui
bài_bạc
bài_hát
sâu_lòng
gật_đầu
totsuka_nở
totsuka_khẽ
giả_danh
giả_dược
burg
bukicho
bulbas
buribori
xung_động
xuất_chúng
xuất_vani
xuất_xứ
tham_vấn
kiểm_chứng
kiểm_đếm
sắp_sinh
sắp_rối
sắp_trào
##_trí_nhớ
xong_xuôi
##rushi
##ruru
##ruma
điểm_tựa
máy_xúc
máy_bơ
máy_may
chân_tóc
chân_thon
chân_tánh
hướng_ngoại
sos
sora
soli
socrate
solomon
sotobo
tư_bản
tư_liệu
bàn_tròn
thoải
thoái
zaimokuza_nở
tập_sự
tập_thái
##anov
##mitsu
tổ_hợp
tổ_tiên
biến_tình_yêu
lời_nói_đầu
kaw
karu
kazu
kagami
kabo
kasho
túi_tráng
tiền_túi
áo_dài
áo_nỉ
áo_vest
nhẹ_nhàng_nheo
trung_học_nh
trung_học_chút
trung_học_số
trung_học_thời
cổ_đứng
đau_mắt
đau_lưng
đau_thắt
taira
tai_bạc
taitai
tai_địa
taisha
tai_yuigahama
tai_yukinoshita
tai_cha
taiyō
liệu_chúa
##zusa
##zuke
##zure
##zuho
##iêu_nhiên
chạy_nhảy
chạy_tàu
sai_số
sai_lượng
saitai
##_khoắn
##_gia_đình
giáo_điều
##bei
dùng_lực
##_yumiko
sensei_hơi
sensei_nheo
sensei_đáp
sensei_khẽ
sensei_mắng
gia_tốc
gia_tài
gia_viết
gia_súc
cầu_đường
dự_sinh
ushikawa_nghĩ_lại
chào_mẹ
chào_a
chào_nhẹ
chào_yukinoshita
chào_ayase
chào_vô
chào_isshiki
chào_aomame
chào_tobe
chào_hino
chào_hiratsuka
chào_yoshi
chào_hào_quang
cá_
cá_s
cá_chu
cá_trích
cá_a
cá_xanh
cá_heo
cá_tráp
đêm_ngày
khảm
chabu
cha_đẻ
##roka
##roku
##royama
##rorin
càu
cà_nhạt
nhân_s
nhân_ái
nhân_phẩm
nhân_xưng
cảnh_hôn
quần_dài
lễ_tang
trang_đầu
trang_lứa
đại_từ
đại_lộ
đại_đội
đại_liên
đơn_sắc
đơn_sơ
tobeh
tobe_đuổi
ảnh_gia
miura_lặp
định_học
định_lượng
định_chơi
định_giá
định_hôn
định_hủy
định_quay
định_châm
định_cởi
định_lẻn
định_vứt
giữ_thể
hatsumode
lưng_chừng
rắc_rắc
##n_dự
##n_dược
##n_dâm
sagami_vặn
quanh_mắt
kỹ_bạn
thi_toán
rắc_rối_thực_sự
đông_tokyo
trailer
nổi_hứng
nổi_nóng
nổi_ý_nghĩ
vị_ngữ
vị_thánh
vị_tha
giao_tranh
giao_phần
giao_nộp
bảo_khí
bảo_trợ
bảo_ngươi
tâm_sức
tâm_tư
hatsukano_thích
thư_rỉ
con_ngươi
độn
gây_mê
bất_kỳ_tác_phẩm
vòng_ngắn
vòng_eo
hoạt_bát
hoạt_náo
##n_chế
##n_chơi
##n_chốt
##n_choshi
đền_mắt
đền_răng
ấm_tay
ấm_cổ
ấm_đun
yên_nhật
yên_giấc
mơn_man
nhờ_ngươi
đơn_giá
bánh_hạnh
bánh_f
bánh_thơm
bánh_ướt
bánh_gato
bánh_chà
##baba
##batch
trắng_tay
kẻ_nghiệp
kẻ_cướp
##n_rễ
##n_rỏi
##n_rắc
sức_lao
tài_giỏi
bình_tĩnh_đáp
bình_tĩnh_nghĩ_lại
##n_vệ
##n_vũ
##n_viết
##n_vàn
gió_định
gió_nhẹ
gió_thổi
gió_lùa
môi_mím
##_hình_như
##_hình_chữ
bối_rối_đáp
##inar
bí_truyền
##_đón_đầu
trống_trầm
thú_thật
thú_hoang
thú_nhận_lời
đèn_bật
đèn_bút
##you
bức_xúc
##n_như
##n_nhào
##n_nhộng
##n_nhợt
##daba
##dala
##daga
##dawan
bởi_vì_thế_giới
thất_tinh
meza
meuni
mecha
mephi
động_dục
động_chạm
nóng_chảy
nóng_truyền
nóng_rực
nóng_tích_tụ
nội_chiến
nội_cung
nội_địa
kosaka_lặp
kosaka_nheo
kosaka_liếc
hợp_âm
kawakawa
kawago
kawashima
kawabata
kawaguchi
giá_như
giá_thành
giá_lạnh
giá_mà
thử_sức
đỏ_nhạt
đỏ_nở
đỏ_tí
đỏ_kẹp
đỏ_thẫm
trời_ơi
biểu_đạt
nghiêng_nghiêng
thiếu_nhi
địa_cầu
địa_danh
giỏi_đo
tồn_tại_sao
maruka
marusho
thân_thuộc
hiệu_đính
##erd
cầm_ô
cầm_micro
hòa_đồng
bật_nhạc
##ering
##lion
##liver
##liata
rượu_ngâm
run_nhẹ
xanh_đỏ
xanh_rang
xanh_biếc
cắt_cổ
kawasaki_học
kawasaki_nheo
kawasaki_đáp
##_tác_giả
gửi_gắm
nguậy
nửa_thương
nửa_cốc
nửa_gương
fukaeri_lặp
vết_xước
yori
yoro
yoji
yodaka
yokado
thuốc_tẩy
lịch_học
lịch_lãm
ghét_điều
ghét_chúa
hikigaya_komachi
haki
hakama
hash
hatto
habane
nayo
giường_hẹp
##_dục_vọng
akiha
lặng_gió
kính_cận
tamagawa
nguyên_tác
nguyên_trạng
nguyên_sơ
nguyên_khối
##n_phủ
buồm
buồn_b
buồn_man
buồn_phiền
mamizu_mỉm
cheeta
tỉnh_giấc
miyakochi
xu_nịnh
căn_tin
trôi_dạt
đổ_bộ
đổ_cốc
nhật_nghĩa
komatsu_thích
komatsu_nheo
mưa_tạnh
may_đo
phim_tài_liệu
mèo_cư_xử
tầm_trung
tầm_cỡ
tầm_tã
hộp_vuông
hộp_bento
chung_ca
vỗ_trán
##n_gối
hyah
dấu_hỏi
dấu_tích
dấu_phẩy
cứng_lòng
cứng_lưỡng
quy_gừng
chiều_tối
maaya_tiến
##mann
##mani
##aaaaaaaaaaaaa
mega
đeo_găng
tiêu_cự
tiêu_tan
thái_tử
tinh_ý
tinh_tinh
tinh_quái
tinh_dầu
tinh_ranh
shō
shino
shura
shar
shor
shue
sheph
gato
gath
garan
gakuin
cực_hình
cực_khoái
##res
##ret
##rel
##ream
##reak
##rezure
ngang_ngược
phả_hệ
phản_đòn
##hashi
##hage
##_khắc_kỷ
ngược_gió
hoa_quả
hoa_tai
hoa_vă
hoan_hô
hoàn_thành_phần
đế_chế
chiếu_sáng
chiếu_cảnh
chiếu_rọi
niss
nikko
nitto
nikon
nihon
nippori
nitơ
nilgiri
phong_kiến
cast
capi
casti
calling
cashmere
calvin
can_dự
xếp_hình
phương_sách
phương_bắc
băng_tay
băng_tan
băng_tang
băng_phiến
101
1000
1030
1028
ném_biên
##_thực_tế
daka
dare
da_trắng
da_liễu
da_hở
da_ngăm
daruma
namu
nam_cực
nam_ái
diễn_muộn
diễn_văn
diễn_thuyết
##_pháp_lý
độc_tấu
duke
du_kích
vẫy_p
vẫy_đuôi
đấu_sĩ
đấu_bóng
đấu_marathon
shita
shiba
shish
shinga
shihon
shigur
shitsumon
shimoda
văn_sĩ
tiền_của
##_victoria
thoát_thân
thoát_ly
hiện_vật
danh_chúa
danh_lam
áp_mặt
áp_tròng
áp_chót
bén_rễ
trầm_sâu
trầm_vang
cho_dù_ngươi
nhạc_sĩ
nhạc_thưởng
nhạc_key
thuộc_địa
típ
tía_tô
nhiệt_truyền
vitami
virg
victoria
##_cơ_bản
##_cơ_chế
vật_cản
căng_mọng
hub
hạ_điểm
hạ_tay
hạ_chí
hạ_giọng
tù_nhân
tù_binh
gõ_kiến
thấp_mắt
phủ_đầu
phủ_định
nhảy_nhót
yuiyui
thuyết_pháp
##jirushi
##laroid
bay_lượn
cay_mắt
cay_độc
phá_thai
bận_học
trách_yuigahama
trách_ayase
chuyển_dạ
cốc_ramen
lac
la_tự
la_liệt
la_sô
latte
la_gato
labra
lady
la_ó
xử_hơi
yoshimi
yoshime
dây_rối
dây_đai
chứng_loạn
tủ_chén
207
##n_xiết
##n_xếp
khóa_xích
ly_b
ly_nóng
ly_sâm
khô_ráo
khôn_xiết
inst
indi
inoka
infight
tsuke
tsukko
tsutsumi
tsurezure
đậu_lăng
chất_vấn
chất_thơ
chất_tẩy
chất_bôi
naan
nagami
nast
napa
natu
nation
may_mặc
lấp_lửng
tiết_tấu
giày_đế
tắt_tv
yutaka
tranh_tài
tranh_khảm
bannam
mở_cửa_kính
kozoni
shinai
shinno
shining
shinkiba
nấu_ăn_theo
##_loan
##_loát
##_logic
sơ_qua
sơ_lược
sơn_dầu
quán_tính
sắp_xếp_hàng
cởi_tạp
cởi_dép
cởi_quần
##ety
bản_con
bản_xứ
chống_đối
bảng_điểm
bảng_tính
ngăn_
ngăn_yu
chuyên_biệt
tựa_game
truy_cứu
truy_nã
đĩa_nhạc
cơm_trắng
hayato_hayato
hayatokun
hayato_hayama
##_thống_trị
thành_công_trừ
time
lập_phương
ống_lót
ống_thổi
thầy_trò
vuốt_cằm
thủ_vai
khuyên_hữu
##_chứng_khoán
nor
nota
noah
nohara
no_ton
noruse
nobel
nobuna
##bushi
bông_tuyết
bông_mã
##ssor
ước_nguyện
ước_bạn
ước_ao
váy_bọc
váy_chéo
váy_xòe
rung_màng
dạo_bộ
đương_đầu
hối_lộ
hóa_chất
hiếm_có
phục_sinh
lau_tai
lau_sàn
lộn_ngược
lộn_nhào
##_tiêu_chuẩn
nhặt_bộ
nhặt_khẩu
hương_kích_thích
lầm_đáng
lầm_kỳ_lạ
lao_vút
##hhu
thương_vong
##_pin
##_pol
##_purikura
##_piano
mây_bụi
mây_giông
máu_ấm
siêu_b
siêu_ích
siêu_đẹp
siêu_phẩm
siêu_đáng
siêu_khó
siêu_đẳng
siêu_hạng
màn_hình_trình
cúm
tươi_mới
khen_ngợi_ngươi
sắc_tố
sắc_lệnh
tận_tình
biểu_cảm_hơi
kime
kim_khí
kim_sắc
kim_nhọn
gấp_bộ
gấp_rút
##hoven
khỏe_khoắn
mềm_nữ
mềm_mượt
##_mizuho
buông_bỏ
buông_vai
buông_lỏng
buông_thõng
vàng_mã
vàng_óng
sáu_viên
đề_cuốn
đề_cương
phản_đối_với
nhầm_ý
nhầm_hướng
mô_tí
môn_y
lonely
##_lờ_mờ
##_quen_thuộc
đăng_tác_phẩm
kyou
núi_non
tô_bóng
dày_cộm
lật_nhào
phớt_lờ_zaimokuza
thảo_nguyên
thừa_cân
thừa_thãi
khoa_toán
khoan_nhượng
phim_ch
phi_quân_sự
phi_thực_tế
trăng_vậy
trăng_giả
trăng_dịu
trăng_mờ
trăng_méo
trăng_xanh
trăng_treo
trăng_trắng
trăng_vàng
trăng_nhợt
trăng_thực_sự
trăng_mùa
trăng_trông
trăng_giấy
trăng_lọt
giảng_toán
hoàng_lửa
hoàng_hậu
anti
anima
anzen
antare
##aaaaaaaaaaaaaaaaaaaa
##aaaaaaaaaaaaaaaaaaa
văn_phòng_không
bisque
hữu_dụng
dao_kéo
dao_mổ
##eld
##elli
##wanabi
phó_mặc
bận_rộ
điện_cực
điện_choshi
linh_mục
sản_sinh
tràn_ngập_định
tràn_ngập_tình
kệ_đĩa
##kkin
##kken
##kkyu
##_hộc
cộng_điểm
cộng_sản
cam_mờ
hào_nước
xoay_chuyển
xoay_vòng
tư_thế_này
ôi_ước
ứng_biến
##quin
hiển_linh
kawana_tengo
năng_suất
ondo
xóa_nhòa
lông_mèo
lông_ngắn
bày_biện
fujimi
lấp_lánh_vẻ
truyền_động
truyền_cảm
sôi_sục
##ines
thang_dốc
##n_kiếp
##n_komachi
##001
cung_nữ
cung_kính
cung_điện
cung_thiên
##ted
##teau
##teen
##tengo
##temia
tái_diễn
tái_phát
tái_cấu_trúc
tái_mét
chọc_giận
hoảng_hồn
già_làng
lái_xe_máy
thả_nổi
thảm_chùi
tuyên_chiến
pretty
nuốt_nổi
nuốt_miếng
chếch
quý_vị
quý_phái
quý_khách
quý_cô
##store
màu_sắc_đẹp
hư_hại
tha_mạng
than_phiền
quái_dị
trùng_não
trùng_me
ác_tâm
điệu_bộ
ăn_mì
ăn_miếng
mẫu_mã
khí_lạnh
khí_phách
lỡ_vẻ
lỡ_miệng
khắc_sâu
##uuuuuuuuuu
adidas
xúc_tu
ủy_nhiệm
kịch_nghệ
kịch_câm
lạc_nhịp
nhét_đồ
nhét_sô
rumi_liếc
chim_gáy
khẩu_phần
takanawa
takayuki
hợp_tác_xã
đông_đủ
đông_đảo
##gogo
##noul
##n_quả
##n_quân
mươi_phút
vega
ve_cậu
ve_tinh_hoàn
vegeta
ve_sable
bò_sữa
ô_tô_tông
##_kỷ_luật
himeno_lẽ_ra
heart
thoáng_đãng
gượng_nghĩ
lưu_động
lưu_lại
lưu_hành
lưu_trú
lưu_loát
bồ_công
tung_tăng
khẽ_cau
giật_má
giật_nảy
satoko
cất_đồ
cất_kính
cất_giọng
tani
tank
tansu
walk
ăn_fo
ăn_pizza
ăn_fri
##cose
##core
##cosho
##colle
1930
1940
##boku
##boso
##bour
##bots
##bocho
##bouchi
đen_ngòm
đuôi_kép
răng_lược
##shka
##shun
##shva
##shend
nuôi_nấng
sóng_âm
sóng_nhiệt
sóng_gió
##ckin
##cken
thần_tiên
thần_thái
bàn_xo
bàn_cãi
dính_dáng
##dian
##dion
##dium
khởi_phát
toàn_trí
tụy
đo_đạc
thảm_sát
thảm_dày
van_xin
vaseline
van_hou
con_sư
bào_thai
bào_mòn
_cú
_câu
_cuộc
_cánh
hamster
vận_dụng
viên_chức
##_danh_tính
vải_lanh
kìm_tiếng
đơn_tính
nông_trại
đấm_bạn
đấm_zaimokuza
bóp_cò
bế_giảng
cắm_tăm
lỗ_tai
naruho
sữa_đặc
bậc_thang
cuộn_trào
moo
moses
mosc
mohahahaha
mobuko
mohahahahah
##xiv
thắt_nơ
123
128
125
pasta
paper
tháo_chốt
chiến_đêm
đũa_phép
đũa_gắp
##isho
##fuku
##fuji
thấu_danh_tính
adachikumi
xương_cá
xương_cốt
xương_kép
xương_sườn
đâm_kim
phân_bố
thơm_ngào
thơm_dịu
thơm_phức
##_chế_độ
bot
bou
bokuro
boston
bolg
boomer
boroka
##_container
kiriko_a
hậu_cảnh
hậu_cần
lục_tìm
lục_tủ
mì_ă
phiền_h
phiền_không
phiền_yukinoshita
phiền_cô
phiền_komachi
mutsu
mushin
mutsuki
mutsumi
musou
vô_tình_yêu
##eeeeee
hồng_ngoại
hồng_nhẹ
hồng_ngọc
hồng_hộc
vởn
điên_khùng
cong_miệng
cong_cong
cong_vẹo
gạt_tàn
lướt_mạng
sát_sao
sát_khí
sát_hạch
bạo_động
bạo_bệnh
thủy_quân
cưỡng_nhận
cưỡng_hôn
desu
kanda
kanetsu
kancolle
lực_lưỡng
đan_l
đa_nhiệm
nhập_khẩu
nhạt_dịu
roo
roy
rose
road
rotten
phản_xã_hội
khai_vị
khai_hoang
kusu
kun_b
kun_học
kurumi
kuren
kun_nghĩ
kun_ổn
đốt_phá
dầu_sa
sitar
siroyama
##lot
##loc
tỷ_yên
##meji
##meyer
##yuke
sequin
sốt_thịt
len_mùa
le_lói
lưỡi_li
ngoan_đạo
ngoan_cường
cột_vật
cột_trụ
lắp_lại
tâm_lý_do
susuka
bánh_quy_cô
bánh_quy_gừng
kẹo_ớt
mỹ_nữ
điềm_gở
chỉnh_âm
căn_bệnh_tâm_thần
mép_cốc
thần_pon
gấu_áo
lion
lisa
life
litera
rạng_ngời
##aaaaaaaaaaaaaaaaaaaaaaaaaaaaaaaaaaaaaaaaaaaaa
gà_tây
gà_cay
##ark
##arl
##sssss
okajima
takashi
lờ_đi
lờ_zaimokuza
lờ_khẩu
##_oang
##_okura
##_ogiue
barney
tenichi
tenkai
tenten
tenryu
khốn_v
khốn_kiếp
then_chốt
##_manh_mối
karuizawa
harue
cha_ông
pháp_lệnh
giàu_trí
##paan
phân_v
chiếm_đoạt
tám_mươi
đài_loan
phóng_tinh
cổ_vũ_narasaka
cấm_tải
lũ_kiến
lũ_lụt
tê_giác
chéo_góc
quỷ_vương
_biểu_hiện
thầm_yêu
ngân_hà
phát_biểu_ích
tàn_nhang
gaho
poli
pound
polaroid
##saidawan
khuy_măng
##_hữu_cơ
##_suông
##geho
##kankan
##_caffe
##_café
ranh_ma
tím_nhạt
tím_tái
lơ_đãng_nghĩ
lơ_đãng_lặp
lơ_đãng_nghịch
tây_tạng
ám_thế
pita
piko
pixiv
##senstern
##ool
nhân_hình
nhân_đôi
chắp_vá
##_robot
amin
ameri
amoni
kẹp_tóc
kẹp_thịt
nô_đùa
nôn_ói
tiệt_trùng
tràn_trề
cờ_hiệu
cờ_lê
cờ_vây
daiki
daijo
lethes
muối_tắm
##tthe
_chúng
tông_lộ
tàn_thủy
vẹo_vọ
đắng_chát
##deyuke
##_trưởng_thành
##n_khoa
thai_nhi
alps
sấm_sét
vung_tay
vung_vợt
tiếng_nói_chuyện
hiroki
bọ_hung
bọ_chét
bọ_cạp
jiro
jingu
ryojin
ryotaro
quyền_lợi
quyền_anh
hỏa_hoạn
vĩ_nhân
nhếch_miệng
nhếch_cằm
nhân_chủng
canh_giữ
eitsu
eiha
eikou
##pera
##vas
quần_thể
nhạo_chính
căn_cước
ló_ra
đức_chúa
mạch_nha
rối_nữ
rối_bóng
rối_nam
rối_bời
xích_mích
bịt_mắt
thời_đại_thiên
thời_đại_showa
hiểm_chiếu
ẩm_môi
##urn
khát_khao
thấm_dầu
##_makoto
nhấp_nhô
khuyến_m
250
benny
benedi
quân_tử
chuỗi_hiệu
chế_độ_vũ_trang
bắc_mỹ
lén_liếc
khớp_xương
2016
bắp_rang
liều_lượng
tượng_hình
đu_đủ
max_café
##gawa_ryo
phản_bội_ngươi
ích_lợi
quạt_điện
quạt_mát
goku
gokai
gold
gohan
godiva
gothi
hung_khí
hung_bạo
ichiren
jalan
jason
jakar
chua_nhẹ
trúng_tuyển
trút_giận
fukuura
kinh_khủng_sao
183
mã_hóa
##tsuyu
ogai
reag
requi
redem
##usse
tội_phạm_mạng
##eeeeeeeee
_tướng
_tiếc
eo_cô
eo_săn
vặn_đầu
##ald
##alds
vòng_vòng
vòng_vèo
băn_khoăn_liệu
xà_cừ
macs
macro
khuấy_ca
shoji
2412
lúa_mì
phun_trào
##_little
chủ_nghĩa_đức
chủ_nghĩa_khắc_kỷ
onda_nheo
cục_diện
song_hành
song_phương
đua_mượn
thiện_chiến
trăm_năm
tem_hình
quần_len
amaya_chihiro
148
cương_vị
cương_quyết
yamcha
##oir
##_quản_trị
beau
beach
gaien
gai_lót
gai_độc
long_trọng
long_lanh
tẩy_não
##_udon
_hiratsuka
đắc_lực
đắc_cử
khử_caffe
định_nghĩa_là
gedo
gefu
gefun
mainichi
minami_sagami
minamiboso
##cation
gầy_guộc
bó_buộc
biển_thủ
dê_mù
hất_gáy
nối_tóc
thụ_phấn
châu_quốc
##_khóe
đại_khái_đoán
genfuu
general
khép_hờ
thí_điểm
ngoảnh_mặt
kích_hoạt_cơ_chế
ăn_mừng_sự
dương_tính
dương_cầm
filter
kenichi
lưỡng_tính
tomomori
##shop
##_ngôn_ngữ
##_ngôn_luận
toàn_cầu
viễn_đông
hải_quỳ
joshine
joyfu
xỏ_dép
##tair
cách_mạng_vũ_trang
cách_mạng_văn_hóa
mikazuki
nhân_công
nhân_cơ_hội
album_ảnh
cỡ_lòng
tàn_lụi
##_thắng_cảnh
nhường_lượt
xuất_tinh_sớm
xuất_tinh_hoàn_hảo
cây_cỏ
bản_ghi
thân_maru
801
keidoro
mạt_thế
nhãn_khoa
thánh_đường
đinh_tán
phân_hủy
phân_mảnh
takuwan
martin
ninku
##rant
##ranc
chiêu_bài
dưa_chuột
jimbocho
##vic
##ving
##vier
quần_jeans
đính_hôn
##ning
##nikuman
##_kích_thước
##_phong_cách
cướp_giật
cướp_biển
gạch_lát
hưu_trí
roman
ốm_đau
ốm_nghén
nhắn_nh
thợ_mộc
thợ_may
quàng_khăn
gretel
##sic
##side
khiếu_hài
treat
giăm_bông
##_sab
##_sato
thuần_chủng
##aaaaaaaaaaaaaaaaaaaaaaaaaaaaaaaaaaaaaaaaaaaaaaaaaaaaaaaaaaaaaaaaaaaaaaaaaaaaaaaaaaaaaaaaaaaaaaaaaaaaaaaaaaaaaaaa
start
vuột
vun_đắp
đồi_bại
yukinoshita_hạ
carton
carbon
đoàn_kịch
gắt_gao
dung_tích
dung_dịch
dung_nạp
guh
guru
kairai
menma
vĩnh_hằng
##sper
##chocho
co_rút
harris
pareo
austra
aufgu
sánh_đôi
##dani
thượng_hạng
giriyaki
giriak
nogizaka
shizuka_hiratsuka
dệt_kim
nev
nebuta
neputa
phai_mờ
masataka
masagawa_ryo
bất_khả_xâm
hôi_miệng
hôi_hám
sờ_nắn
xông_khói
công_nghệ_cao
bùa_chú
dàn_ý
huyết_áp
lux
luậ
lu_mờ
lucky
witne
yuya_muya
##stal
##station
chân_vịt
hiền_hậu
merlion
kim_giây_tích_tắc
huỳnh_quang_ố
dáng_dấp
gunun
itabashi
kề_vai
##kaiken
##omote
nanohana
renri
sành_ăn
sành_sỏi
##ssey
khứ_hồi
phúc_mạc
đỏ_sậm
mandala
peach
xả_hơi
đô_vật
đụng_độ
##donalds
chín_muồi
mitsuba
đoán_xét
_vẻ
bưu_chính
bưu_thiếp
fakkin
oil
oiwa
oimo
oiso
oistra
pup
pukku
puhaha
pudding
##_ôm
khổ_nạn
hót_líu
săn_đ
săn_bắn
đình_công
đình_chiến
đình_trệ
triệt_tiêu
heckler_ko
703
bẻ_lái
cận_chiến
cận_nhiệt
pnmegu
văn_thư
vô_tội_vạ
atsushi
hansel
key
keema
lởn
lởm_chởm
thập_niên
thập_cẩm
bernoul
densha
hà_mã
mộng_du
oryo
orange
sứ_trắng
##venchy
thẳm_đôi
thẳm_tâm_hồn
phết_sô
##_manju
masayuki
masayoshi
massage
thị_trường_chứng_khoán
_lỡ
_lâu
_lạnh
_lẽ_ra
cắn_m
donut
donpen
kèn_đồng
kèn_har
kinton
kinuta
kinnikuman
êm_ả
êm_ấm
thách_đấu
nhướn_mày
sagano
samue
hùng_mạnh
konami
konno
konja
konnya
lồi_lõm
oxford
choàng_tắm
chóp_mũi
narutonagi_touka
gagaga_bunko
_mamizu
_yomiuri
mcdonalds
múa_rối
ăn_bày
##uhuh
nội_quy_trường
heidai
mochizuki
quần_đen
quần_đảo
nanorobots
_sức
_sắc
arata
brown
odakyu
ronald
word
zack
##puff
##_tùy
##_trông_rộng
##_rắc_rối
thân_thể_nào
shabu
shawsh
1968
1969
##_fukaeri
oxy_tươi
nanpa
nantara
nantoka
nanahoshi
xì_xào
ăn_khách
##bunsha
trơ_trụi
honshu
quay_vòng_quanh
quay_vòng_vòng
hôn_cậu
shiratori
mugiatama
jagger
armani
artemia
bạch_cầu
bạch_tuyết
bạch_kim
bạch_tuộc
dồn_nén
lột_xác
rắn_rỏi
đờm
##janjan
chân_ngắn
chướng_khí
trợn_tròn
##korogashi
tối_om
phản_cảm
1976
book_air
isbn9784094517
isbn9784094514
360
cồng_vang
hốc_mắt
jinbei
kyahahahahahaha
kyunky
kaakura
oklah
paulie
spam
somaru
tị_nạn
tăm_tối
khom_lưng
chăn_đắp
chăn_cừu
chăn_phủ
chăn_gối
chê_trách
điêu_khắc
chocopa
hỏi_thăm_dò
chuokoron
phá_hoại_viên
nakahara
##stinger
hoàng_hôn_tuyệt
hoàng_hôn_nhợt
1988
_thức
comp
combo
compan
cáo_véo
clavier
gratin
mại_lộ
nương_cậy
tonkatsu
đố_siêu
##kkuri
ngọng_nghịu
đãng_trí
san_lén
##shirakawa
townshend
##undy
##berbatch
cầu_vồng
kuroki
beatboard
aaah
cia
cider
dưỡng_ẩm
dưỡng_da
fold
spider
yaobhi
ăn_cỏ
ăn_cay
chao_đảo
ngõ_hẻm
phiến_quân
ginza
ginkaku
kashikomi
trung_học_miyuki
trung_học_mizusa
bánh_cuộn
dây_thừng
dây_thun
seaside
marunosuke
##2014
con_bé_bỏng
cloroform
cần_câu
gò_bó
hahanon
jenga
naibouchi
outro
rameau
stress
sl9
sặc_mùi
scotch
scotti
tần_số
usd
##syllium
##pswww
ngộ_nghĩnh
ngạo_nghễ
tri_kỷ
trick
quân_k
yuji_hasegawa
##_rút_lui
hitomi
hitler
kings
fufufufufu
yokocho
yokosuka
natunagi
bản_địa_sống
bản_địa_hóa
ryoko_sato
paul_au
powerpuff
asahi
crown
exup
express
grander
katsuura
katsuno
lãi_suất
mộc_mạc
rầm_rầm
đệ_trình
##quiri
nhào_lộn
##_sản_nguyên
maricar
##ertorte
harohara
shimazaki
lập_trình_viên
bán_đĩa
_trời
_trận
marinepia
##kukukukukuku
_ugh
amelie
bập_bẹ
bập_bùng
cẩm_tú
edogawa
kyaa
momotetsu
nanh_sắc
nịnh_nọt
oshikura
parasite
pete
peter
tẩm_bổ
umapyo
weiwei
##benkei
##ninja
##monogatari
nghị_sĩ
houou
komazawa
đàn_áp_ngôn_luận
fujita
fujitsu
fujiwara
khuỵu_gối
meiji
biến_ước_mơ
amatsusa
thụy_điển
ninnaji
uốn_lưỡi
carlsberg
20110611
_nhắc
abba
bdbox
hạch_toán
iroyuki
sáp_nhập
stand
stanley
uchibenkei
zoe
ăn_liền
ăn_lươn
đạn_dược
ốc_vít
##ctor
thạch_cao
thạch_mạch
trummy
đi_tắt_đón_đầu
##_văn_nghiệp_dư
gimemory
lên_đường_cao_tốc
tagliata
sáng_rực_rỡ
##kuboushi
đại_bồ
đại_bác
đại_bàng
gae_bol
garcon
nhạc_piano
muromachi
##megurin
20116
##hhhhhhhhhhhhhhhhhhhhhhhhhhhhhhhhhhhhhhhhhhhhhhhhhhhhhhhhhhhhhhhhhhhhhhhhhhhhhhhhhhhhhhhhhhhhhhhhhhhhhhhhhhhhhhhhhhhhhhhhhhhhhhhh
##kkkkkkkkkkkkkkkkkkkkkkkkkkkkkkkkkkkkkkkkkkkkkkkkkkkkkkkkkkkkkkkk
ponkan8
doppelgänger
anisakid
royal_okura
george_or
_judo
_phần
_phấn
alice
ajiopen
bona
cần_động
cần_mẫn
cẳng_tay
danshin
hyaku
hahahahahahaha
kuuki
lữ_khách
namahage
nyasaidawan
narashino
perrier
psycho
steam
urayasu
viện_dẫn
viện_cớ
##icelli
khan_hiếm
san_cau
san_cư_xử
sadako
quấn_l
quấn_chăn
##_ban_đầu
cảm_ơn_chúa
tự_thiêu
tự_thỏa
mặt_u_ám
milanese
karepa
karepi
kaguyahime
khuếch_tán
cá_nạc
hoa_héo
shikibu
nabepa
phiên_dịch_viên
model
kushiya
kururi
kuruma
1705
macbook_air
keisei_chiba
cardigan
chân_mèo
##mmmmmmmmmmmmmmmmmmmmmmmmmmmmmmmmmmmmmmmmmmmmmmmmmmmmmmmmmmmmmmmm
jiromawari
##iiiiiiiiiiiiiiiiiiiiiiiiiiiiiiiiiiiiiiiiiiiiiiiiiiiiiiiiiiiiiiiiiiiiiiiiiiiiiiiiiiiiiiiiiiiiiiiiiiiiiiiiiiiiiiiiiiiiiiiiiiiiiiiiiiiiiiiiiiiiiiiiiiiiiiiiiiiiiiiiiiiiiiiiiiiiiiiiiiiiiiiiiiiiiiiiiiiiiiiiiiiiiiiiiiiiiiiiiiiiiiiiiiiiiiiiiiiiiiiiiiiiiiiiiiiiiiiiiiiiiiiiiiiiiiiiiiiiiiiiiiiiiiiiiiiiiiiiiiiiiiiiiiiiiiiiiiiiiiiiiiiiiiiiiiiiiiiiiiiiiiiiiiiiiiiiiiiiiiiiiiiiiiiiiiiiiiiiiiiiiiiiiiiiiiiiiiiiiiiiiiiiiiiiiiiiiiiiiiiiiiiiiiiiiiiiiiiiiiiiiiiiiiiiiiiiiiiiiiiiiiiiiiiiiiiiiiiiiiiiiiiiiiiiiiiiiiiiiiiiiiiiiiiiiiii
kashikomarie
_irohasu
480
avan
dân_nghiệp_dư
dân_làng
days
dâm_dục
dâm_ô
frisky
german
gặm_nhấm
http
httpswww
hân_hạnh
hân_hoan
kameido
lặn_chiếu
minori
minolta
murasaki
ninh_nhừ
ohenry
place
signal
vấy_bẩn
việt_vị
xù_xì
xưng_hô
ùng_ục
##ccus
ngai_vàng
ngưng_tụ
trạch_viên
giun_đ
giun_sán
quai_xanh
##igato
tokio
misuzu
kimizuke
kishakaiken
furikake
kounibyou
hình_nêm
shichimi
shiroumai
inoue
tranh_minh_họa
rau_muống
1947
bootoshi
sekibun
left
lefranc
##pakapaan
pochitto
shobo_co
charlie_bro
đồ_ăn_vặn
doppelgangers
munchkin
bwv24
người_quản_gia
người_quản_giáo
694
after
assam
bìm_bìm
bruh
ferragamo
hongan
hamachi
hảo_hạng
iraq
isaac
jōmai
kangaro
krusenstern
lệ_thuộc
lún
luyến_tiếc
mận_ngâm
muôn_vàn
mameshiba
murimuri
nimaa
nyubu
ootori
ozoni
oboe
offline
ps3
pampakapaan
remamura
retweet
swords
suit
siscon
tơ_nhện
usobana
vắc_xin
xấc_xược
yatsuhashi
ăn_gyoza
ồ_ừ
khiếp_sợ
nhân_bản
chợ_trời
trá_hình
##n_hickey
gimoi
saturn
sachertorte
##_nhắm_mắt
raiden
yubiwa
##_bí_ẩn
##kajakaja
chiến_siêu_nhiên
quan_liêu
##sukusu
toàn_tập
bất_bình_đẳng
teresa
cơm_chiên
cơ_đốc_giáo
hiền_triết
hitotsubashi
hiyoku
bộ_máy_bay
corolla
dorokei
kim_châm
lời_nói_thẳng_thắn
kabukicho
melton
ruroken
shinagawa
nicotine
caribe
cassini
nhảy_bungee
tsutenbashi
shinchosha
nhắc_đi_nhắc
sắc_lẻm
kiến_trúc_sư
heaven
wario
mobumi
pasela
botticelli
descartes
kukkukkkkkkkkkkkk
len_mỏng
alpha
macaron
chủ_nghĩa_duy_vật
nhà_thiên_văn_nghiệp_dư
project
vuông_vắn
rokuonji
photoshop
echinococcus
_senpai
_wewe
axa
akure
asoken
accompli
akamon
ak47
bàng_quang
bahamas
beethoven
bamboo
camila
cạch_cạch
cineplex
cumberbatch
club
dỗ_dành
dryad
e9l
edison
farm
fyantine
gang_tấc
gắng_sức
glace
goram
guardian
gloria
glucose
hươu
ion_âm
inh_ỏi
iriomote
kỉ_niệm
kuripa
kamogawa
lặt_vặt
lóng_ngóng
muốn_ngươi
nệm_futon
niệu_đạo
nurarihy
neil
owl
oang_oang
oshama
pdf
paisen
pomodoro
plena
seminar
suugaku
sủi_bọt
stick
scissor
schumann
sần_sùi
túc_trực
tịnh_độ
tươm_tất
ultra
vcr
vón_cục
vân_vân
wright
w1h
wanabi
xèo_xèo
yaaaaaaaaaaaaaaaaaaaaaaaaaaaaaaaaaaaaaaaaa
zurich
ì_ạch
ăn_nhật
ăn_phần
đần_độn
đả_kích
đáo_hạn
đăm_chiêu
ổ_cắm
##_ayumi
##_ondo
##_zaz
##lumbus
##çoise
khúm_núm
##_tamanawa
##_town
nhu_nhược
thướt_tha
thân_xác
thán_phục
chểnh_mảng
ngổn_ngang
không_hơn
không_tài_nào
đón_chào
pheromone
phelps
phần_cứng
##_lấp_lánh
saradaba
samii
saloon
sapiens
sarayashiki
##_caramel
quây_quần
quặn_thắt
##_dường_như
raskol
##_martini
##_koshien
hokage
hoạch_định
holiday
##kadokawacojp
##omomomo
thời_gian_hàng
nhà_quê
nhà_thiết_kế
nhà_chiến_thuật
nhà_nhân_chủng
nhà_tâm_lý_học
nhà_phân_phối
mặt_hốc_hác
cười_dạn_dĩ
tochiru
tolstoy
tariki
tabelog
bất_tín_nhiệm
terrace
phím_enter
cơ_delta
hippie
hôn_say
hôn_gián_tiếp
##waranai
giải_oscar
chikkoku
chicago
chiritsumo
bộ_kimono
majilia
makkuuchi
matryoshka
magitone
kikkoman
vô_thời_hạn
vô_liêm
tuyệt_biết_bao
bulbasaur
máy_bơm
solitaria
socrates
tai_địa_ngục
taiyōken
cá_chuồn
chabudai
hoạt_náo_viên
bánh_chà_là
kẻ_nghiệp_dư
sức_lao_động
##_hình_chữ_nhật
meuniere
mephisto
kawagoe
đỏ_tía
yojiya
hashtag
habanero
akihabara
cheetah
short
shueisha
shepherd
gathering
nissan
casting
vẫy_psyllium
shihonshugi
shigureman
danh_lam_thắng_cảnh
nhạc_keyboard
labrado
instant
inokashira
tsurezuregusa
napage
nature
national
shinnosuke
bản_concerto
chống_đối_xã_hội
khuyên_hữu_ích
no_tondeyuke
nobunaga
mô_típ
môn_yếu
animate
antares
truyền_cảm_hứng
cung_thiên_văn
trùng_meguro
walkman
ăn_focaccio
ăn_frisk
bàn_xoay
van_houten
moscow
mohahahahahaha
boomerang
kiriko_akizuki
mì_ăn_liền
dầu_salad
lưỡi_liềm
thần_ponkan
literary
tenkaichippin
amoniac
daijobu
benedict
gothic
jakarta
reagan
requiem
redemption
khử_caffein
genfuukei
joshinetsu
joyful
australia
aufguss
masagawa_ryokan
bất_khả_xâm_phạm
witness
oistrakh
heckler_koch
cận_nhiệt_đới
pnmegumegu
bernoulli
kèn_harmonica
konnyaku
shawshank
nanahoshiku
kyunkyun
oklahoma
chuokoronsha
company
yaobhikuni
scottish
paul_auster
exupéry
umapyoi
gae_bolg
george_orwell
charlie_brown
bwv244
kangaroo
swordsman
nurarihyon
--
02
01
04
09
010
028
011
075
215
297
330
42
430
420
445
426
438
412
53
57
55
530
63
68
62
61
625
640
627
675
73
78
74
79
715
733
85
89
86
830
820
828
838
837
93
98
99
900
938
918
_o
_d
_ô
_in
_ao
_shi
_ka
_ki
_tsu
_âm
_ăn
_ảnh
_ru
_mi
_re
_do
_bu
_aha
_hh
_kama
_men
_go
_bo
_sh
_hiro
_fu
_eeee
_pa
_oo
_ahaha
_us
_mori
_taka
_pi
_vi
_pin
_per
_don
_ne
_uchi
_rai
_pon
_dung
_fukamachi
_phi
_pan
_không
_gahama
_goho
_ôm
_aomame
_kar
_pizza
_ununu
_chiba
_tengo
_geho
_kukukukukuku
_ninja
ag
ay
aj
ach
a_h
ahi
ata
aah
asu
aura
awa
aba
ada
aaaaaaaaa
ado
aroha
ale
all
akk
aco
apa
age
a_w
ava
an_ngh
a_a
aoi
asi
aaaaaaaaaaaaaaaaaaaaaaaaaaaaaaaaaaaaaaaaaaaaaaaaaaaaaaaaaaaaaaaaa
acha
ave
axo
a_thực_sự
arl
achu
ashira
angen
aston
an_bài
an_mi
agui
a_spa
asia
apri
aqua
akokohama
bt
bf
b3
by
b2
bẩ
bự
bỉ
b4
bam
bậy
bết
bện
bòn
bón
bâng
bail
bưởi
bei
buni
brin
bẫng
bree
brah
block
bye
bướu
break
ct
cr
cy
cv
cl
cữ
cẩ
cày
cọng
cya
cri
cầy
cần_
catsu
cana
cry
cle
css
cùm
cue
cca
cna
c2015
cẫng
cree
crac
cant
clip
cồn_c
ds
dk
dẻ
dế
dặ
dä
dong
dino
dom
dig
dốt
dục
dìm
dậm_ch
dro
der
dono
dần_l
dry
det
del
dyu
daih
domo
demon
dema
doman
drama
doma
dần_s
dần_lực
dream
eko
est
eno
elo
eyu
eight
eth
etu
eve
ekima
effee
elling
ellie
egg
essa
eyui
essai
euro
eigamura
eeeeeee
earl
eaaaaaaaaaaaaaaaaaaaaaaaaaaaaaaaaaaaaaaaaaaaaaaaaaaaaaaaaaaaaaaaaaaaaaaaaaaaaaaaaaaaaaaaaaaaaaaaaaaaaaaaaaaaaaaaa
ff
fy
fd
fai
fin
fung
fra
fle
fight
frase
fal
feet
fes
fps
free
frac
fune
flori
flow
gn
gả
gừ
guy
gama
gút
găm
gồng
gri
gaa
gua
gấm
guri
gro
gem
gli
gno
gori
gei
gna
glay
gahahaha
gps
grah
grrrrrrrrrrrrrrrrrrrrrrrrrrrrrrrr
ht
hù
hō
hác
húng
hước
hâu
hàn
hán
hốt
hừng
hạo
huyên
hĩnh
haaaa
hùa
háu
her
hão
hớp
haaaaaaaaaaaaaaaa
hển
hsh
hổng
haaaaaaaaaaaaaaaaaaaaaaaaaaaaaaaaaaaaaaaaaaaaaaaaaaaaaaaaaaaaaaaa
h15
hani
h10
h40
h27
haun
hyou
haaaaaaaaaaaaaaaaaaaaaaaaaaaaaaaaaaaaaaaaaaaaa
ie
ib
it
if
ir
ip
iw
iin
isaka
ishikawa
in_hình
ido
iga
ige
ikko
ica
iwan
izo
iaido
iron
illum
iphone
ikiri
itsukasa
ikkyu
jn
js
jay
jam
jig
jen
jame
jaa
jue
jus
jone
jinawa
jpg
jiga
jrap
jisho
kỵ
kiế
kay
k_b
kig
kachi
kami
kano
kềm
kina
kono
kaha
kanawa
keeee
koni
kni
kamu
lợ
lấ
luy
lác
lam
lama
láng
lậu
lừng
lăm
lợp
lame
liệm
luyên
lần_
lim
lấn
lứt
lee
lũa
lăn_qu
lềnh
luna
lằn
lổm
mx
mv
md
mặ
mủ
mỳ
mạn
mùng
mama
mòng
mọng
mạc
mya
mâm
mưng
muốt
muya
mướt
mênh
mmmmm
migi
mani
mne
mmmmmmmmmmmmmmmmm
muyo
mfufufufu
mĩm
maman
mân_m
maaaaaaaaaaaaaaaaaaaa
momomomo
nắ
nể
nõ
niên
nino
nom
nau
nạo
naa
nẹp
nản_
nbe
nina
nda
nagi
nịt
npo
nand
npa
niny
nue
nsho
numa
neon
nigiri
nunun
ntr
niga
nkkk
nnnnn
nununu
nuhuh
oẳ
oan
ose
oro
oomi
otani
osen
ode
onga
oze
oja
oằn
osho
ozawa
ojo
oomo
oper
ouma
omu
ojama
ochan
owari
ody
oinashi
obli
ochiai
oliver
opera
owaranai
pp
py
pv
pô
pong
pom
pui
paya
puu
pyo
ple
pfu
por
pff
pur
pfufu
pum
pris
pome
paaa
pyjama
plus
qp
quyến
qed
rệ
rá
ré
rắt
rống
rắm
răn
rền
rét
rảo
rim
rộp
rặn
sg
sf
sy
sế
sấ
sá
sê
sü
sần
sào
sta
sục
sya
sóc
smo
sám
saya
smi
sạm
săn_h
seri
sumi
sine
sma
sno
swi
sze
sssssssss
ssho
suno
scha
spla
scar
swe
sche
sema
sting
smom
sumiko
swanabi
ssssss
stair
tc
ty
td
tể
tâ
tỳ
tiều
tơi
tọng
tọc
tấu
tiệp
tồn
tomi
tẹt
taha
tởm
tộc
tân_nh
tân_c
tahaha
tẩm_chất
tcho
tdk
tbs
uo
uk
uv
uz
uw
uta
uen
utsu
uwa
uru
umi
uda
uuuuu
ukyo
uổng
ume
u_não
ufufu
usi
uuuuuuuuuuuuuuuuuuuuuuuuuuuuuuuuu
uomo
uten
umu
uryu
uuuuuuuuuuuuu
ugui
uhhu
uuuuuuuuuuu
vf
vù
vờ
vôi
vần
vức
vát
vạc
vắn
vừng
vánh
vít
vải_m
vãnh
vlad
vtube
vờn
wo
wc
wang
wah
won
wara
wha
waaaaaaaaaaaaaaaaaaaaaaaaaaaaaaaa
wren
wood
www
wrong
wed
waaaaa
whyd
waaaaaaaaaaaaaaaaaaaaaaaaaaaaaaaaaaaaaaaaaaaaaaaaaaaaaaaa
xx
xạ
xy
xê
xược
xốt
xát
xạc
xăm
xướng
xiếc
xẹo
xẹt
xíu
xịn
xỉa
ye
yō
yame
y_như
yaa
yano
yaaaaaaaa
yand
y_khoa
y_hệt
yahaha
yaaaaaaaaaaaaaaaaaaaaaaaaaaaaaaaaaaaaaaaaaaaaaaaaaaaaaaaaaaaaaaaa
yuyu
y_chuyên
yiba
zä
zui
zoi
zum
zetsu
ào_
ách
á_quân
áaaaaa
âm_ch
ôn_đ
ôn_nh
ôiiii
ô_danh
ôn_luyện
ô_trơn
ô_ướt
ôtô
ô_nhật_bản
ô_vinyl
ô_gãy
ôiiiiiiiiiiiiiiiiiiiiiiiiiiiiiiiiiiiiiiiiiiiiiiiiiiiiiiiiiiiiiiiiiiiiiiiiiiiiiiiiiiiiiiiiiiiiiiiiiiiiiiiiiiiiiiiiiiiiiiiiiiiiiiiiiiiiiiiiiiiiiiiiiiiiiiiiiiiiiiiiiiiiiiiiiiiiiiiiiiiiiiiiiiiiiiiiiiiiiiiiiiiiiiiiiiiiiiiiiiiiiiiiiiiiiiiiiiiiiiiiiiiiiiiiiiiiiiiiiiiiiiiiiiiiiiiiiiiiiiiiiiiiiiiiiiiiiiiiiiiiiiiiiiiiiiiiiiiiiiiiiiiiiiiiiiiiiiiiiiiiiiiiiiiiiiiiiiiiiiiiiiiiiiiiiiiiiiiiiiiiiiiiiiiiiiiiiiiiiiiiiiiiiiiiiiiiiiiiiiiiiiiiiiiiiiiiiiiiiiiiiiiiiiiiiiiiiiiiiiiiiiiiiiiiiiiiiiiiiiiiiiiiiiiiiiiiiiiiiiiiiiiiiiiiiiii
ùn
ù_tai
úa
ý_n
ý_đẹp
ý_hỏi
ý_phạm
ý_đáp
ý_cười
ý_ngầm
ăn_hình
ăn_lý
ăn_bã
ăn_diện
ăn_k
ăn_học
ăn_loại
ăn_hơi
ăn_xếp
ăn_quả
đĩ
đuối
đốc
đậm_ch
đạm
đuốc
ơn_đổi
ơn_cố
ơn_chúa
ưỡ
ưng
ấn_nhẹ
ẩn_đ
ẩn_h
ẩn_b
ẩm_ch
ẩn_giả
ỉa
ồn_c
ồn_s
ồn_ch
ồn_nh
ồn_động
ồ_cái
ồn_biến
ồ_chào
ồn_đặc
ồn_ho
ổ_kiến
ổ_điện
ổ_f
ớn
ờm
ở_không
ừmmmm
##ea
##eka
##era
##egi
##eatsu
##eli
##eha
##eji
##ell
##est
##ega
##efu
##eyu
##ece
##elissa
##e_ma
##e_dạng
##ekhov
##efun
##eles
##esti
##ehehe
##elium
##eros
##_à
##_δ
##_ama
##_êm
##_ấp
##_im
##_ii
##_ăn_h
##_usa
##_ủng
##_ail
##_ưu
##_ủi
##_ín
##_el
##_ửng
##_is
##_ếch
##_ar
##_jean
##_jin
##_edo
##_zen
##_okada
##bb
##bữa
##bung
##bri
##bame
##baa
##batsu
##bro
##bow
##bis
##blad
##bbi
##b_xóa
##bby
##bbon
##brand
##buyu
##bonic
##blanc
##bigato
##ồn_l
##ồn_th
##ồn_ch
##ns
##nè
##nch
##nay
##nan
##nỗi
##nro
##nana
##nsto
##nde
##num
##nard
##nline
##a_l
##aai
##asu
##ase
##asa
##asamura
##ato
##abe
##ali
##ass
##aga
##ater
##allow
##an_bó
##ade
##ats
##aca
##apolitan
##ation
##ashino
##ather
##aks
##agal
##gs
##gy
##gai
##gin
##gino
##gun
##guri
##gano
##gyu
##gue
##gfi
##gner
##gamin
##gwood
##gins
##gging
##gundy
##if
##ita
##ion
##isa
##ike
##iềm
##isaki
##ier
##ius
##iler
##ids
##idoro
##ikachu
##s_b
##sino
##ssu
##sim
##s_hơi
##sman
##swana
##snagi
##spe
##s_web
##spi
##sni
##sby
##skes
##suyu
##swell
##s_bon
##saur
##squa
##slot
##hin
##hung
##haya
##hina
##hyu
##hand
##hahaha
##hren
##hongo
##ần_h
##ần_b
##tó
##tung
##tya
##taya
##tomi
##tana
##tman
##tet
##tis
##trin
##twalk
##tema
##tress
##t_tsu
##toman
##tshugi
##teor
##ft
##fk
##fka
##fen
##fre
##ffu
##foo
##fca
##35
##39
##300
##311
##346
##81
##87
##85
##811
##827
##82013
##839
##ruy
##rơi
##rút
##rchi
##rêm
##rri
##rbe
##rre
##rono
##rla
##rry
##rst
##rton
##rme
##rent
##rpi
##rby
##ranger
##rineko
##rbung
##oh
##on_
##oku
##o_y
##oba
##oải_mái
##ola
##ouka
##ost
##oxi
##ogh
##oder
##oper
##other
##oshin
##obara
##o_mo
##osis
##odori
##ocaccio
##o_go
##oincar
##opho
##obushi
##ăn_x
##ăn_bản
##ăn_nuôi
##pl
##pah
##pun
##pachi
##paa
##paya
##pbe
##pre
##pet
##pine
##ppe
##psey
##peman
##pette
##ptera
##plock
##pbox
##pfen
##ug
##uột
##uân
##usu
##u_qu
##use
##usei
##uke
##uer
##uli
##uha
##ula
##ugo
##uco
##upo
##ude
##uth
##uff
##u_truyện
##ujin
##udan
##ucha
##ukai
##udes
##uju
##usel
##ubert
##ururu
##ucation
##xin
##xắn
##xếp
##xand
##xteen
##cố
##c_c
##cin
##cra
##cạp
##cii
##cel
##clo
##cyu
##c_sa
##cram
##cchin
##cron
##cket
##cely
##cimon
##cyou
##cret
##cbonic
##ạn_l
##ạm_ch
##ạ_dày
##ạn_văn
##ml
##mw
##may
##mao
##mama
##manh
##mua
##mamura
##matsu
##máu
##mail
##mini
##m_đố
##m_xu
##mima
##mbert
##manov
##ản_hình
##ản_đồ
##ản_mạch
##yph
##yon
##yun
##yman
##yono
##ysen
##y_não
##yamama
##yanagi
##yamo
##yamoto
##yrie
##yblad
##kinh
##kính
##kman
##kre
##kono
##kone
##ksha
##kly
##kkei
##kzheim
##kamoto
##vang
##viên
##vua
##vet
##vẹn
##vuông
##vsk
##vent
##vsky
##vane
##vola
##ận_chiến
##ận_sự
##ãn_em
##jō
##jong
##jhi
##jao
##jig
##jra
##jaa
##juri
##jyo
##jeri
##jini
##jersey
##ệ_sĩ
##quýt
##qlo
##d_m
##dama
##dig
##dun
##dura
##dịch
##dụng
##dua
##duri
##dro
##dman
##d_p
##dlo
##dge
##dur
##dder
##dden
##dney
##dberg
##dhisa
##ýp
##ến_
##ế_độ
##ẹm
##án_hình
##án_ích_kỷ
##ln
##lau
##lem
##lman
##let
##llis
##light
##lsen
##lde
##lue
##lfi
##lkai
##lker
##lemon
##lson
##lfo
##lsim
##lpun
##ử_nhân
##238
##237
##22013
##2311
##ặn_gió
##ơ_bộ
##ơn_giả
##zin
##zui
##zuri
##zeri
##zor
##zenji
##zeno
##zaaaaaaaaaaaaaaaaaaaaaaaaaaaaaaaaaaaaaaaaaaaaaaaa
##zil
##ân_l
##ân_hồi
##ân_liệu
##ịm
##ền_mặt
##ề_mặt
##ée
##éde
##ộn_xộn
##ò_chơi
##ô_dụng
##ôn_nhân
##ôn_từ
##íp
##ẫn_cảm
##ẩn_áp
##ìn_lẻ
##è_qu
##èn_l
##ỳ_lạ
##05
##015
##13
##19
##746
##72014
##wao
##wun
##wel
##wkin
##wski
##55
##584
##52015
##589
##521
##ỡn_hôn
##ũ_cốc
##ừm
##42
##49
##4_yên
##428
##42014
##90
##66
##620
##6839
##6746
##çons
##ōyo
##ūra
##ûlé
##šjan
##ng_ng
##ngle
##ngus
##ngual
##nhật
##nhân
##nháp
##nher
##nhiki
khống
khui
khấn
khệnh
khẩn_th
##_tớ
##_tạ
##_ty
##_tể
##_tàng
##_tặc
##_tương
##_tịnh
##_tăn
##_tạt
##_tằm
##_tem
##_tẩu
##_tar
##_tím
##_tahara
##_tiger
##_tàng_hình
##_tồn_th
nhủ
nhè
nhỡ
nhen
nhón
nhám
nhỉnh
nhọt
nhộn
nhoi
nhuyễn
nhũn
nhoooooooo
nhíp
tôi_định
tôi_hơi
tôi_ích
tôi_ước
tôi_lẽ_ra
thược
thầu
thúng
thâu
thẫn
thạc
thét
thảnh
thãi
thôn
thana
thân_b
thụt
thân_c
thõng
thằn
thân_cận
thân_ph
there
thcs
chù
chõ
chông
cham
chiện
chát
chạc
chánh
chấn
chồm
chân_c
chlo
chuyệ
chườm
chrom
chỏm
chinashi
chặn_gió
ngỗ
ngông
ngong
ngậy
ngút
ngạnh
ngán
ngừa
ngáy
ngốn
ngỗng
ngưu
ngga
ngân_nh
ngân_c
ngổm
trội
trệt
tragi
tree
trần_l
trụi
trườn
trĩu
trum
trpg
không_kh
không_ngại
không_kích
và_niệm
và_ích_kỷ
##_thệ
##_thê
##_thay
##_thiệ
##_thững
##_thùng
##_thơi
##_thính
##_tháo
##_thảy
##_thâm
##_thui
##_thuyên
##_thần_
##_thẩn
##_thìa
##_thỏa
##_thỏm
##_thần_b
có_sĩ
có_mang
làn_d
là_ngươi
##cht
##chí
##chom
##chen
##cher
##chet
##chel
##chor
##chigi
##chard
##chlori
##change
##chain
##chigo
##chūra
một_tr
một_trí
một_cốc
một_đôi
đóa
đó_ngươi
đón_tiếp
như_n
như_lẽ
như_định
như_lực
như_liệu
như_chúa
như_tạc
##n_e
##n_ô
##n_ôi
##n_in
##n_en
##n_áo
##n_éo
##n_ấm
##n_kawa
##n_ro
##n_yo
##n_ẩn
##n_ar
##n_wan
##n_ok
##n_ud
##n_aomame
##n_chiba
##n_aca
##n_odori
##n_pet
##n_jersey
##n_zui
đi_vẻ
đi_ý
đi_độ
đi_trí
đi_lòng
đi_vị
đi_tình
đi_hỏi
đi_làm
đi_đứng
đi_nghĩ_lại
đi_phẩm_giá
đi_ý_muốn
php
phệ
phì
phúng
phung
phính
phiệt
phượt
phẩy
phễu
phàm
phant
phận_sự
##_lò
##_lôi
##_lây
##_lối
##_lết
##_lơi
##_lặc
##_luộc
##_lính
##_lừng
##_lìm
##_lắp
##_lầy
##_luyến
##_lứt
##_lẫm
##_lẩu
##_lướt
##_lòi
##_lươn
##_luồn
##_lòe
##_lịm
của_thể
##iến_dạng
##_đe
##_đang
##_đến
##_đắt
##_đồi
##_đực
##_đúc
##_đòn
##_đàn
##_đung
##_đán
##_đánh
##_đản
##_đóng
##_đám
##_đam_mê
##_đấng
##ayi
##ayao
##ayon
##_va
##_vù
##_vỏ
##_vùng
##_vân
##_vát
##_vạc
##_váo
##_vảy
##_vẩy
##_ver
##_viền
##_vùi
##_vườn
##_val
##_vòm
##_vóc_dáng
##_vận_động
##_vểnh
##_vans
##uyama
##iện_ng
##iện_diện
gig
giũ
gita
giàn
gián
giku
giro
giậm
gila
giga
gigo
gisho
gisha
girin
gidayu
givenchy
giỡn_hôn
##ượi
##_hư
##_hả
##_hố
##_hú
##_hỗ
##_hang
##_han
##_hước
##_hực
##_hán
##_hạc
##_hắn
##_hiến
##_hăng
##_hạt
##_húp
##_hưng
##_haya
##_huyền
##_hãn
##_hime
##_hếch
##_har
##_hei
##_hiển_v
##_hsc
##_heck
##_hell
##_hiện_diện
bạn_thức
bạn_tra
bạn_tích
bạn_trừ
nói_thế
nói_nói
nói_trừ
nói_mãi
nói_chế
nói_hệt
nói_chúa
nói_câu
nói_hoài
##_che
##_chè
##_chày
##_chao
##_chán
##_chậu
##_chạc
##_chảo
##_cháy
##_chuyể
##_chói
##_chãi
##_chợt
##_chậm
##_chìa
##_chiền
##_chigusa
##_chóp
##_chàm
##_char
##_chụm
##_cheshi
##_chăn_nuôi
##ất_thường
saan
saka
saen
sasu
sase
san_h
saru
san_gi
sabe
san_d
san_kh
san_hình
san_động
sahara
sabu
sadeo
san_ghét
sabasa
sapp
sacchi
samura
san_ý
sa_màu
sart
san_cố
san_niệm
sapon
salon
sawara
san_kém
sappo
sangoku
san_đáp
san_chúc
san_ổn
saburo
sacchan
satsuma
san_chơi
sakamoto
sa_lầy
người_tử
người_máy
người_phát
người_quản_trị
##ình_như
##_nhk
##_nhọ
##_nhổ
##_nhè
##_nhông
##_nhại
##_nham
##_nhúng
##_nhai
##_nhặt
##_nhầm
##_nhượng
##_nhầy
##_nhấc
##_nhân_b
##_nhíu
##_nhũng
##_nhuệ
##_nhân_đ
##_nhân_cách
##_nhờn
##_gù
##_gõ
##_gần
##_gan
##_giết
##_gánh
##_gui
##_gầy
##_gọt
##_gửi
##_gre
##_gợn
##_gomo
##_geta
##_guts
##_grant
ấy_định
ấy_niệm
ấycô
##_sá
##_sộ
##_s1
##_sên
##_sam
##_sin
##_sùng
##_sảng
##_sốc
##_sơn
##_sắp
##_sệt
##_sáp
##_saya
##_sếp
##_sùi
##_see
##_ste
##_sảng_khoái
##_spe
##_sengo
##_stalin
##_somen
##_sark
##_sns
##_scram
##_cf
##_cu
##_cd
##_các
##_cam
##_cấy
##_cào
##_cối
##_canh
##_cán
##_came
##_cúi
##_cầy
##_cúp
##_cưỡng
##_cre
##_củi
##_cẩu
##_cưỡi
##_của
##_cuội
##_cth
##_cườm
##_cùn
##_crô
##_cool
##_cẩn_áp
được_giá
##ong_cách
##ongefu
nghiệm
nghiệp
nghển
nghìn_lẻ
nghiện_ng
quăng
quản
quặn
quýt
quấn_
quân_m
quân_l
què_qu
điều_tục
điều_tưởng
điều_trường
điều_tiết
điều_hướng
điều_luật
điều_phá
điều_trần
điều_hiếm
điều_tengo
điều_buồn
điều_yomiuri
điều_totsuka
điều_miura
điều_kì
điều_aomame
điều_yasuda
điều_tế_nhị
điều_ogiue
điều_sốc
##ác_quan
##ác_phẩm
##ác_giả
##iên_nhẫn
##amig
##amina
##amono
##amma
##amu_y
##amushi
##ampus
##ammer
gì_tục
gìn_gi
gì_trừ
gì_chúa
cô_liệu
cô_sợ
cô_nở
cô_lách
côn_cầu
cô_narasaka
cô_xoay
cô_kozono
đang_ích
##_giơ
##_giai
##_gián
##_giàu
##_giản_dị
##_girl
##_giềng
##_giêsu
##_gidayu
##_givenchy
cả_tin
cả_cáo
##_dột
##_dang
##_dọc
##_den
##_dầm
##_dệt
##_dưng
##_dượt
##_duyên_dáng
##_du_hành
##_dunaway
rap
ra_lẽ
ran_r
rash
ra_dáng
ra_cốc
ra_ngươi
raja
rating
rail
raffle
rahen
raksha
rajaa
razor
ra_lò
##_mả
##_mỏ
##_mác
##_mận
##_mọi
##_máng
##_mòng
##_mọc
##_mút
##_mửa
##_móng
##_mui
##_mịch
##_mói
##_mảnh
##_món
##_muốt
##_musa
##_met
##_mồm
##_mịn
##_mus
##_mcc
##_mandai
##_mẫn_cảm
##_nô
##_nến
##_nần
##_nan
##_nực
##_ninh
##_nung
##_nen
##_nút
##_nỗi
##_nắm
##_nấp
##_núi
##_nằm
##_nano
##_nôn
##_nuốt
##_ném
##_nệm
##_nori
##_nyan
##_niz
##_nain
##_noir
vàora
vàođầu
phải_ngươi
##aig
##ainai
##aigan
##aiching
##_trà
##_trôi
##_trúng
##_tràng
##_trân
##_trục
##_trạc
##_trịch
##_trói
##_trèo
##_trombone
có_thể_tích
có_thể_chất
có_thể_ích_kỷ
có_thể_hiện_diện
##ácheck
##inun
##inte
##inma
##injo
##inlein
##hihi
##hita
##hitsu
##hire
##hibu
##high
##anc
##anke
##anet
##anel
##anno
##anxi
##anpa
##anti
##anca
##anran
yuino
yusa
yube
yuke
yuma
yuno
yuei
yushima
yuzawa
yugino
yuruy
này_trừ
này_ngươi
này_người
nàyuha
##_kama
##_kino
##_kame
##_kami
##_kara
##_kén
##_komo
##_kok
##_kỵ_binh
##_kane
##_kaigan
nhìn_ngươi
nhìn_cốc
##_bẻ
##_bế
##_bể
##_bến
##_bàng
##_bện
##_báng
##_bích
##_bốt
##_bọn
##_biếm
##_bưng
##_bấm
##_bồn
##_bẩy
##_buồng
##_bis
##_bar
##_bor
##_blog
##_beng
##_bản_đồ
##_bề_mặt
##_bất_thường
làm_vật
làm_điệu
làm_trừ
làm_tròn
làm_mạng
làm_lành
làm_thu
làm_tướng
làm_xao
làm_vườn
làm_giàu
cũ_chất
cũ_phủ
cũ_trộn
cũ_mòn
cũ_xộc
họ_thiện
##ái_vật
nghĩ_tục
nghĩ_ý
nghĩ_kỳ
nghĩ_liệu
nghĩ_cảnh
nghĩ_trăng
nghĩ_điệu
nghĩ_ngươi
nghĩ_lưỡi
##iết_thực
cũng_ích
chori
choba
chome
cho_rồi
cho_ngươi
chopin
choris
chochocho
chosino
chorono
##âu_dài
##ối_rối
##_ngớ
##_ngu
##_ngả
##_ngụ
##_ngự
##_ngõ
##_nguy
##_ngậy
##_ngái
##_ngao
##_ngàn
##_ngút
##_ngấm
##_ngậm
##_ngoạn
##_nguội
##ồi_tệ
##aotoshi
##aoppi
##ực_lòng
##ực_rỡ
chúng_hợp
chúng_đoán
chúng_trừ
chúng_ghét
chúng_lộn
chúng_vặn
hơn_không
từ_đầu
từ_tục
từ_pháp
từ_loại
từ_thiệ
từ_máng
##shii
##shisu
##shiya
##shiri
##shizu
##shire
##shitto
##shione
##shiken
##shikoshi
##shi_ki
##shichu
##shimei
##shimono
##shiburi
##shimeji
##shiaga
##shitshugi
saumi
sauro
sau_đại
sau_ngươi
mành
mà_viên
màn_k
màn_kịch
##ống_nhân_tạo
để_lại
cảm_quan
cảm_tử
chỉ_rối
chỉ_điểm
chỉ_lờ
chỉ_ước
chỉ_nheo
chỉ_trỏ
##amar
##amaru
##amawari
thì_liệu
thì_cốc
nên_lẽ
nên_liệu
nên_ngươi
thấyeeeeeeeeeeeeeeeeeeeeeeeeeeeeeeeeeeeeeeeeeeeeeeeeeeeeeeeeeeeeeeee
##inomoto
##inolta
tuyn
tuy_r
tuy_lực
tuy_yếu
vậy_điểm
vậy_lực
khác_trừ
##_rẻ
##_rông
##_riết
##_rao
##_reo
##_rét
##_rụng
##_rua
##_rèm
##_rumi
##_ryu
##_rei
##_red
##_rượi
##áng_thoáng
##inh_tinh
đầu3
đầu2
đầu1
đầu4
đầu_đời
đầu_p
đầu_vai
đầu_lâu
đầu_chế
đầu_cánh
đầu_nhẹ
đầu_răng
đầu_gáy
đầu_vú
đầu_lọc
đầu_aomame
đầu_gậy
đầu_cạo
đầu_quạt
đầu_giường
đầu_kyoka
đầu_vẹo
đầu_trí_tuệ
đầu_chim
##tas
##tata
##tatsu
##tawa
##tan_m
##tazu
##tabu
##tage
##tatto
##talog
##tazo
##tagaya
##taaaaaaaaaaaaaaaaaaaaaaaaaaaaaaaaaaaaaaaaaaaaaaaaaaaaaaaaaaaaaaaaaaaaaaaaaaaaaaaaaaaaaaaaaaaaaaaaaaaaaaaaaaaaaaaaa
tiếm
##phủ
##phin
##phòng
##phút
##phon
##phục
##phản_
##phạm
##phro
##phron
##pheles
how
hori
ho_chút
horo
hodo
host
hofu
ho_dịu
hoge
hoãn_c
horai
hound
howai
hoen_g
hofuu
hokuri
hossa
hogoho
hororo
holoc
hobby
hoisa
hoãn_em
biết_mấy
rằng_ngôn
không_thể_tra
không_thể_chất
lên_định
lên_đồng
lên_phẩm_giá
lên_ngôi
##kat
##kashi
##kako
##kan_c
##kasaka
##karu
##kaga
##kajiri
##kaze
##kasan
##karan
##kajan
##kaju
##kajima
##kapan
##kaetsu
##kaashi
##kabuyu
##kawao
##kan_zui
##iện_tử
yukinoshi
yukinon_th
yukino_bi
##omu
##omeo
##omatsu
##omba
##omes
##omag
##omaru
##eoo
##eoka
##igin
##igaya
##igis
##igane
##igata
hayah
hay_thức
hay_trí
hay_chúa
hay_ích_kỷ
##_khứ
##_khô
##_kheo
##_khen
##_khấu
##_khởi
##_khạng
##_khôn
##_khịt
##_khổng_lồ
##_pho
##_phô
##_phàng
##_phủi
##_phẩm_chất
##_phạm_ch
bị_bỏng
bị_gậy
##aux
##auchi
##aust
##aulie
thực_do
thực_như
thực_dụng
thực_là
thực_lực
thực_tập
thực_pháp
thực_áp
thực_khác
thực_nơi
thực_chiến
thực_chắc
thực_nếu
thực_quản
thực_cô
thực_theo
thực_hay
thực_tiễn
thực_ban_đầu
thực_phẩm_chất
##shitake
yukinoshita_học
yukinoshita_lạc
yukinoshita_ý
yukinoshita_ho
yukinoshita_y
yukinoshita_sắc
yukinoshita_đoán
yukinoshita_trùng
yukinoshita_nửa
yukinoshita_thuận
yukinoshita_giật
yukinoshita_cố
yukinoshita_dịu
yukinoshita_giục
yukinoshita_u
yukinoshita_lẽ_ra
yukinoshita_chìm
yukinoshita_yuigahama
yukinoshita_mắng
yukinoshita_thoáng
yukinoshita_cầm
yukinoshita_ngầm
yukinoshita_xắn
yukinoshita_cư_xử
yukinoshita_mặc
yukinoshita_vén
yukinoshita_hình_như
thế_trừ
thế_chiến
thế_mà
thế_nhỉ
santa
san_tự
san_thân
sanso
sansai
san_trợn
sankin
sanmon
sanrya
sannin
sanmeg
sannen
sanmai
santos
saneatsu
san_trèo
##ahhhhhhhhh
##ahhhhhhhhhhhhhhhhhhhhhhhhhhhhhhhhhhhhhhhhhhhhhhhhhhhhhhhhhhhhhhhhhhhhhhhhhhhhhhhhhhhhhhhhhhhhhhhhhhhhhhhhhhhhhhhhhhhhhhhhhhhhhhhhh
##ene
##ena
##ener
##ence
##ender
##enna
##enron
##ensis
##enigis
thời_phục
thời_minh
thời_hiệu
thời_khắc
thời_thơ
thời_victoria
thời_edo
thời_sengo
thời_rei
##_quyến
##ona
##onan
##onomiyaki
##onnery
##oncious
##onkori
chiến_m
chiến_c
chiến_sinh
chiến_tay
chiến_ba
chiến_mạo
chiến_sĩ
chiến_cận
chiến_không
##_nghêu
quan_vũ
câu_đối
câu_kết
hỏi_lẽ_ra
hỏi_kì
hỏi_thôi
hỏi_han
có_lẽ_chúa
##rae
##rat
##raza
##rare
##rado
##rael
##rash
##rade
##ratto
##raca
##ravi
##ration
##ratop
##ratin
##radiva
##rabbi
có_vẻ_hơi
yuigahama_học
yuigahama_thích
yuigahama_vọng
yuigahama_nhân
yuigahama_niệm
yuigahama_chỉnh
yuigahama_kết
yuigahama_yên
yuigahama_lao
yuigahama_lưỡng
yuigahama_ma
yuigahama_bối_rối
yuigahama_tát
yuigahama_hiếm
yuigahama_lùi
yuigahama_vẫy
yuigahama_ngắt
yuigahama_hạ
yuigahama_phồng
yuigahama_lén
yuigahama_xoa
yuigahama_nảy
yuigahama_tóm
yuigahama_cọ
yuigahama_quỳ
yuigahama_vỗ
yuigahama_vén
yuigahama_nhăn
yuigahama_nhắm_mắt
yuigahama_nhặt
nhà_tập
nhà_báo
nhà_chú
nhà_toán
nhà_thông
nhà_trẻ
nhà_trừ
nhà_ma
nhà_chiếu
nhà_yuigahama
nhà_yukinoshita
nhà_soạn
nhà_hayama
nhà_vă
nhà_sinh_vật
nhà_nhà
nhà_maaya
nhà_yukinon
nhà_chiế
nhà_tư_vấn
nhà_hảo
nhà_sinh_học
nhà_is
nhà_đam_mê
nhà_chăn_nuôi
nhà_du_hành
##sugi
##suto
##suba
##suga
##subi
##suppo
##sumom
##subuta
ngày_ngày
tự_tay
tự_mình
tự_dối
tự_trị
tự_mi
tự_thưởng
tự_họa
tự_thụ
tự_hủy
tự_hút
tự_quạt
tự_nhân_b
thật_lòng
thật_tươi
cậu_hợp
cậu_cư
##kio
##kian
##kishi
##kika
##kiki
##kito
##kiza
##kido
##kihara
##kimoto
##kibo
##ki_co
##kitama
##kiryu
##_quạ
##_quất
##_quật
tay_định
tay_thúc
tay_cáo
tay_chế
tay_liếc
tay_yuigahama
tay_ayase
tay_ba
mặt_định
mặt_tự
mặt_vị
mặt_cáo
mặt_trách
mặt_cạnh
mặt_cau
mặt_mũi
mặt_asamura
mặt_yukinoshita
mặt_trận
mặt_mộc
mặt_saki
mặt_izumi
mặt_kyoka
mặt_mamizu
mặt_rắc_rối
mặt_tamanawa
mặt_chigusa
mặt_ngái
cách_điệu
cách_chế
cách_hatsukano
đúng_nghĩa
đúng_trừ
haiz
hai_viên
hai_lực
##_đầu_vào
##n_đỏ
##n_đời
##n_đực
##n_đẹp
##n_đói
##n_đoàn
##n_đoạn
##n_đủi
##n_đàng_hoàng
##n_đơn_giả
##n_điện_tử
thứ_định
thứ_thích
thứ_tình
thứ_lẽ_ra
thứ_yuigahama
thứ_năm
thứ_totsuka
lúc_thức
bắt_mạch
bắt_bẻ
cười_nhạt
cười_nheo
cười_đáp
cười_ích_kỷ
cười_dâm
cười_khan
cười_nhỉ
##iến_tranh
như_vậy_thì
##_xong
##_xiên
##_xăng
##_xéo
##_xám
##_xén
##_xẩu
cảm_thoải_mái
nghe_ích
nghe_thể_loại
lớn_ngắt
tốt_nghĩ
tốt_chút
tốt_xét
lời_định
lời_tục
lời_văn
lời_ích_kỷ
hiểu_lực
giống_kỳ
giống_dáng
giống_thể_loại
giống_sếp
học_lại
học_đi
học_tính
học_tiết
học_tệ
học_càng
học_văn
học_thi
học_kỹ
học_buổi
học_chuyên
học_cơ_bản
học_piano
lorr
lover
lotte
lound
loryu
lockh
lon_hickey
loạn_l
loáng_thoáng
##set
##sex
##setsuka
##sear
##seus
##sect
##sefor
##sekoi
##tsuin
##tsuchi
##tsuku
##tsuke
##tsuba
##tsuji
##tsukyo
##tsume
##tsujin
##tsune
##tsumei
##tsuobushi
khó_lòng
khó_trách
khó_dễ
ngon_l
ngoãn
ngon_mắt
ngon_chút
ngon_ayase
ngon_sao
trở_mình
bằng_trí
bằng_bút
bằng_ngôn
##ấu_giá
toanh
totsu
tosa
to_bản
toke
todo
to_vật
to_sách
toho
toga
tote
to_nheo
tokoto
toge
tobi
tokko
tour
to_phần
to_bức
to_dày
to_trắng
to_ka
tokom
touchi
to_totsuka
to_béo
toson
tokiko
tokuto
totsuko
todd
to_town
toán_hình
tochigi
to_see
tatsu
ta_định
takano
tan_ch
tada
tale
takama
taco
taaaaaaaaaaaaaaaaaaaaaaaaaaaaaaaaa
tabi
targ
tart
tapu
talk
tawara
tan_ngươi
tadem
takkan
tarte
tataki
tan_sự
tapas
tarant
tasman
tatatto
##chie
##chichi
##chiko
##chimi
##chike
##chile
##chiso
##chibo
cố_đoán
cố_áp
cố_thủ
cố_biến
cố_đuổi
cố_ép
cố_cởi
cố_tóm
cố_cưỡng
##yata
##yake
##yale
##yard
bắt_đầu_niệm
bắt_đầu_tích
bắt_đầu_mối
phòng_nhạc
phòng_trừ
phòng_ốc
aic
aisa
aizu
ai_trách
ailen
aizuru
aikido
##n_hở
##n_hổ
##n_hộ
##n_họng
##n_huyết
##n_hẹp
##n_hộp
##n_hallow
mắt_ý
mắt_sắc
mắt_dõi
mắt_kính
mắt_kép
mắt_cầy
cuộc_chiế
##unen
##unon
##unni
##unes
##unds
##untdo
##unboku
sao_lòng
sao_ngươi
sao_mộc
bất_định
bất_bạo
bất_tự_nhiên
bất_hảo
bất_cẩn_áp
chắc_ý
chắc_vật
chắc_áp
chắc_khỏe
chắc_isshiki
quá_lẽ
quá_hợp
quá_tệ
quá_thực
quá_tải
quá_ích_kỷ
quán_cô
quá_mẫn_cảm
tại_ngũ
##n_ly
##n_lờ
##n_ló
##n_lề
##n_lẽ
##n_lông
##n_lược
##n_lường
##n_lần
##n_lâu
##n_lắc
##n_lon
##n_lầy
##n_lướt
##n_leg
##n_lộn_xộn
cần_trí
cần_tích
##n_bố
##n_bằng
##n_bơi
##n_bát
##n_biệt
##n_bảo
##n_biển
##n_bỏng
##n_bản_gốc
##n_book
##n_bất_cứ
##ầm_lặng
##_học_hỏi
tea
tei
team
tera
tesa
teto
test
tefa
tema
teme
terumi
tetro
tetch
tehei
tetsuya
tekuri
tengu
tetsuko
ten_vệ
tekken
teehehe
ten_yo
tetsujin
xe_trừ
xe_khách
xe_điện_tử
xe_dục_vọng
xe_bồn
cone
con_tho
conda
con_thú
##_động_thái
trường_thành
trường_thọ
trường_đua
trường_thiên
trường_tồn
##achio
##achiku
##achilles
##achichichi
tengo_học
tengo_tra
tengo_tự
tengo_vệ
tengo_ly
tengo_vặn
tengo_chợt
cơ_ho
cơ_tay
cơn_động
cơ_tạo
cơ_ngực
cơ_nhẹ
cơ_cổ
cơ_đùi
cơ_vận_động
cơ_xiên
công_dù
công_chứng
công_án
công_đức
công_mở
công_bao
công_kích
công_quay
công_đoàn
công_piano
công_ngu
cùng_ngươi
cùng_thể_loại
komina
kombu
komait
komeda
komaiching
nữa_trừ
chưa_động
tiếp_bóng
tiếp_mục
tiếp_đãi
hãy_niệm
ayaa
ayashi
aya_cau
ayazaki
dù_ngươi
dù_ích_kỷ
tất_định
tất_lại
tất_trái
tất_cao
tất_đen
tất_ngắn
tất_dày
tất_màu
tất_trắng
tất_trông
tất_ném
##rii
##rix
##ril
##rian
##rike
##riana
##rill
##rikyo
##rihe
##rico
##rime
##ride
##rius
##rihama
##rican
##rikuri
##ridium
##rissey
##rimatsu
cửa_vẻ
cửa_giác
cửa_vọng
cửa_ẩn
cửa_nối
cửa_lẽ_ra
cửa_hé
cửa_ren
cửa_container
cửa_ngõ
xuống_tóc
xuống_giống
thành_thân
thành_quả
thành_nhân
thành_bại
thành_đồng
thành_niên
thành_đội
thành_cọ
thành_kích_thước
kun_thức
kunzu
kun_thực_sự
khỏi_cốc
mặc_đồ
mặc_met
khoằm
gái_liệu
gái_kế
gái_ích_kỷ
quay_cảnh
quay_cốc
bao_ngọt
bao_la
bao_tv
bao_nhk
ayase_nở
ayase_saki
tiếng_mẹ
tiếng_pháp
tiếng_cạch
tiếng_gió
tiếng_chuông
bước_trang
bước_lẽ_ra
bước_lùi
bước_rưỡi
đâu_thích
đâu_đâu
đều_ích_kỷ
hi_vọng
hiềm
hida
hibu
hist
hikk
hideo
hitani
hiei
hisho
hitori
hitoshi
hirai
hi_hai
hitch
hiccu
hills
hikki
hitsuma
himitsu
hiu_qu
hidden
hikaru
chính_thường
chính_hiệu
chính_yếu
chính_mạng
chính_ngươi
chính_chi
chính_asamura
chính_zaimokuza
chính_yukinoshita
chính_ngôn
chính_tengo
chính_kawasaki
chính_hayama
chính_isshiki
chính_narasaka
chính_ebina
chính_sagami
chính_hiratsuka
chính_meguri
chính_len
chính_aya
chính_lethe
chính_ngôi
chính_yumiko
chính_tác_giả
chính_trục
##saa
##sagi
##saku
##saro
##sagami
##saba
##saso
##sabi
##sation
##sashimi
##sakami
##sakoi
##sarazu
##sakzheim
##_dog
##_dota
##_doria
##_douro
##_dowland
hơi_tục
hơi_trì
hơi_yếu
hơi_ngại
hơi_đáng
hơi_cau
hơi_tanh
hơi_ấm
hơi_ngã
hơi_ướt
hơi_tẻ
hơi_mệt
hơi_tê
tip
tin_m
tin_đồ
titani
tin_liệu
tin_e
##gis
##gimi
##giel
##giyama
##giống_nhân_tạo
cố_gắng_hôn
##m_chua
##m_chỉnh
##m_chớp
##m_chôm
thôi_hayato
baa
baki
baku
baga
ba_cốc
ba_khoa
ba_phần
ba_phút
ba_chiến_binh
batten
babel
ba_bốn
babigato
basqua
##_giác_ngộ
##_sinh_nhật
kết_giới
kết_tệ
kết_tinh
kết_vòng
kết_đôi
kết_thực_sự
hôn_t
hôn_r
hôn_v
hôn_nh
hôn_x
hôn_ho
hôn_bất_cứ
komachii
komachi_hơi
komachi_đẹp
komachi_tệ
komachi_hào
komachi_trừ
komachi_đuổi
komachi_phá
komachi_giữ
komachi_cau
komachi_gật
komachi_hít
komachi_phồng
komachi_chải
komachi_lén
komachi_pha
komachi_vận
komachi_vuốt
komachi_động_viên
komachi_quen_thuộc
##amese
##amegu
năm_viên
năm_bảy
thế_năng
vui_nhất
vui_thời
vui_thầm
vui_đáng
vui_u
vui_buồn
vui_thoáng
vui_sở_hữu
vui_lây
thích_vẻ
thích_sự
thích_việc
thích_học
thích_hội
thích_lòng
thích_chơi
thích_chú
thích_toán
thích_nhạc
thích_đùa
thích_bạn
thích_chế
thích_âm
thích_ngươi
thích_yukino
thích_tengo
thích_trêu
thích_miura
thích_chiba
thích_tobe
thích_đế
thích_thể_loại
thích_sai
thích_meguri
thích_ushikawa
thích_kayama
thích_bách
thích_anime
thích_thỏ
thích_ogiue
thích_bọn
đưa_ngươi
##tsukae
##tsukaku
đối_ăn
đối_chất
đối_ngoại
đối_nghịch
nhẹ_xếp
nhẹ_vai
nhẹ_tội
nhẹ_đáp
nhẹ_khẩu
nhẹ_môi
nhẹ_tựa
nhẹ_dạ
nhẹ_tác_dụng
nhẹ_hino
nhẹ_tinh_hoàn
nhẹ_lon
nghiễm
nghi_hoặc
aomori
aomidoro
aomame_sinh
aomame_thức
aomame_tự
aomame_lòng
aomame_đợi
aomame_liệu
aomame_thầm
aomame_áp
aomame_cố
aomame_ước
aomame_trải
aomame_khẽ
aomame_cau
aomame_co
aomame_leo
aomame_quàng
miami
mimo
miko
miuri
mimi
misaki
mido
miss
mick
milo
mikko
micha
midori
mitten
mikane
mituri
mizuyo
miyamoto
michel
mikimoto
michiko
senba
senda
senbo
senpa
sentai
sensi
senna
sencha
senbon
sendai
sensation
issei
isso
israel
đồng_tâm
đồng_giới
đồng_chí
đồng_điệu
đồng_yên
đồng_ruộng
đồng_kok
đồng_bế
bình_diện
bình_tỏa
bình_giữ
bình_quân
bình_lắc
bình_chứa
bình_sứ
bình_xăng
isshiki_thường
isshiki_hỏi
isshiki_bật
isshiki_đảo
isshiki_tiến
isshiki_lao
isshiki_nheo
isshiki_vặn
isshiki_sa
isshiki_khẽ
isshiki_hít
isshiki_chải
isshiki_thoáng
isshiki_xắn
isshiki_hé
isshiki_lướt
isshiki_chụm
mất_viên
mất_sức
mất_chức
mất_tình
mất_phí
mất_mạch
mất_cơn
mất_đà
mất_hoàng_tử
mất_trinh
##_hợp_tác
##_hợp_quốc
##_viên_chức
cảm_giác_ích_kỷ
cảm_giác_bỏng
tình_nghi
tình_giả
tình_sét
tình_cha
tình_thỏa
đôi_cánh
gha
ghề
ghì
ghìm
ghiếc
ghẹo
ghost
suy_đi
suy_xét
suy_diễn
suy_kỳ_lạ
suy_nhược
suy_đồi
trông_hợp
trông_đợi
trông_sắc
trông_chờ
trông_hốc
trông_tươi
trông_u
trông_xanh
trông_ngầu
trông_buồn
trông_yui
trông_hào_nhoáng
trông_năng_động
trông_giản_dị
trông_trạc
##wak
##wagi
##wako
##waaaaaaaaa
##watto
##warai
##washisu
ngồi_bệt
dễ_đoán
dễ_thở
đường_không
đường_cơ
đường_hướng
đường_quốc
đường_cái
đường_ích_kỷ
đường_xá
đường_vòng
đường_ướt
đường_xẻ
đường_lối
đường_sá
mới_phải
lớp_sinh
lớp_chế
lớp_lớp
lấy_ngươi
##n_tù
##n_tả
##n_tự
##n_tất
##n_tác_phẩm
##n_tồi_tệ
##ệt_quế
##n_mẹ
##n_má
##n_mỏ
##n_mài
##n_máng
##n_màn
##n_mượt
##n_mỉm
##n_meros
##n_minolta
nhanh_ly
nhanh_miếng
thở_nhẹ
thở_sưởi
thở_trắng
thở_phả
mở_to
mở_đường
mở_mà
mở_hộp
mở_túi
mở_chương
mở_sô
mở_gói
mở_màn
mở_mí
giờ_trừ
giờ_phút
quan_tòa
thông_dụng
thông_hành
thông_phát
thông_đen
thông_chạm
đáng_yêu
thường_hôn
thường_viện
thường_ẩn
thường_tích
thường_nheo
thường_rắc
thường_trực
thường_siêu
thường_trì_hoãn
vừa_tra
vừa_lòng
vừa_niệm
một_chút_lực
hayama_định
hayama_số
hayama_trùng
hayama_cứu
hayama_hỏi
hayama_bật
hayama_trừ
hayama_nén
hayama_đáp
hayama_vẫy
hayama_hít
hayama_hayama
hayama_á
giải_ức
giải_đơn
giải_bóng
giải_nén
giải_nghệ
giải_câu
giải_vô
giải_văn_học
giải_nhộng
giải_cấu_trúc
ema
empero
##_tâm_trí
##_tâm_linh
##_thế_nào
##aaay
##aazai
đứng_chắn
đứng_lớp
đứng_ngồi
kỳ_hạn
kỳ_thực
kỳ_công
kỳ_ảo
kỳ_nhông
nhỏ_biệt
nhỏ_hành
nhỏ_chăng
nhỏ_tuổi
nhỏ_vẫy
nhỏ_nghiêng
xem_mạng
xem_thể_loại
đặt_dục_vọng
yêu_vẻ
yêu_sự
yêu_sao
yêu_chút
yêu_kỳ
yêu_trường
yêu_mẹ
yêu_bố
yêu_tinh
yêu_não
yêu_dấu
yêu_đương
yêu_asamura
yêu_ta
yêu_touka
yêu_tengo
yêu_tokiwa
yêu_sanagi
yêu_hoàng_tử
yêu_saki
yêu_kosaka
yêu_mamizu
yêu_nhầm
##_ý_thức
##_ý_tưởng
ăn_trừ
ăn_thứ
chizu
chiro
chill
chim_
chikan
chirin
child
chichin
chikyu
chibai
chizuru
chikyuu
chivas
chiyono
chilem
chihigh
bỏ_tập
bỏ_tính
bỏ_tiết
bỏ_đạo
bỏ_đồ
bỏ_giáo
bỏ_mạng
bỏ_mối
bỏ_tín
bỏ_chấp
bỏ_buổi
bỏ_bể
đột_tử
đột_đánh
đoán_trò
bộ_định
bộ_trình
bộ_sách
bộ_lặp
bộ_chế
bộ_óc
bộ_trưởng
bộ_môn
bộ_mã
bộ_binh
bộ_dụng_cụ
bộ_bách
bộ_yukata
bộ_tứ
sách_định
sách_thường
sách_minh
sách_báo
sách_xếp
sách_trừ
sách_phẳng
sách_mã
sách_đỏ
quyết_đấu
chà_chúng
chà_chà
chà_sạch
trò_diễn
trò_đuổi
tròn_xếp
trò_nhại
suy_nghĩ_ích_kỷ
coe
con_n
con_gi
con_v
co_vai
coco
colo
cosho
cold
coron
con_ích_kỷ
columbus
cobb
cooper
countdo
bố_ruột
bố_thí
##_bộp
mù_tạt
##n_nở
##n_nam
##n_nực
##n_nài
##n_nửa
##n_nỗi
##n_nóng
##n_niềm
nhớ_số
nhớ_ngữ
nhớ_nguồn
sống_lại
sống_tích
sống_chết
##n_ngu
##n_ngầu
##n_ngửa
##n_ngẫm
##n_nguồn
##n_ngôn_từ
mazu
mado
maxi
ma_kết
ma_dọa
mask
matter
madan
mafi
maria
maker
matomo
makare
madaga
matthe
ma_tùy
maeka
majhi
malfo
matsukaku
cạnh_hiệu
cạnh_cốc
cạnh_ngươi
##amihara
##ami_bunko
##amishii
điện_tích
bao_giờ_hết
hành_hình
hành_văn
dis
dire
di_vật
di_chứng
disc
dicro
di_chuột
dioxi
diptera
di_lặc
##ân_phẩm
tương_hợp
tương_ra
tương_trợ
tương_vào
tương_tỏa
tương_da
tương_ngon
tương_wa
tương_hỗ
sáng_mắt
sáng_lòng
sáng_qua
sáng_dạ
sáng_chói
chủ_qua
chủ_hiệu
chủ_sở
chủ_đích
chủ_lao
chủ_tớ
chủ_nô
##samurakun
##kuse
##kuchi
##kusei
##kube
##kutan
##kujin
##kujo
##kuzo
##kubun
##kumushi
##kusama
##kushiku
##kuwabara
##kusukusu
thu_phục
thu_xếp
thu_nướng
thu_chi
thu_rực
trung_tá
trung_thảm
trung_âu
trung_xinh
trung_chuyên
trung_little
##_radi
phụt
phụ_gia
phụ_bản
phụ_trang
phụ_trợ
phụ_hệ
phụ_bối_rối
vấn
asamuras
asamura_học
asamura_sải
do_lực
dosei
dore
dosto
dofu
door
dokko
dosse
dotten
dowland
dorado
dosaso
dokumushi
##_lặng_lẽ
khá_viên
khá_ích_kỷ
chuka
churu
chu_trình
chuhai
chuzz
chuuta
chuồn_ch
churchi
##_rối_rắm
câu_lạc_đề
##ản_rút
bóng_sao
bóng_tệ
bóng_phạm
bóng_lưng
bóng_bay
bóng_đen
bóng_mờ
bóng_bàn
bóng_lăn
bóng_gương
bóng_né
bóng_nảy
bóng_bẩy
bởi_vậy
bởi_lực
viết_ngôn
nước_lặng
nước_nhật
nước_sốt
nước_chấm
nước_mặn
nước_đang
##mos
##mora
##more
##mort
##mosy
##mouto
##mo_koi
##mouth
##n_thức
##n_thổi
kiami
kimo
kiza
kiêng
kiềm
kitani
kiter
kilo
kikko
kiwi
kiễng
kids
kitaro
kibune
kiroku
kilau
kikiki
kisarazu
kikuzo
mẹ_định
mẹ_kế
mẹ_đẻ
phát_động
phát_bệnh
phát_sốt
phát_bóng
phát_ngô
phát_hoảng
phát_ngôn
phát_video
phát_đạt
phát_xít
phát_cáu
phát_chán
##toi
##tol
##toru
##toke
##tosaki
##tory
##toll
##tosh
##tooooo
##toshin
##tokuji
##toson
##topia
##torme
##toxin
liên_hồi
liên_ngành
liên_đoàn
liên_miên
liên_hợp_quốc
vô_sinh
vô_thường
vô_nhân
vô_minh
vô_tính
vô_sắc
vô_thần
vô_kể
vô_cực
vô_bổ
vô_biên
vô_kỷ_luật
vô_nhân_đ
vô_ý_thức
##_hokuto
##_hojicha
##_hormone
ngủn
trẻ_ích
immi
imperi
imato
imif
im_lìm
thay_đổi_mới
##_trọng_tâm
im_lặng_nhai
##_độp
cao_sự
cao_nghĩ
cao_trường
cao_sức
cao_đẹp
cao_xếp
cao_nối
cao_đáng
cao_cốc
cao_trải
cao_chiếu
cao_cổ
cao_lẽ_ra
cao_xa
cao_giọng
cao_cỡ
cao_khẩu
cao_ấm
cao_vang
cao_trông
cao_siêu
cao_trồng
cao_ốc
cao_chứa
cao_vút
cao_little
xa_thế
xa_vọng
xa_trường
xa_thiện
xa_chiếu
xa_asamura
xa_zaimokuza
xa_komachi
xa_miura
xa_chiba
xa_hatsukano
xa_tobe
xa_saki
xa_ushikawa
xa_quầy
xa_ngôn_ngữ
xa_trông_rộng
xa_gần
xa_ngút
xa_douro
tin_truyền_hình
số_trang
đánh_đuổi
đánh_lửa
đánh_nhẹ
đánh_zaimokuza
đánh_gậy
đánh_ebina
đánh_mông
đánh_sh
đánh_chặn
đánh_đấm
đánh_đòn
đánh_trúng
fuhi
furu
fudo
full
fuge
fuuuuuuuuuuuuuuuuu
futai
fuuuuuuuuuuuuuuuuuuuuuuuuuuuuuuuuu
furin
fugu
fufun
fuuh
fuuuuuuuuuuuuuuuuuuuuuuuuuuuuuuuuuuuuuuuuuuuuuuuuuuuuuuuuuuuuuuuuu
fukiko
futtsu
fugue
furby
futatsu
khuôn_sô
đặc_bao
đặc_bám
điện_thoại_viện
chết_não
chết_mòn
chết_trân
thế_giới_quan
hết_chuyện
hết_nước
hết_thảy
##atsuki
##atsukano
##atsunagi
##atsumode
##atsuhiko
đồ_lạnh
đồ_nướng
đồ_bạc
đồ_điện_tử
đồ_chua
đồ_thừa
đồ_tang
đồ_tắm
đồ_chiên
đồ_mượn
đồ_ướt
đồ_cay
đồ_cúng
đồ_đẳng_cấp
đồ_sộ
đồn_thổi
##kos
##koyo
##koda
##koji
##kocchi
##kocho
##kopedia
##kopon
##kocom
##kozuna
##kowski
loại_giác
loại_hành
senpai_thích
senpai_hơi
senpai_liếc
senpai_u
senpai_khẽ
senpai_cau
senpai_lách
senpai_hít
senpai_ổn
senpai_siêu
senpai_cư_xử
senpai_nhăn
senpai_quét
senpai_cúi
đừng_chế
##n_cay
##n_cược
##n_cái
##n_cuộc
##n_cân
##n_cốt
##n_cắn
##n_cánh
##n_cầm
##n_cơn
##n_củi
##n_connery
##n_sống
##n_sức
##n_sáng
##n_sàn
##n_sọc
##n_súp
##n_sha
##n_súa
##n_shu
##n_sờn
##n_strin
##n_speman
##n_stoll
phần_tử
phần_tướng
tuyệt_sao
tuyệt_chút
tuyệt_tác
tuyệt_rồi
tuyệt_nhỉ
##_tiếu
một_số_hiệu
chút_lực
chút_phẩm
chút_thù
chút_sạn
chút_ngại
chút_kì
##zap
##zac
##zaburo
bình_thường_ngươi
mua_cốc
lạnh_hành
lạnh_thổi
bầu_bạn
koe
koka
kobe
koda
kore
koha
kopa
kocchi
kojo
koichi
kokin
koten
kojiki
kokiko
kobold
kosui
kokkuri
kohina
kosugi
kotsuchi
koyake
kokubun
kozaburo
hình_thể
hình_học
hình_thanh
hình_miệng
hình_thang
hình_khắc
hình_trăng
hình_tai
hình_thu
hình_túi
hình_giọt
hình_xo
hình_ngũ
hình_miura
hình_ya
hình_siêu
hình_in
hình_khối
hình_or
hình_vòm
hình_cối
hình_móng
hình_kama
chơi_bộ
chơi_tệ
chơi_nhạc
chơi_đuổi
chơi_bời
bán_thân
bán_thú
##_lạy
khuôn_mặt_bằng
dậy_sớm
sửu
sử_điều
sử_thi
sử_senpai
sử_maaya
tuổi_thực
tuổi_thể_xác
mang_tiếng
mang_vật
mangetsu
xin_ngươi
xi_măng
ghế_vi
ghế_phẳng
ghế_phụ
ghế_xoay
ghế_rưỡi
ghế_mini
ghế_tẩu
##imal
hiradai
hirabayashi
hiratsumi
bản_thể
bản_tính
điển_strin
âm_tượng
âm_vị
âm_tính
âm_sắc
âm_vực
âm_báo
âm_đạo
âm_dương
âm_đại
âm_sin
sinh_yêu
sinh_tử
sinh_giảm
sinh_trưởng
sinh_thấp
sinh_tengo
sinh_tồn_th
tới_ngươi
tới_bến
hiratsuka_thúc
hiratsuka_nở
hiratsuka_nheo
hiratsukasen
hiratsuka_vặn
hiratsuka_ngậm
bài_tiết
bài_văn
bài_giảng
bài_tụng
##_khít
chẳng_hợp
sợ_chúa
nghĩa_tình
nghĩa_tệ
nghĩa_thú
nghĩa_chung
nghĩa_trò_chơi
sâu_điểm
sâu_vị
sâu_tóc
sâu_răng
sâu_lắng
kết_thúc_tiết
kết_thúc_trừ
gật_gù
tối_ẩn
tối_mở
tối_chiếu
tối_sớm
tối_chan
tối_lờ_mờ
tưởng_trò
tưởng_giáo
tưởng_ngươi
totsuka_thức
totsuka_hơi
totsuka_đáp
totsuka_kém
totsuka_lùi
totsuka_hạ
totsuka_mượn
totsuka_gạt
totsuka_tóm
##ayaki
giả_bộ
giả_thanh
giả_ác
giả_ốm
giản_đơn
giản_đơn_giả
buß
bukino
bubu
bull
buhe
bufu
buti
busan
buster
bushiro
bufuu
bukinon
burrr
burn
bump
burri
buhibu
bushitshugi
bukowski
xung_lực
xung_khắc
xuất_khẩu
xuất_video
tham_số
tham_công
tham_nổi
tham_mưu
tham_ô
tham_nhũng
tham_của
##sakashi
kiểm_lại
kiểm_kê
kiểm_dịch
kiểm_phiếu
kiểm_duyệt
kiểm_lâm
sắp_điểm
sắp_tức
sắp_tối
sắp_phạm
sắp_nở
sắp_tàn
sắp_sôi
sắp_tóm
sắp_giác_ngộ
##rut
##rubu
##rull
##rugaoka
nghiêm_mặt
nghiêm_minh
bất_cứ_điểm
máy_tra
máy_tập
máy_đi
máy_chủ
máy_đo
máy_cậu
máy_sản_
máy_hát
máy_đọng
máy_ngầu
máy_in
máy_chém
máy_xới
chân_tình
chân_tiến
chân_trụ
chân_tướng
chân_tường
mong_mỏi
mong_đấng
rõ_ràng_viên
hướng_lòng
nghỉ_tập
nghỉ_lâu
nghỉ_chân
nghỉ_mát
nghỉ_hưu
lâu_thế
lâu_bạn
lâu_cậu
##_tự_xưng
##_thân_thiết
soka
son_ch
sore
socchi
sotto
sovi
souma
soci
son_hòa
solan
so_khớp
sobun
son_nhẹ
sound
soju
sohon
socola
soul
sodomo
sorbe
soudan
sophron
son_đỏ
son_ló
phụ_nữ_sinh
tư_vậy
tư_số
tư_bỏ
tư_lợi
tư_tuổi
tư_sản_nh
tư_đắt
tư_hãn
##n_giã
##n_giăng
##n_gior
bàn_trộn
bàn_thắng
bàn_trống
zaimokuza_định
zaimokuza_ho
zaimokuza_chơi
zaimokuza_tệ
zaimokuza_bật
zaimokuza_giật
zaimokuza_tiến
zaimokuza_thua
zaimokuza_nuốt
zaimokuza_khịt
đầy_trí
đầy_phẩm
đầy_cốc
cửa_hàng_rào
##uriken
tập_tin
tập_nhạc
tập_diễn
tập_lệnh
tập_phim
tập_quán
tập_j
tập_trận
tập_yoga
tập_dượt
tập_kara
hinoko
hino_nheo
##anol
##mian
##mizu
##mies
##miral
tổ_quốc
tổ_ong
tổn_chút
dài_chăng
dài_lâu
dài_bọc
dài_váy
biến_tình
biến_tác_phẩm
biến_tấu
lời_nói_ích_kỷ
lời_nói_suông
kaba
kaji
kaso
kakk
kago
kakko
katto
kazuki
katai
katen
kakku
kagen
kabaya
kawai
katy
kagoho
kazuyo
kaswana
kataya
kafka
kacchin
kasuga
túi_khí
túi_tiêu
túi_mềm
túi_thể_dục
tiền_thân
áo_định
áo_y
áo_lộ
áo_thẳng
áo_ấm
áo_trơn
áo_thể_dục
tháng_ngày
tháng_tám
chuẩn_x
chuẩn_hóa
nhẹ_nhàng_chỉnh
trung_học_nghĩ
trung_học_thường
trung_học_lại
trung_học_nào
trung_học_sống
trung_học_chọn
trung_học_yêu
trung_học_thực
trung_học_công
trung_học_trẻ
trung_học_đội
trung_học_hiếm
trung_học_hút
trung_học_trực
trung_học_sớm
trung_học_dễ
trung_học_kỳ_lạ
trung_học_toàn
trung_học_tokyo
trung_học_nhật_bản
trung_học_chẳng
trung_học_hào_nhoáng
trung_học_lẻn
trung_học_sôi_nổi
trung_học_năng_động
trung_học_hình_như
trung_học_trưởng_thành
trung_học_ôm
trung_học_ii
trung_học_giết
trung_học_rumi
##_tĩnh_lặng
cổ_kho
cổ_ca
cổ_chúa
cổ_đáp
cổ_trần
cổ_phần
cổ_ngắn
cổ_bạc
cổ_dày
cổ_yuigahama
cổ_quái
cổ_yukinoshita
cổ_kamakura
cổ_thon
cổ_đan
cổ_nhật_bản
cổ_ushikawa
cổ_kích_thích
cổ_kosaka
cổ_chim
cổ_sana
cổ_tar
cổ_komo
đau_chuyể
##_cầu_ý_tưởng
tai_dài
tai_tiếng
tai_to
tai_bạn
tai_tạp
tai_trái
tai_phủ
tai_nướng
tai_phát
tai_đen
tailing
tai_quỷ
tai_cong
tai_zaimokuza
tai_ayase
tai_komachi
tai_nhọn
tai_aomame
tai_sanagi
tai_sagami
tai_ngựa
tai_chuột
tai_yukinon
tai_nhô
tai_nhuộm
tai_ngọc
tai_himeno
tai_tamanawa
tai_thính
tai_vểnh
##_thương_hại
liệu_kỳ
liệu_lực
liệu_lòng
liệu_ngươi
liệu_ham
mạnh_bộ
##zuka
##zuzu
##zume
##zutai
##iichi
##iimo
chạy_trừ
chạy_êm
thể_thức
thể_đoán
saise
sai_ý
saikou
sai_tùy
saizeri
vai_sát
vai_hoàng_tử
vai_suông
vai_gánh
##_tưởng_tượng
##_lý_lẽ
##_lý_trí
##_lý_tưởng
##_lý_luận
##_gia_tăng
yêu_cầu_ích_kỷ
khách_tục
kháchphòng
giáo_hội
giáo_pháp
giáo_sĩ
giáo_đâm
giáo_rao
dành_tiết
##sei_thời
vui_vẻ_nheo
mỗi_viên
ít_việc
ít_lâu
ít_tuyết
cứt
##bes
##beka
##betsuka
##be_ho
##bekawa
##bero
##bellum
##betchi
dùng_trí
dùng_ngôn
##_phục_hồi
quan_hóa
##_yoka
##_yanke
##_yonkori
sensei_chơi
sensei_liếc
sensei_gật
sensei_ấn
sensei_mượn
sensei_xắn
sensei_kudo
gian_d
gia_yêu
gia_công
gia_đáng
gia_lành
gia_nghiêm
gia_xóa
gia_yukinoshita
gia_mười
##_cảm_nhận
##_cảm_xúc
##kel
##kengo
##_thanh_âm
cầu_phúc
dự_cảm
dự_toán
dự_trù
##aaaaan
##aaaaaa
[...]
