[PAD]
[UNK]
[CLS]
[SEP]
[MASK]
!
0
1
2
3
4
5
6
7
8
9
?
a
b
c
d
e
f
g
h
i
j
k
l
m
n
o
p
q
r
s
t
u
v
w
x
y
z
ß
ä
ü
α
δ
ι
、
。
々
〆
〇
「
」
『
』
ぁ
あ
ぃ
い
ぅ
う
ぇ
え
ぉ
お
か
が
き
ぎ
く
ぐ
け
げ
こ
ご
さ
ざ
し
じ
す
ず
せ
ぜ
そ
ぞ
た
だ
ち
ぢ
っ
つ
づ
て
で
と
ど
な
に
ぬ
ね
の
は
ば
ぱ
ひ
び
ぴ
ふ
ぶ
ぷ
へ
べ
ぺ
ほ
ぼ
ぽ
ま
み
む
め
も
ゃ
や
ゅ
ゆ
ょ
よ
ら
り
る
れ
ろ
ゎ
わ
ゐ
ゑ
を
ん
ゞ
ァ
ア
ィ
イ
ゥ
ウ
ェ
エ
ォ
オ
カ
ガ
キ
ギ
ク
グ
ケ
ゲ
コ
ゴ
サ
ザ
シ
ジ
ス
ズ
セ
ゼ
ソ
ゾ
タ
ダ
チ
ヂ
ッ
ツ
テ
デ
ト
ド
ナ
ニ
ヌ
ネ
ノ
ハ
バ
パ
ヒ
ビ
ピ
フ
ブ
プ
ヘ
ベ
ペ
ホ
ボ
ポ
マ
ミ
ム
メ
モ
ャ
ヤ
ュ
ユ
ョ
ヨ
ラ
リ
ル
レ
ロ
ワ
ン
ヴ
ヵ
ヶ
ー
一
丁
七
万
丈
三
上
下
不
与
丑
且
世
丘
丞
両
並
中
串
丸
丹
主
丼
乃
久
之
乏
乖
乗
乘
乙
九
乞
也
乱
乳
乾
亀
了
予
争
事
二
云
互
五
井
亘
些
亜
亡
交
亨
享
京
亭
亮
人
仁
仄
仇
今
介
仏
仔
仕
他
付
仙
代
令
以
仮
仰
仲
件
任
企
伊
伍
伎
伏
伐
休
会
伝
伯
伴
伸
伺
似
伽
佃
佇
位
低
住
佐
体
何
余
作
佳
併
佻
使
例
侍
侘
供
依
侠
価
侭
侮
侯
侵
侶
便
係
促
俄
俊
俗
保
俟
信
俣
修
俯
俳
俵
俸
俺
倉
個
倍
倒
倖
候
借
倣
値
倦
倫
倭
倶
偉
偏
做
停
健
偲
側
偵
偶
偽
傀
傅
傍
傑
傘
備
催
傭
傲
債
傷
傾
僅
働
像
僕
僚
僥
僧
僭
僻
儀
億
儘
儚
償
儡
優
儲
元
兄
充
兆
先
光
克
免
兎
児
党
入
全
八
公
六
共
兵
具
典
兼
内
円
冊
再
冑
冒
冗
写
冠
冤
冥
冬
冴
冷
凄
准
凌
凍
凛
凜
凝
几
凡
処
凧
凪
凰
凶
凸
凹
出
函
刀
刃
分
切
刈
刊
刑
列
初
判
別
利
刮
到
刳
制
刷
券
刹
刺
刻
剃
則
削
剌
前
剖
剛
剝
剣
剤
剥
剪
副
剰
割
創
劇
劉
力
功
加
劣
助
努
劫
励
労
効
劾
勃
勇
勉
勒
動
勘
務
勝
募
勢
勤
勧
勲
勾
勿
匂
包
匍
匐
化
北
匙
匠
匹
区
医
匿
十
千
升
午
半
卑
卒
卓
協
南
単
博
卜
占
卦
印
危
即
却
卵
卸
卿
厄
厚
原
厨
厭
厳
去
参
參
又
叉
及
友
双
反
収
叔
取
受
叙
叛
叡
叢
口
古
句
叩
只
叫
召
可
台
叱
史
右
叶
号
司
各
合
吉
吊
同
名
吏
吐
向
君
吝
吞
吟
吠
否
含
吸
吹
吻
吾
呂
呆
呈
呉
告
呑
呟
周
呪
味
呵
呷
呻
呼
命
咀
咄
咆
和
咎
咤
咥
咬
咲
咳
咽
哀
品
哄
哉
員
哨
哭
哮
哲
哺
唄
唆
唇
唐
唖
唯
唱
唸
唾
啄
商
問
啓
啖
啜
啞
啼
喀
善
喉
喋
喘
喚
喜
喝
喧
喩
喪
喫
喰
営
嗄
嗅
嗇
嗚
嗜
嗟
嗤
嘆
嘔
嘗
嘘
嘩
嘯
嘱
嘲
嘴
嘶
噂
噌
噎
噓
噛
噤
器
噪
噴
噺
嚇
嚙
嚢
嚥
嚼
囀
囁
囂
囃
囊
囓
囚
四
回
因
団
囮
困
囲
図
固
国
圃
國
圏
園
土
圧
在
圭
地
坂
均
坊
坐
坑
坦
坩
垂
型
垢
垣
埃
埋
城
埒
域
埠
執
培
基
埼
堀
堂
堅
堆
堕
堝
堤
堪
堰
報
場
堵
塀
塁
塊
塔
塗
塚
塞
塡
塩
填
塵
塹
塾
境
墓
増
墜
墟
墨
墳
壁
壇
壊
壌
壕
士
壮
声
売
壷
壺
変
夏
夕
外
多
夜
夢
大
天
太
夫
央
失
奇
奈
奉
奏
契
奔
套
奢
奥
奨
奪
奮
女
奴
好
如
妃
妄
妊
妖
妙
妥
妨
妬
妹
妻
妾
姉
始
姐
姑
姓
委
姜
姦
姪
姫
姻
姿
威
娘
娠
娯
娼
婆
婉
婚
婦
婿
媒
媚
媛
嫁
嫉
嫋
嫌
嫣
嬉
嬌
嬢
子
孔
孕
字
存
孝
孟
季
孤
学
孫
孵
宅
宇
守
安
完
宗
官
宙
定
宛
宜
宝
実
客
宣
室
宥
宮
宰
害
宴
宵
家
容
宿
寂
寄
寅
密
富
寒
寓
寛
寝
寞
察
寡
寥
寧
審
寮
寵
寸
寺
対
寿
封
専
射
将
尊
尋
導
小
少
尖
尚
就
尺
尻
尼
尽
尾
尿
局
屁
居
屈
届
屋
屍
屑
屓
展
属
屠
層
履
屯
山
岐
岡
岩
岬
岳
岸
峙
峠
峡
峨
峰
島
崇
崎
崖
崩
嵌
嵐
嵩
嵯
嶺
嶽
川
州
巡
巣
工
左
巧
巨
巫
差
己
巴
巷
巻
巾
市
布
帆
希
帖
帝
帥
師
席
帯
帰
帳
帷
常
帽
幀
幅
幌
幕
幟
幡
幣
干
平
年
幸
幹
幻
幼
幽
幾
庁
広
庄
庇
床
序
底
庖
店
府
度
座
庫
庭
庵
庶
康
庸
廃
廉
廊
延
廷
建
廻
弁
弄
弊
式
弓
引
弘
弛
弟
弥
弦
弧
弱
張
強
弾
彌
当
彗
彙
形
彦
彩
彫
彰
影
彷
役
彼
彿
往
征
径
待
徊
律
後
徐
徒
従
得
徘
御
徨
復
循
微
徳
徴
徹
心
必
忌
忍
忖
志
忘
忙
応
忠
快
念
忽
怒
怖
怙
怜
思
怠
急
性
怨
怪
怯
恋
恍
恐
恒
恙
恣
恥
恨
恩
恫
恭
息
恰
恵
悄
悉
悍
悔
悖
悟
悠
患
悦
悧
悩
悪
悲
悴
悶
悸
悼
情
惑
惚
惜
惟
惣
惧
惨
惰
想
惹
惻
愁
愉
意
愕
愚
愛
感
愧
愼
愾
慄
慇
慈
態
慌
慎
慕
慚
慟
慢
慣
慧
慨
慮
慰
慶
憂
憊
憎
憐
憑
憔
憚
憤
憧
憩
憫
憬
憮
憲
憶
憺
憾
懃
懇
懊
懐
懲
懸
懺
戎
成
我
戒
或
戚
戦
截
戮
戯
戴
戸
戻
房
所
扁
扇
扉
手
才
打
払
托
扮
扱
扶
批
承
技
抄
抉
把
抑
抒
抓
投
抗
折
抜
択
披
抱
抵
抹
押
抽
担
拉
拌
拍
拐
拒
拓
拗
拘
拙
招
拝
拠
拡
括
拭
拮
拳
拵
拶
拷
拾
拿
持
指
按
挑
挙
挟
挨
挫
振
挺
挽
挿
捉
捌
捏
捕
捗
捜
捥
捧
捨
捩
据
捲
捺
捻
掃
授
掌
排
掘
掛
掟
掠
採
探
接
控
推
措
掬
掲
掴
掻
揃
揄
揉
描
提
揚
換
握
揮
援
揶
揺
損
搔
搦
搬
搭
携
搾
摂
摑
摘
摩
摯
摸
摺
撃
撒
撓
撞
撤
撥
撫
播
撮
撰
撲
撹
撻
擁
操
擢
擦
擬
擲
擾
攣
攪
攫
支
改
攻
放
政
故
敏
救
敗
教
敢
散
敦
敬
数
敲
整
敵
敷
斂
文
斉
斎
斐
斑
斗
料
斜
斟
斡
斤
斥
斧
斬
断
斯
新
方
施
旅
旋
族
旗
无
既
日
旦
旧
旨
早
旬
旱
旺
昂
昆
昇
昌
明
昏
易
昔
星
映
春
昧
昨
昭
是
昼
時
晃
晒
晦
晩
普
景
晰
晴
晶
智
暁
暇
暈
暑
暖
暗
暢
暦
暫
暮
暴
曇
曖
曙
曜
曝
曰
曲
曳
更
書
曼
曽
替
最
月
有
服
朕
朗
望
朝
期
朦
朧
木
未
末
本
札
朱
朴
朶
机
朽
杉
李
杏
材
村
杓
杖
杜
杞
束
条
来
杭
杯
東
杳
松
板
析
枕
林
枚
果
枝
枠
枢
枯
架
枷
柄
柏
某
柑
染
柔
柱
柳
柴
柵
査
柿
栃
栄
栓
栖
栗
栞
校
株
核
根
格
栽
桁
桂
桃
框
案
桐
桜
桟
桶
梁
梃
梅
梛
梢
梨
梯
械
梱
梳
梶
棄
棋
棍
棒
棘
棚
棟
森
棲
棺
椀
椅
植
椎
椒
検
椿
楊
楓
楔
楕
楚
業
極
楼
楽
概
榊
榜
榴
構
槌
槍
様
槽
樋
標
模
権
横
樫
樹
樺
樽
橋
橘
橙
機
橿
檀
檄
檎
檜
檻
櫃
櫓
櫛
欄
欒
欝
欠
次
欧
欲
欺
欽
歌
歓
止
正
此
武
歩
歪
歯
歳
歴
死
殉
殊
残
殖
殲
殴
段
殺
殻
殿
毅
母
毎
毒
比
毛
毟
毫
毯
氏
民
気
水
氷
永
汁
求
汎
汗
汚
汝
江
池
汰
汲
決
汽
沁
沃
沈
沌
沖
沙
没
沢
沫
河
沸
油
治
沼
沿
況
泂
泄
泉
泊
泌
法
泡
波
泣
泥
注
泰
泳
洋
洒
洗
洛
洞
洟
津
洩
洪
洲
活
派
流
浄
浅
浚
浜
浦
浩
浪
浮
浴
海
浸
消
涎
涙
涛
涜
涯
液
涸
涼
淀
淋
淑
淡
淫
深
淵
混
淹
添
清
渇
済
渉
渋
渓
渚
減
渡
渦
温
測
港
渾
湊
湖
湘
湛
湧
湯
湾
湿
満
溂
溌
源
準
溜
溝
溢
溶
溺
滅
滉
滋
滑
滓
滔
滝
滞
滲
滴
滸
滾
漁
漂
漆
漏
漑
演
漕
漠
漢
漣
漫
漬
漱
漲
漸
潑
潔
潜
潟
潤
潮
潰
澄
澤
澱
澹
激
濁
濃
濡
濤
濫
濯
濱
濾
瀆
瀉
瀑
瀕
瀟
瀧
瀬
灌
火
灯
灰
灸
災
炉
炊
炎
炒
炙
炬
炭
炸
点
為
烈
烏
烙
焉
焙
焚
無
焦
然
焼
煉
煌
煎
煙
煤
照
煩
煮
煽
熊
熟
熱
熾
燃
燈
燎
燕
燗
燥
燦
燭
燵
燻
爆
爛
爪
爬
爵
父
爺
爽
爾
片
版
牌
牒
牙
牛
牝
牡
牢
牧
物
牲
特
牽
犠
犬
犯
状
狂
狐
狗
狙
狛
狡
狩
独
狭
狸
狼
狽
猛
猜
猟
猥
猪
猫
献
猶
猾
猿
獄
獅
獣
獪
獰
獲
獺
玄
率
玉
王
玩
珀
珈
珍
珠
班
現
球
理
琉
琥
琲
琴
琵
琶
瑕
瑞
瑣
璧
環
璽
瓜
瓦
瓶
甘
甚
生
産
甥
用
甫
田
由
甲
申
男
町
画
界
畏
畑
畔
留
畜
畠
畢
略
番
異
畳
疇
疎
疑
疚
疥
疫
疲
疳
疵
疹
疼
疾
病
症
痒
痕
痘
痙
痛
痞
痢
痣
痩
痰
痴
痺
痼
瘍
瘤
瘦
瘴
療
癇
癌
癒
癖
癪
癬
発
登
白
百
的
皆
皇
皐
皮
皺
皿
盃
盆
益
盒
盗
盛
盟
監
盤
目
盲
直
相
盾
省
眇
眉
看
県
真
眠
眦
眩
眸
眺
眼
着
睡
督
睥
睦
睨
睫
睾
瞑
瞞
瞠
瞥
瞬
瞭
瞰
瞳
瞼
矛
矜
矢
知
短
矮
矯
石
砂
研
砕
砥
砦
砧
砲
破
硝
硬
碁
碇
碌
碍
碑
碗
碧
確
磁
磐
磨
磯
礁
礎
礫
示
礼
社
祀
祈
祐
祓
祖
祝
神
祟
祠
祥
票
祭
祷
禁
禄
禅
禊
禍
福
禰
禱
禽
禿
秀
私
秋
科
秒
秘
秤
秦
秩
称
移
稀
程
税
稔
稚
稜
種
稲
稼
稽
稿
穀
穂
積
穏
穢
穣
穫
穴
究
穹
空
穿
突
窃
窄
窒
窓
窘
窟
窩
窪
窮
窺
竄
立
竜
竟
章
童
竦
竪
端
競
竹
竿
笑
笛
笠
笥
符
第
笹
筆
筈
等
筋
筏
筐
筑
筒
答
策
筵
箇
箋
箍
箒
箔
算
管
箪
箱
箸
節
範
篇
築
篝
篤
篭
簒
簞
簡
簾
簿
籍
籐
籠
籤
米
粉
粋
粒
粗
粘
粛
粟
粥
粧
精
糊
糖
糞
糠
糧
糸
糺
系
糾
紀
約
紅
紆
紋
納
紐
純
紗
紘
紙
級
紛
素
紡
索
紫
累
細
紳
紹
紺
終
組
絆
経
結
絞
絡
絢
給
絨
統
絵
絶
絹
継
続
綜
維
綯
綱
網
綴
綺
綻
綽
綾
綿
緊
緋
総
緑
緒
線
緞
締
編
緩
緯
練
緻
縁
縄
縋
縒
縛
縞
縦
縫
縮
縷
績
繁
繊
繋
繍
織
繕
繙
繡
繫
繭
繰
繹
纏
缶
罅
罠
罪
置
罰
署
罵
罹
羅
羊
美
羞
群
羨
義
羹
羽
翁
翅
翌
習
翔
翠
翡
翳
翻
翼
老
考
者
而
耐
耕
耗
耘
耳
耶
耽
聖
聞
聡
聰
聳
聴
職
肉
肋
肌
肖
肘
肛
肝
股
肢
肥
肩
肪
肯
育
肴
肺
胃
胆
背
胎
胛
胞
胡
胱
胴
胸
能
脂
脅
脆
脇
脈
脊
脚
脛
脱
脳
脾
腋
腎
腐
腑
腔
腕
腫
腰
腱
腸
腹
腺
腿
膀
膏
膚
膜
膝
膠
膣
膨
膳
膿
臀
臂
臆
臓
臙
臣
臥
臨
自
臭
至
致
臼
興
舌
舎
舐
舗
舞
舟
航
般
舳
舵
舶
船
艦
良
艱
色
艶
芋
芝
芥
芭
芯
花
芳
芸
芻
芽
苑
苔
苗
苛
若
苦
英
苺
茂
茅
茎
茜
茨
茫
茶
茸
茹
草
荒
荘
荷
荻
荼
莢
莫
菊
菌
菓
菜
菩
華
菱
萄
萌
萎
落
葉
著
葛
葡
董
葦
葬
葱
葵
葺
蒐
蒔
蒙
蒲
蒸
蒼
蓄
蓋
蓑
蓬
蓮
蓼
蔑
蔓
蔦
蔵
蔽
蕉
蕎
蕗
蕩
薄
薇
薔
薙
薦
薩
薪
薫
薬
薮
薹
藁
藍
藤
藪
藹
藺
藻
蘇
蘊
蘭
虎
虐
虔
虚
虜
虫
虹
蚊
蚤
蛇
蛍
蛙
蛛
蛮
蛹
蛾
蜂
蜃
蜘
蜜
蜩
蝉
蝋
蝎
蝕
蝠
蝶
蝿
融
螺
蟄
蟠
蟬
蟲
蟹
蟻
蠅
蠕
蠟
蠢
蠣
蠱
血
衆
行
衒
術
街
衛
衝
衡
衣
表
衰
衷
袂
袈
袋
袖
被
袱
袴
裁
裂
装
裏
裕
補
裟
裳
裸
製
裾
褄
複
褐
褒
褪
襖
襞
襟
襲
西
要
覆
覇
見
規
視
覗
覚
覧
親
観
覿
角
解
触
言
訂
訃
計
訊
討
訓
託
記
訛
訝
訟
訣
訥
訪
設
許
訳
訴
診
証
詈
詐
評
詛
詞
詠
詣
試
詩
詫
詭
詮
詰
話
該
詳
誂
誇
誉
誌
認
誑
誓
誕
誘
語
誠
誤
説
読
誰
課
誹
調
談
請
諌
諍
論
諤
諦
諧
諫
諭
諮
諳
諸
諺
諾
謀
謂
謄
謎
謐
謔
謗
謙
講
謝
謡
謬
謳
謹
識
譚
譜
警
議
譲
護
讃
讐
讚
谷
豆
豊
豚
象
豪
豹
貌
貝
貞
負
財
貢
貧
貨
販
貪
貫
責
貯
貰
貴
貶
買
貸
費
貼
貿
賀
賂
賃
賄
資
賊
賎
賑
賓
賛
賜
賞
賢
賤
賦
質
賭
購
賽
贄
贅
贈
贋
贔
贖
赤
赦
走
赴
起
超
越
趣
趨
足
跏
距
跡
跨
路
跳
践
踊
踏
踝
踪
踵
蹂
蹙
蹟
蹲
蹴
躁
躇
躊
躍
躓
躙
身
躯
躱
躾
軀
車
軋
軌
軍
軒
軟
転
軸
軽
較
載
輔
輝
輩
輪
輸
輻
輾
輿
轄
轍
轟
轢
辛
辞
辟
辣
辱
農
辺
辻
込
辿
迂
迅
迎
近
返
迦
迫
述
迷
迸
追
退
送
逃
逅
逆
透
逐
逓
途
逗
這
通
逝
逞
速
造
逡
逢
連
逮
週
進
逸
逼
遂
遅
遇
遊
運
遍
過
道
達
違
遙
遜
遠
遡
遣
遥
適
遭
遮
遵
遷
選
遺
遼
遽
避
邁
邂
還
那
邦
邪
邸
郁
郊
郎
部
郭
郵
郷
都
鄙
酊
酌
配
酎
酒
酔
酢
酣
酩
酪
酬
酵
酷
酸
醍
醐
醒
醜
醤
醬
醸
采
釈
里
重
野
量
金
釘
釜
針
釣
釦
鈍
鈴
鉄
鉈
鉛
鉢
鉤
鉦
鉱
鉾
銀
銃
銅
銘
銚
銜
銭
鋏
鋒
鋭
鋲
鋳
鋸
鋼
錆
錠
錦
錫
錬
錯
録
鍋
鍛
鍵
鍼
鎌
鎖
鎧
鎮
鏡
鐘
鑑
鑢
鑽
鑿
長
門
閃
閉
開
閑
閒
間
関
閣
閥
閲
閻
閾
闇
闊
闍
闖
闘
闢
阜
阪
防
阻
阿
附
降
限
院
陣
除
陥
陪
陰
陳
陵
陶
陸
険
陽
隅
隆
隈
隊
階
随
隔
隕
隘
隙
際
障
隠
隣
隷
隻
隼
雀
雁
雄
雅
集
雇
雉
雌
雑
雛
離
難
雨
雪
雫
雰
雲
零
雷
電
需
震
霊
霜
霞
霧
露
靄
青
靖
静
非
靡
面
革
靭
靱
靴
鞄
鞍
鞭
鞴
韓
韜
音
韻
響
頁
頂
頃
項
順
須
頌
預
頑
頒
頓
領
頚
頤
頬
頭
頰
頷
頸
頻
頼
頽
顆
題
額
顎
顔
顕
願
顚
顛
類
顧
顰
風
颪
颯
飄
飛
食
飢
飯
飲
飴
飼
飽
飾
餃
餅
餉
養
餌
餐
餓
餡
館
饅
饐
饒
饗
首
香
馥
馬
馳
馴
駁
駄
駅
駆
駐
駒
駕
騎
騒
験
騙
騰
驕
驚
骨
骸
髄
髏
髑
高
髣
髪
髭
髴
鬚
鬨
鬱
鬼
魁
魂
魃
魅
魔
魚
鮨
鮫
鮭
鮮
鯉
鯔
鯖
鯛
鯨
鯵
鰓
鰭
鰹
鰺
鰻
鱈
鱒
鱗
鳥
鳩
鳳
鳴
鳶
鴎
鴨
鵜
鵠
鵡
鵺
鶏
鶴
鷗
鷲
鷹
鸚
鸞
鹸
鹼
鹿
麓
麗
麦
麩
麵
麹
麺
麻
黄
黒
黙
黴
鼓
鼠
鼻
鼾
齟
齢
齧
齬
龍
﨑
##話
##々
##し
##い
##じ
##か
##イ
##ヤ
##ル
##あ
##達
##ろ
##う
##性
##ン
##ナ
##キ
##ョ
##ウ
##シ
##き
##合
##え
##る
##べ
##中
##ー
##カ
##ト
##れ
##回
##り
##ざ
##す
##む
##力
##っ
##ち
##ょ
##こ
##ね
##つ
##け
##路
##体
##よ
##身
##込
##ま
##ぎ
##ど
##ゆ
##く
##め
##口
##実
##ほ
##道
##調
##白
##マ
##テ
##ッ
##ド
##ぐ
##束
##な
##ら
##型
##算
##わ
##バ
##引
##タ
##移
##賤
##ブ
##ロ
##ム
##グ
##返
##と
##書
##ザ
##た
##s
##h
##案
##コ
##裸
##て
##ん
##蒔
##ば
##先
##抜
##伝
##児
##手
##用
##視
##ピ
##題
##苑
##取
##翼
##ぁ
##げ
##臥
##上
##が
##言
##夏
##そ
##チ
##婚
##ュ
##リ
##ア
##辞
##線
##送
##揺
##春
##別
##毛
##ラ
##退
##田
##間
##見
##止
##注
##戻
##喩
##胸
##貌
##歩
##量
##分
##破
##ミ
##ユ
##ャ
##元
##原
##人
##過
##ご
##尾
##死
##去
##悪
##ク
##パ
##与
##刊
##伸
##殺
##位
##幣
##も
##耳
##に
##ぽ
##戦
##成
##だ
##び
##せ
##切
##さ
##ツ
##フ
##噛
##み
##信
##部
##屋
##起
##膏
##レ
##来
##地
##ガ
##エ
##編
##0
##楽
##援
##ス
##時
##立
##会
##学
##写
##感
##害
##査
##漢
##ワ
##ボ
##紙
##喋
##子
##付
##業
##掛
##開
##底
##歌
##色
##例
##縄
##鵠
##料
##ズ
##ゴ
##文
##ジ
##巡
##晒
##絞
##馬
##油
##出
##杖
##等
##サ
##ゃ
##お
##ィ
##脈
##念
##や
##声
##較
##倒
##多
##姿
##法
##面
##張
##理
##宝
##足
##席
##録
##ニ
##女
##遇
##落
##覚
##モ
##度
##殖
##行
##ォ
##否
##芯
##唆
##ソ
##笑
##ヌ
##無
##ず
##謝
##ゅ
##突
##和
##ェ
##は
##格
##撃
##y
##の
##腑
##収
##風
##放
##側
##余
##ぜ
##飯
##択
##ゼ
##g
##替
##触
##少
##下
##ぶ
##草
##図
##端
##利
##息
##着
##能
##燭
##差
##慮
##校
##暴
##ぉ
##岩
##種
##ケ
##ヴ
##ァ
##厚
##目
##港
##染
##虫
##職
##町
##結
##ぼ
##窟
##留
##i
##r
##d
##遍
##室
##悦
##方
##土
##産
##払
##画
##意
##組
##メ
##強
##列
##賛
##t
##a
##三
##浅
##後
##前
##観
##ベ
##券
##限
##走
##オ
##ネ
##藤
##小
##識
##形
##器
##2
##8
##太
##陣
##ぷ
##店
##輝
##ダ
##高
##任
##親
##続
##国
##好
##デ
##球
##剖
##腰
##皮
##定
##広
##積
##交
##砕
##欠
##智
##勢
##p
##愛
##跡
##殴
##脚
##焼
##演
##二
##ビ
##入
##直
##区
##貼
##舞
##憑
##探
##穴
##制
##事
##芸
##迫
##枠
##携
##腸
##碗
##暑
##乗
##価
##権
##嚼
##唾
##怪
##記
##臭
##正
##悩
##者
##飛
##o
##熱
##勝
##n
##茎
##物
##指
##長
##違
##選
##報
##ノ
##ポ
##向
##具
##新
##員
##近
##講
##野
##語
##数
##置
##件
##評
##当
##諸
##服
##除
##句
##投
##十
##察
##寝
##帰
##郎
##活
##塀
##づ
##肌
##眼
##喰
##名
##v
##プ
##拝
##慣
##界
##進
##守
##販
##舌
##黒
##穫
##京
##e
##耶
##管
##麗
##ギ
##幕
##家
##滅
##被
##星
##簿
##揚
##月
##筆
##居
##特
##3
##4
##場
##嶽
##ぬ
##魚
##痛
##潰
##動
##然
##打
##撒
##妹
##擾
##慶
##質
##極
##軟
##血
##良
##降
##で
##ひ
##役
##潮
##塩
##邪
##気
##何
##吹
##民
##杭
##隷
##聖
##ぱ
##加
##空
##呑
##禁
##骨
##媒
##柄
##情
##卒
##換
##致
##装
##所
##音
##腕
##君
##味
##赤
##c
##u
##へ
##答
##鬼
##休
##占
##蠣
##本
##輪
##ぴ
##彦
##争
##香
##妻
##乱
##剌
##折
##読
##呈
##浸
##勉
##花
##b
##接
##士
##刑
##療
##次
##字
##社
##劇
##応
##消
##脇
##惨
##刀
##礼
##節
##ゾ
##刷
##外
##棒
##作
##登
##1
##9
##得
##育
##点
##婆
##宅
##囲
##瀬
##日
##乃
##岸
##期
##仰
##胆
##反
##速
##週
##典
##鹿
##癒
##涸
##塁
##議
##葬
##j
##橋
##晴
##徴
##茶
##水
##病
##罪
##ハ
##惑
##表
##ヒ
##惟
##箱
##越
##流
##巻
##構
##天
##財
##使
##倖
##木
##ふ
##静
##暗
##内
##策
##亜
##工
##兵
##嫌
##予
##之
##助
##生
##暮
##聞
##密
##髪
##布
##示
##鈴
##拭
##仕
##奏
##芥
##敷
##魔
##丈
##解
##劣
##宜
##干
##顔
##ホ
##義
##述
##番
##詣
##盛
##境
##寄
##逃
##恐
##鍋
##窩
##唄
##科
##覧
##教
##吉
##鳴
##散
##金
##診
##延
##考
##セ
##軍
##衆
##討
##海
##友
##仏
##島
##犯
##継
##緩
##陰
##針
##受
##将
##頂
##環
##枝
##徊
##転
##請
##官
##真
##閣
##廷
##吠
##埼
##以
##明
##扱
##韻
##約
##添
##首
##波
##鐘
##激
##腹
##労
##偉
##階
##巧
##冷
##喜
##大
##榴
##浪
##鼻
##房
##頭
##処
##細
##有
##泡
##酷
##透
##飲
##負
##辛
##締
##跳
##戸
##ペ
##保
##丘
##尼
##尿
##説
##衰
##6
##局
##混
##苦
##角
##重
##沼
##望
##袱
##台
##曲
##詰
##孫
##領
##歯
##枷
##試
##筋
##逸
##氏
##株
##漏
##末
##存
##獄
##繰
##域
##ぺ
##ぞ
##倣
##坦
##庄
##荒
##心
##笛
##椒
##塞
##効
##顧
##辣
##償
##頃
##床
##慢
##飾
##押
##盤
##湾
##至
##握
##桂
##状
##敵
##護
##従
##屈
##板
##知
##苛
##固
##谷
##堂
##豆
##売
##養
##蹴
##看
##軸
##急
##務
##難
##蒙
##乏
##満
##振
##可
##抗
##並
##朝
##増
##浴
##窪
##順
##鑑
##徳
##躍
##殊
##残
##招
##電
##x
##座
##遣
##遠
##捉
##沢
##賀
##繕
##詞
##費
##妖
##傷
##痴
##林
##昏
##繹
##術
##森
##村
##履
##敬
##届
##機
##山
##根
##伏
##粋
##哀
##談
##漁
##挙
##溝
##像
##剤
##ゲ
##命
##崩
##躯
##惚
##裁
##粒
##似
##l
##銃
##窓
##闇
##坐
##栄
##陽
##織
##犬
##璽
##川
##純
##美
##王
##因
##疑
##材
##映
##咤
##丸
##泳
##才
##緒
##精
##想
##父
##陥
##帯
##季
##税
##釈
##迦
##沸
##ヨ
##影
##鳥
##謀
##暈
##旬
##火
##冠
##竦
##級
##童
##疲
##患
##竹
##兎
##禽
##把
##堀
##通
##紗
##果
##遂
##睡
##認
##渉
##鹸
##圧
##年
##易
##雄
##発
##卦
##豹
##蛇
##裏
##訝
##雪
##集
##閑
##却
##光
##変
##様
##滓
##責
##備
##杯
##桶
##錠
##磨
##測
##執
##卵
##泉
##潔
##暇
##姫
##私
##拠
##失
##掻
##渡
##絡
##躁
##譜
##整
##泊
##辺
##弁
##陸
##衣
##銘
##幽
##割
##儀
##濤
##滴
##倉
##銭
##健
##包
##歴
##久
##核
##参
##翅
##灯
##ぅ
##壮
##象
##塔
##造
##及
##断
##悉
##刻
##買
##戒
##澤
##敢
##訣
##途
##撻
##殻
##眠
##魂
##渦
##比
##減
##畳
##煙
##離
##射
##雑
##f
##ぇ
##設
##石
##哨
##照
##船
##稽
##宮
##砲
##客
##7
##値
##庭
##範
##革
##k
##諾
##旋
##連
##ゥ
##府
##県
##同
##許
##族
##括
##品
##異
##政
##検
##秘
##征
##訳
##頰
##老
##公
##飴
##欲
##蔵
##素
##痕
##秦
##願
##坊
##鉄
##世
##軽
##浦
##肉
##丹
##福
##弱
##吐
##食
##騒
##刺
##令
##尽
##m
##慄
##髭
##縛
##癖
##悶
##徒
##麦
##績
##亡
##腐
##袋
##閥
##安
##興
##他
##版
##清
##楚
##苔
##化
##寒
##酬
##持
##躾
##際
##槌
##訪
##吾
##層
##曜
##w
##廃
##的
##怠
##斜
##綱
##憎
##胎
##泣
##彌
##練
##農
##疇
##温
##棄
##鬚
##缶
##弊
##弾
##資
##症
##撫
##幻
##一
##巾
##萄
##膝
##恵
##寺
##没
##洋
##治
##要
##茸
##慧
##類
##脂
##塗
##問
##敗
##唱
##稀
##煮
##快
##況
##賃
##館
##相
##液
##誓
##夜
##拍
##貞
##雇
##稿
##営
##介
##爆
##眸
##唇
##炭
##南
##五
##瘍
##鱗
##悟
##避
##求
##葉
##狩
##式
##夫
##牌
##殿
##僕
##膚
##昇
##誌
##神
##絶
##了
##耗
##盗
##獣
##段
##派
##捨
##支
##告
##頼
##毒
##低
##託
##愚
##代
##澄
##製
##薄
##複
##碍
##滑
##羽
##娘
##百
##醒
##爽
##幅
##橘
##齢
##迎
##遺
##埒
##癌
##封
##丁
##罰
##5
##対
##浮
##柔
##雷
##齬
##迷
##州
##汚
##嚙
##車
##痒
##抱
##擦
##鮭
##復
##輩
##蓮
##扉
##薇
##棚
##雲
##塚
##洗
##枕
##餉
##壊
##晩
##態
##礎
##証
##江
##街
##井
##酌
##涛
##婦
##益
##称
##籠
##松
##妬
##皿
##四
##黙
##露
##棋
##則
##梨
##菜
##印
##母
##裂
##蓋
##鋒
##園
##配
##概
##聴
##往
##華
##旧
##寧
##袖
##属
##刃
##賞
##悲
##東
##豪
##雨
##帥
##闘
##駒
##諭
##門
##衝
##隅
##推
##剝
##皇
##塊
##鉤
##鉢
##昧
##隠
##六
##喝
##第
##決
##搔
##恋
##忙
##棟
##訓
##便
##庸
##条
##薬
##兼
##俗
##祭
##酔
##非
##惜
##淀
##全
##摩
##険
##展
##恥
##盒
##司
##舟
##漕
##氷
##也
##墨
##秋
##滉
##威
##沫
##塡
##単
##玉
##系
##餐
##掴
##纏
##姓
##宇
##忍
##額
##侯
##隊
##省
##霊
##駄
##円
##陶
##票
##揃
##半
##附
##奮
##敏
##嚇
##釣
##猫
##主
##我
##修
##帳
##叫
##綿
##肪
##侮
##略
##邦
##遊
##坂
##拶
##堵
##縮
##胱
##蹟
##習
##奥
##札
##慌
##景
##師
##吞
##柴
##壁
##躇
##旗
##唐
##在
##短
##劫
##号
##総
##彩
##袈
##裟
##爛
##誘
##承
##矢
##鱈
##踪
##掘
##尻
##賢
##鼠
##督
##背
##噪
##古
##痢
##桜
##尋
##城
##騰
##菌
##群
##ä
##論
##改
##奢
##随
##藻
##芋
##酸
##襟
##頬
##隣
##究
##羹
##巣
##現
##岡
##溜
##御
##肘
##睦
##壇
##還
##給
##奪
##平
##甲
##斐
##裾
##済
##仲
##柳
##容
##康
##柱
##鬱
##徨
##肩
##恨
##舗
##党
##賎
##琶
##鉱
##待
##ヘ
##籍
##勘
##縦
##宙
##仮
##縁
##鳩
##馴
##麩
##羅
##西
##滸
##酒
##璧
##判
##玩
##餓
##畑
##鼓
##篤
##借
##防
##削
##妙
##鋭
##眩
##律
##掌
##崎
##常
##津
##靡
##千
##桃
##据
##笥
##牙
##咎
##譲
##率
##都
##涙
##符
##寵
##ぃ
##倫
##拉
##終
##亭
##就
##準
##庁
##導
##震
##筈
##脱
##憤
##穏
##適
##靄
##遷
##誤
##囊
##始
##股
##坑
##獲
##史
##団
##郷
##吸
##熟
##志
##凡
##綻
##功
##鋲
##猟
##嫁
##思
##佐
##幀
##宿
##箸
##壷
##章
##戯
##轢
##魃
##堅
##勇
##湯
##源
##埃
##早
##乳
##醐
##曽
##咽
##旨
##舎
##侭
##疹
##寮
##働
##厳
##衛
##河
##汗
##毯
##係
##滞
##蕉
##候
##岐
##悼
##由
##謡
##癬
##伊
##臂
##簾
##塵
##囃
##北
##憶
##荷
##鉈
##善
##創
##剛
##截
##飼
##腺
##拳
##絵
##漫
##故
##貴
##ß
##杉
##住
##銀
##災
##廊
##褪
##攻
##砂
##飽
##q
##猥
##垣
##障
##豚
##柵
##響
##俺
##計
##匠
##喚
##虐
##艦
##啓
##男
##蘇
##院
##兄
##均
##完
##鑽
##襲
##池
##優
##軀
##庫
##垂
##旦
##贈
##瓦
##禱
##米
##蛛
##郁
##骸
##弟
##程
##牛
##互
##傑
##牒
##燥
##微
##閉
##夕
##晦
##奇
##哮
##凄
##紐
##片
##螺
##遅
##狂
##憩
##関
##斗
##ぢ
##呼
##胞
##横
##深
##蝶
##椎
##汰
##模
##伐
##網
##独
##朗
##植
##狽
##申
##栓
##冊
##餅
##怖
##禅
##損
##潜
##擬
##夢
##緯
##依
##檎
##鮮
##濃
##硬
##技
##歳
##牲
##蕩
##供
##遽
##佳
##弦
##猾
##阜
##紋
##胛
##僧
##匿
##俣
##尊
##槽
##著
##汁
##菱
##靭
##貫
##初
##朴
##凶
##祥
##嘆
##晶
##狭
##覆
##幸
##瞥
##刈
##徹
##摯
##斑
##径
##奨
##髴
##爾
##瞬
##澱
##審
##輿
##蝎
##標
##髄
##朽
##撰
##墜
##紫
##暖
##確
##呂
##駅
##沈
##運
##竄
##偽
##験
##膜
##曇
##糖
##午
##今
##淑
##般
##右
##癪
##耽
##臨
##涜
##睨
##垢
##葺
##煎
##埋
##鎖
##須
##課
##机
##淵
##那
##摺
##穂
##捌
##憫
##浜
##協
##貨
##燗
##拗
##担
##撲
##賂
##裕
##磁
##畜
##拓
##憊
##拙
##隔
##弓
##勤
##宰
##載
##青
##覇
##帆
##筏
##穹
##左
##淡
##逅
##荘
##両
##誇
##彰
##擢
##龍
##眉
##斬
##儲
##葱
##虚
##晰
##析
##疎
##隈
##涯
##序
##娼
##脳
##耘
##昔
##卑
##錆
##納
##采
##偵
##榜
##濡
##堝
##孔
##z
##ゑ
##憾
##跏
##肢
##剃
##葵
##為
##瓶
##統
##忌
##嗟
##築
##傘
##戚
##描
##攣
##繡
##拐
##而
##鱒
##祖
##寂
##踊
##栖
##薦
##烈
##賑
##揮
##逆
##媛
##愾
##央
##緑
##帽
##鸞
##憂
##伽
##噺
##経
##姻
##廉
##共
##蒸
##播
##肯
##涼
##弘
##瞰
##糸
##屍
##阪
##漬
##帖
##操
##里
##糧
##叢
##捕
##菩
##薩
##翁
##爵
##侶
##焉
##梱
##鶏
##斥
##牢
##規
##卸
##剣
##撞
##漑
##個
##雅
##沿
##漠
##伴
##狡
##更
##憐
##航
##紘
##摘
##呆
##挟
##宣
##訟
##竟
##幼
##免
##喫
##擁
##励
##姜
##吻
##募
##警
##仁
##剰
##奉
##粉
##錯
##腿
##辱
##釘
##撮
##粛
##濁
##基
##扇
##緻
##俸
##騎
##禄
##索
##滝
##紀
##麻
##催
##項
##自
##嚢
##謐
##芽
##凰
##抄
##忘
##賊
##筒
##且
##抹
##補
##泌
##愧
##若
##耕
##挫
##炊
##厄
##艶
##僚
##羊
##雀
##誕
##峙
##叉
##毫
##悔
##洲
##愁
##涎
##壕
##尚
##踏
##傍
##如
##樺
##周
##溺
##己
##蔽
##禰
##彿
##到
##鬨
##鍵
##刹
##酊
##盟
##昂
##授
##韜
##罵
##緊
##秤
##擲
##枯
##悴
##卓
##紅
##戮
##珠
##縫
##壺
##牧
##鄙
##ゞ
##闊
##維
##兆
##蓑
##攫
##膳
##慨
##詮
##剥
##竜
##是
##噌
##蜜
##盾
##劾
##耐
##孝
##蒼
##嵩
##秀
##逐
##臓
##献
##峨
##蹙
##讐
##誠
##恩
##疵
##逢
##湿
##充
##冬
##駐
##架
##諦
##蟄
##勒
##提
##撓
##腔
##奈
##帝
##酵
##髏
##魁
##嘲
##昼
##凧
##鶴
##鏡
##ヂ
##玄
##賓
##惧
##姦
##悍
##蓄
##虎
##杏
##毟
##堪
##銅
##疫
##吊
##窮
##摑
##誉
##武
##洞
##ゐ
##梅
##偶
##丼
##灰
##侠
##斉
##岳
##溢
##泥
##狗
##拌
##嬢
##樹
##潤
##醜
##妊
##愕
##焦
##俵
##輸
##掃
##煩
##含
##追
##彫
##腫
##娠
##凍
##嵐
##泰
##澹
##建
##燵
##遜
##嘩
##匐
##伎
##鷹
##珀
##債
##ヶ
##幹
##寞
##炉
##朧
##陵
##汎
##甘
##這
##洒
##杓
##浄
##祷
##闍
##傾
##靱
##翠
##萌
##讚
##憬
##陳
##菊
##貯
##隆
##惰
##不
##嘘
##隙
##衡
##駕
##抵
##衷
##縷
##姉
##施
##函
##狼
##揄
##潟
##茂
##咳
##稚
##怒
##柑
##做
##彼
##敲
##需
##貸
##屑
##躙
##崖
##駆
##嗇
##峡
##祝
##困
##謬
##窄
##駁
##婿
##砦
##尺
##褄
##富
##践
##弄
##轄
##麺
##署
##希
##嶺
##獪
##佻
##漂
##糊
##靴
##哉
##輔
##瀉
##懐
##綾
##炎
##枢
##企
##湊
##侵
##泄
##闢
##黄
##穣
##鵡
##暦
##欝
##嵌
##溂
##珍
##哲
##哭
##廻
##虜
##稲
##芻
##蝿
##琴
##拾
##渇
##繍
##停
##凹
##董
##欺
##阿
##箋
##崇
##儡
##沃
##悧
##虔
##繁
##磯
##呵
##慕
##燈
##融
##棲
##慰
##臼
##臣
##稼
##培
##縋
##梁
##礫
##套
##軌
##稔
##藍
##寥
##紛
##琲
##儘
##錬
##郭
##蜂
##頓
##檻
##磐
##粧
##謗
##研
##悸
##怯
##ü
##欒
##蛮
##謔
##を
##昨
##碁
##填
##碑
##瞞
##博
##寿
##薹
##酎
##訴
##閲
##秒
##医
##採
##朶
##墟
##翔
##宴
##沌
##茜
##促
##慎
##檀
##英
##詳
##叩
##洩
##斎
##詛
##嬌
##餌
##双
##赦
##鹼
##霜
##灸
##訥
##庵
##騙
##怙
##圃
##匙
##巴
##紺
##暢
##捗
##凪
##蠅
##甫
##斂
##狙
##蔑
##噓
##懃
##市
##屓
##賦
##痺
##櫛
##瞭
##鯉
##冑
##弥
##樋
##伍
##麹
##贄
##濯
##壌
##挺
##戴
##閃
##詈
##簡
##礁
##冴
##姑
##莢
##綜
##奴
##敦
##荼
##菓
##賄
##糾
##該
##晃
##欄
##搬
##皺
##郊
##械
##寸
##酢
##猛
##幡
##肝
##繋
##框
##憺
##蟬
##瀆
##脆
##舶
##旅
##椿
##倍
##彙
##串
##七
##颪
ない
から
こと
いる
それ
その
よう
そう
いう
##かっ
する
ある
さん
だっ
##ろう
って
です
##っと
だろう
##んな
いい
なん
##しい
じゃ
なく
だけ
なかっ
もの
言っ
なっ
しま
彼女
まで
どう
由比
##ヶ浜
由比ヶ浜
でき
けど
この
られ
なら
たち
なる
しか
##える
自分
てる
ちゃ
これ
たら
いっ
あっ
##ころ
##がら
##して
##たい
そんな
ながら
とき
##ける
思っ
くる
ところ
くれ
そこ
もう
ちょ
そして
ます
つい
わか
しまっ
考え
わけ
言葉
言う
いく
やっ
##しく
思い
くん
綾瀬
時間
あり
れる
思う
ため
しれ
しかし
##らい
小町
##める
##まり
言い
ちょっと
たい
より
いつ
みたい
ほう
##れど
けれど
##ール
ちゃん
##かり
青豆
まま
いや
一色
しまう
感じ
でし
ひと
##よう
あの
どこ
##れる
同じ
くらい
ここ
ただ
言わ
まぁ
よく
なんて
##ート
葉山
たり
あれ
できる
ほど
##出し
視線
また
まだ
##たり
先輩
かけ
まし
ませ
##まっ
先生
##ット
でしょ
人間
あな
あなた
はず
少し
らしい
わから
##たし
二人
##っち
小さ
なり
あと
##ック
入っ
##わり
##ント
こう
##らく
聞い
##わせ
##くり
##ちら
うち
##込ん
大き
##ラス
やら
取り
##わっ
一人
##がっ
見え
気づ
うん
相手
##こう
わかっ
今日
見る
部屋
とっ
##イト
いえ
##かけ
ねぇ
たく
##げる
ああ
立ち
##いつ
受け
意味
られる
##ング
##ぶん
確か
こんな
知ら
すぐ
答え
平塚
##らし
話し
好き
表情
戸塚
##っき
やる
振り
見つ
##ップ
もら
とも
必要
出し
仕事
知っ
##ター
浮か
学校
電話
問題
すぎ
べき
材木
お前
やり
おか
おい
こそ
##っくり
行っ
なに
世界
思わ
##さい
本当
せる
もし
まっ
向け
微笑
##ョン
行く
関係
悪い
##ーム
##持ち
ばかり
一緒
あまり
持っ
##ース
くれる
でしょう
引き
少女
##ション
落ち
##たく
##めて
場所
もっと
ほん
##ージ
なぁ
聞こ
食べ
じゃあ
##けれ
始め
##上げ
以上
##ード
高校
入れ
##わら
いか
など
名前
違う
最後
##ない
だろ
あん
空気
##せる
##やか
生徒
##ほど
気持ち
存在
##もり
おそ
まあ
つつ
どんな
もち
しよう
つけ
会話
##ろん
せい
たぶん
三浦
みんな
##とん
クラス
わかる
しば
すれ
もちろん
初鹿
初鹿野
##ずか
戸部
ちゃんと
様子
いろ
##の子
続け
##しら
ずっと
もん
通り
ため息
さす
意識
相模
小さな
だい
まる
考える
さら
##スト
女子
理由
気づい
おそらく
##っかり
楽し
##かい
##まる
聞こえ
さすが
わたし
軽く
##ープ
なけれ
生き
言え
##つけ
待っ
覚え
こちら
確認
ありが
##つい
##かく
押し
##なく
まるで
あたし
かしら
笑っ
つもり
##ティ
説明
あるい
理解
##がる
ゆっくり
高坂
あるいは
向かっ
聞き
ちら
よっ
##返し
記憶
さえ
過ぎ
まったく
##合い
##なり
##ょう
##する
互い
可愛
なぜ
歩い
##わる
うま
##ーン
戻っ
女の子
教室
身体
浮かべ
すべ
##合わせ
つまり
無理
きっと
##しろ
実際
見せ
まず
タイ
距離
普通
##かし
しばらく
いけ
##イン
バイト
ちゃう
最初
振り返
すべて
##ーブ
ほとん
ドア
大きな
ほとんど
##違い
自身
##出す
こっち
さっき
親父
あたり
##キー
小さく
##がり
##そう
立て
みる
後ろ
生活
開け
##かる
ちゃっ
立ち上
さらに
##ンス
眺め
読売
やめ
こいつ
##とう
##ッド
とて
よかっ
開い
上げ
海老
あい
なか
振っ
長い
##込む
とり
打ち
持ち
自然
可能
海老名
##やく
女性
笑顔
合わせ
置い
ふか
川崎
見える
えり
おかげ
プロ
そっと
思え
忘れ
##ンド
##ぱり
なー
行動
出る
勉強
##合っ
ほんと
決め
##ぐり
あげ
変わら
はい
あー
くだ
行き
心配
ふと
比企
笑い
人生
差し
ようやく
静か
コー
むしろ
初めて
読ん
椅子
返事
##らか
流れ
##ッキー
##ただ
うまく
想像
尋ね
男子
やつ
書い
##っこ
いき
とても
ふたり
対し
思い出し
キャ
母親
一瞬
##ーん
##おり
ええ
##しかっ
あいだ
子供
座っ
ねー
飲み
みず
父親
出す
他人
わざ
起こ
たっ
ミヤ
ミヤギ
たかっ
ほか
程度
##っきり
入り
反応
##そも
##おう
大きく
##めん
消え
笑み
なれ
らしく
小松
終わっ
どれ
なさ
##ケット
切り
そも
そもそも
大学
簡単
閉じ
##じり
##リー
ごめん
聞く
しまい
教え
既に
##らす
プレ
興味
感情
あんた
起き
絶対
頑張
##思議
亜季
亜季子
クリ
読み
願い
##差し
入る
気分
めぐり
友達
残っ
シャ
不思議
向こう
多く
普段
##ッチ
見つめ
離れ
沙季
もと
写真
疲れ
連絡
高い
##はり
なんか
瞬間
返し
早く
部室
やはり
近く
買い
すぎる
真綾
結構
現実
いくら
場合
かける
ほら
結果
始める
##なか
付き
ください
帰っ
背中
ありがとう
##ーブル
吐い
今度
っぽ
作っ
良い
つか
つく
知り
##わざ
じゃん
もらっ
##ダー
ベッド
引っ
慣れ
書き
##込み
歩き
答える
降り
テーブル
頷い
ほしい
いち
違い
微笑み
呼び
大丈
大丈夫
やす
最近
終え
わかり
明日
落ち着
まと
奈良
特に
事実
結局
どちら
立っ
以外
##マル
奈良坂
##ヒー
ちょう
千草
コーヒー
いただ
落と
八幡
もっ
##しゃ
人々
料理
すご
一番
笑う
連中
まさ
納得
ふっ
大事
千葉
近い
なるほど
部分
全然
深い
やっぱり
伸ば
買っ
わざわざ
変わっ
帰り
おく
カップ
ヒッキー
意外
##替え
マジ
過ご
携帯
深く
##まれ
近づ
タマル
ひど
コン
多い
沈黙
##あえ
繰り
雪乃
黙っ
ちょうど
委員
死ん
たと
##ュー
聞か
##ラー
感じる
正直
##あえず
さな
使っ
情報
準備
とりあえず
勝手
求め
終わり
信じ
たとえ
切っ
少なく
苦笑
音楽
ゲーム
##かう
##かける
##ンチ
##ライ
じっと
ぶり
だいたい
思い出
##ーク
可愛い
期待
かかっ
##ラン
さっ
振る
##たら
そろ
問い
怖い
作業
すっ
どの
取っ
##ーツ
##なっ
続ける
##合う
時計
受け取
##込ま
あら
廊下
状況
いま
抱え
雰囲
雰囲気
質問
スマ
部活
続い
##トル
おお
かなり
##休み
なかなか
内容
##こし
たま
きり
とく
ファ
明る
面倒
##ファ
挨拶
来る
踏み
不安
中学
強く
恥ずか
##レー
ショ
##がて
どころ
パン
手伝
日本
乗り
すら
やがて
ジャ
さなぎ
家族
生まれ
両手
申し
飲ん
##そろ
かた
追い
っと
強い
間違い
ボール
頷く
婦人
用意
適当
匂い
見つけ
おり
コート
ダメ
仕方
動き
もっとも
まい
同時
悪く
そろそろ
小説
並ん
食事
スト
あいつ
しっかり
吐く
##ロー
周り
歩く
スタ
階段
##から
与え
##入れ
ふむ
困っ
驚い
ましょう
止め
開く
友人
とに
抜け
予定
大人
いったい
ほんの
とにかく
なさい
昨日
時代
ごと
二十
諦め
##スマ
旅行
経験
わずか
個人
真っ
っけ
向かう
呆れ
呼ば
##つく
##ぞれ
取り出し
当て
待ち
状態
短い
##ンプ
バス
それぞれ
ひょ
##ろし
限り
会議
向ける
送っ
飛び
##バー
##やり
アイ
体育
完全
##取り
しゃ
コミ
新しい
##ッグ
やや
乗っ
大変
当然
映画
選択
落とし
いわ
決まっ
かえ
人物
相談
すこし
一方
作り
出来
##ディ
ひとり
っぽい
煙草
よろ
触れ
隼人
##つき
##ベント
ゆき
受験
悠太
せよ
はぁ
印象
声音
##いろ
##パート
きれ
イベント
否定
探し
いろいろ
とおり
メール
冷たい
##さん
ねえ
両親
今回
いろは
なお
伸ばし
話題
慌て
呼ん
授業
きっ
感覚
遠く
##たっ
白い
連れ
##ーテ
##まら
クリスマ
クリスマス
間違
##ンション
##イル
##カー
自転
目的
見れ
返す
さて
訊い
小学
うーん
たび
全部
集中
いれ
態度
綺麗
小園
##ずれ
スマホ
済ま
##もと
コミュ
つき
代わり
##しき
##すぐ
あろう
帰る
得意
自信
##くっ
##なし
プレゼ
プロム
##付け
意見
##直し
いずれ
チェ
再び
浮かん
なき
アパート
##ーっと
頑張っ
撫で
##らっ
##なる
自由
##した
##てる
##払い
っつ
伝え
とくに
握り
死ぬ
突き
素直
吐き
##しか
あんまり
あんな
呼吸
調べ
##わし
振り返る
あく
やれ
無言
物語
駆け
そっ
制服
本人
文化
##まし
フォ
勢い
吹き
抱き
置か
##ーション
##ちゃ
チョ
元気
##ンジ
##ミング
##ごと
##レス
プレゼント
会長
話す
ずい
変化
ずいぶん
かつ
はっきり
光景
正しい
長く
公園
戻る
まさか
一応
香山
##上げる
やすい
かたち
よー
馬鹿
##コン
ついで
##ックス
バッグ
半分
嫌い
話しかけ
微笑ん
てん
取る
口元
困る
性格
##りゃ
たくさん
事情
同士
方向
疑問
自体
行為
##ーっ
位置
出会
変え
続く
##つける
##返す
冗談
逃げ
みれ
##ンター
予想
奉仕
座る
頷き
##出さ
周囲
折本
特別
だいじ
以前
会っ
遊び
過去
振り返っ
なきゃ
立つ
選ん
卒業
恋人
眼差し
覗き
ぶん
ぽつ
だら
苦手
誕生
わかん
もらえ
余裕
##まで
あくまで
ブラ
ポケット
早い
結婚
なし
判断
檜原
練習
難しい
##切れ
作る
充分
向い
押さ
終わる
緊張
逸らし
##ッセ
すっかり
予備
続き
先ほど
かえり
ずつ
優しい
手紙
結論
##ッシ
##切り
かー
リトル
三十
引い
満足
えっ
合っ
向き
当たり
##ープル
スポ
感想
繰り返し
ピープル
方法
書か
玄関
突っ
##回し
ひょっと
なあ
メッセ
リア
付け
夏休み
幸せ
過ごし
チャ
上げる
後輩
負け
途中
##ざい
まっすぐ
よろしく
たしか
サイ
嬉しい
見せる
進ん
上手
別れ
安心
注意
玉縄
##がけ
タイプ
社会
とこ
ふう
交じり
座り
面白
##ゆる
##さら
っつー
切れ
思考
自己
##いっ
##イント
##とり
##ベル
がち
アル
文字
着替え
見上げ
休み
かかる
ライ
掛け
##っこう
##抜け
買い物
仲良
伸び
感心
気味
##ナー
##べる
もらう
すごい
参加
活動
移動
##どき
タイミング
咳払い
明かり
時期
残念
無駄
照れ
##ンタ
##ゅっ
くす
そいつ
震え
##ーダー
いきなり
グル
不意
吐息
待つ
本気
##つか
持つ
運転
テレ
助け
向かい
美味
##っちゃ
気づく
立ち上がっ
まわり
ペン
叩い
呼ぶ
失っ
知る
##じる
あげる
おき
ソファ
無視
##面目
動か
違っ
##ーター
にこ
具体
午後
義父
視界
電車
##たる
メッセージ
会社
吉田
教師
行か
通っ
##じっ
ござい
さま
真剣
##まず
グループ
レジ
文章
一般
全員
語り
迷惑
対する
読む
##ーキ
チョコ
ポイント
痛み
##パー
気づか
申し訳
価値
邪魔
##メイト
##ビング
かす
傾げ
寄せ
##んと
かね
でる
ほぼ
問う
聞こえる
おけ
おら
アニ
気配
調子
そっち
リビング
組み
責任
##立て
ぱっ
使う
変わる
抱い
足り
##ンク
##り込ん
マンション
文句
見当
あゆ
よる
機会
趣味
##ニス
##はは
あゆみ
よい
建物
打っ
残し
認め
##じめ
##んど
##そこ
しかも
クラスメイト
もともと
引っ張
当たり前
川奈
自覚
食べる
いろんな
コミュニ
かっこ
つける
姿勢
我々
珍しい
約束
褒め
戸惑
日々
楽しい
遠慮
##たん
ひどく
一言
渋谷
漏れ
週間
##テル
##スク
うる
少ない
捨て
せっ
イメ
グラス
不満
告げ
味噌
格好
看護
##らさ
テレビ
パー
優しく
心臓
正面
残さ
若い
荷物
詰め
道路
限ら
##イス
##そり
やりとり
近づい
イメージ
どっち
スカ
監視
##立ち
ひどい
##すら
言い訳
##ーテン
出さ
微妙
東京
流し
##いち
##イク
もらえる
きょ
やば
中身
使い
大会
握っ
本来
##フト
振り向
ぽつり
フェ
布団
機嫌
真面目
誤魔
小さい
##ょうぶ
立ち上がる
だいじょうぶ
誤魔化
仕草
盛り
解決
##ワー
仲良く
させ
そりゃ
もた
修学
基本
張り
見送
##しめ
回っ
穏やか
隠し
##々しい
##ひら
浮かべる
正解
精神
恥ずかしい
ふり
リーダー
巻き
時点
満ち
##上がっ
##クション
出来事
久し
図書
##ばん
##取っ
いかに
しろ
まち
プール
指先
毎日
深町
渡し
遅れ
##らしい
明るい
やろう
世間
休憩
紅茶
しばし
はっと
レベル
入れる
口調
眼鏡
通し
##ども
いら
ヒメ
上がっ
冷静
動かし
原因
始まっ
明らか
書店
青春
##ぎり
そちら
ベル
夕食
寄生
放課
##ましい
##ースト
落ち着い
ちが
余計
作品
借り
察し
たって
20
さき
よし
下げ
影響
##もっ
##ぱい
けっこう
暗い
滑り
行こう
シャツ
ふた
わり
テスト
ページ
菓子
軽い
しまえ
受け取っ
知識
許さ
##クラ
なくなっ
どうせ
アニメ
吸い
投げ
比べ
消し
開ける
##ンガ
うっ
ステ
効果
増え
短く
英語
##っそり
仕方ない
かま
ぐっ
カード
次第
甘い
男女
置き
言える
きれい
ぜん
わー
企画
背後
薄い
運動
##だし
##打ち
下ろし
手の
気遣
漏らし
肯い
##たま
##んやり
のん
画面
細め
##こん
ウェ
兄妹
残り
眠り
鳴っ
##タン
##入り
おかしい
努力
単純
危険
外し
提案
構わ
焼き
結衣
走っ
返っ
##フォ
やる気
えー
おっ
つぶ
ろく
依頼
失敗
泣き
浴び
秘密
終える
能力
##あっ
##リング
##ニー
ときどき
ちらり
たとえば
とん
ディ
引く
扱い
時刻
藤波
香り
まとめ
すごく
##ッシュ
スカート
めい
候補
始まる
決して
足音
##シー
おかしく
さきがけ
会い
冷え
合う
応援
表現
飲む
かすか
ぽん
テニス
プリ
ホテル
吾が
問わ
風景
風呂
やばい
ケーキ
任せ
入ら
回し
真実
眠っ
自動
##メラ
押さえ
か月
ふつ
スペ
叩く
同様
坊主
小声
感謝
指さ
教団
止まっ
美しい
重い
##合わ
##さり
##の中
だし
とる
やけ
チーム
ティ
ニュ
中心
会う
呟い
文庫
隙間
##かみ
##くし
受け入れ
たった
まとも
せっかく
子ども
揺れ
正確
直接
確信
避け
鳴らし
##立つ
楽しみ
クラ
ベンチ
単語
古い
日常
本物
環境
留美
素敵
花火
##ッション
間違っ
ノック
ヶ月
意図
響き
##寄っ
確かめ
合わせる
ざる
ぼく
カメラ
丁寧
世の中
勘違い
大した
嬉し
紹介
都合
ごく
めっちゃ
もらい
ガラス
ルール
呟く
控え
筋肉
送り
##リア
##さま
##受け
微笑む
問いかけ
変わり
改めて
朝食
突然
自ら
認識
驚き
##ウス
##なみ
思い出す
##ッチン
うわ
かか
ふん
キッチン
人気
対応
打つ
見や
見渡
雑誌
黒い
##わい
##ティー
いちばん
いただき
あえ
叩き
恋愛
戻し
空間
自殺
重ね
##かかっ
たまに
ふつう
しょ
しょう
並べ
動い
反対
未だ
##ンバー
10
ほっと
カーテン
美人
##よい
##ャー
アレ
バー
使わ
割り
受ける
成績
折り
書く
空い
立場
訪れ
語る
違和
##らめ
こん
我が
男の子
ご飯
そば
低い
良く
送る
進め
##っぽ
立ち止
スポーツ
ふふ
利用
右手
天井
観察
野球
##こち
##切っ
##ぶり
立ち上がり
らしき
何事
家庭
帰宅
現れ
番号
非常
##ーズ
ぶつ
学生
派手
重要
大きい
こぼ
さし
ノリ
事故
全体
多少
失わ
手元
曖昧
##イラ
##止め
##フェ
バカ
動物
欲しい
死に
込め
高く
##かさ
##ロン
##覚え
##in
いったん
考えれ
ちがう
優し
勝負
必ず
##がい
##メン
だいぶ
ちなみ
ぼんやり
季節
希望
揃っ
睨み
走り
集金
##ランス
##さっ
ちらっ
チェック
イン
以来
十分
怒り
恐怖
新聞
追っ
##早く
タイム
づらい
ボタン
将来
漏らす
発言
見かけ
計画
試合
警察
##これ
ありがと
ころ
ぼっち
多分
孤独
寄り
徐々
我慢
持た
未来
柔道
越し
関し
##まえ
##はや
起こし
すん
カマ
マフ
仲間
偶然
奇妙
小首
少年
思える
数学
##ーパー
##ぷり
あえて
がっ
ぱち
冷蔵
取れ
太一
年齢
担当
##しょ
##だん
##づけ
あらゆる
京華
実行
店内
最終
現在
男性
耐え
辺り
##きり
##くす
思いつい
##っこり
付き合っ
過ごす
明るく
カマクラ
もはや
働い
案外
種類
細い
##ルト
いっぱい
和泉
幸福
理屈
目指
確実
##くる
##らり
起こっ
入り口
知り合い
手のひら
マフラー
みよう
ノート
メモ
意志
気まず
置く
跳ね
閉め
##掛け
ものごと
あれこれ
付き合い
すり
だめ
一部
半ば
実感
寄っ
届い
悩み
手段
柔ら
買う
野菜
##ッサ
##がし
くっ
切る
反射
店員
当時
瑞穂
詰まっ
躊躇
遊ん
開き
##くい
##ブル
向き直
おこう
ヒイラ
事務
勝ち
挙げ
決定
深田
遅く
集め
電子
たまたま
ヒイラギ
びっくり
カウ
スイ
スキ
ハイ
大志
締め
##マー
だり
よほど
オー
パス
心地
指示
条件
痛い
調理
進む
##ーフ
##ロウ
##落ち
やっぱ
くせ
ママ
加え
後悔
校舎
正しく
濡れ
選ぶ
##ばっ
##さか
出会っ
ワン
一生
今年
作家
具合
安全
悲し
整え
日曜
求める
済む
迎え
遠い
##ンパ
##ブレ
##心地
##っちり
かつて
シフト
協力
同意
告白
安堵
巡ら
悩ん
背筋
評価
誘っ
集団
##シャ
##ーチ
##ッカー
##がみ
##当たり
ぼーっと
よそ
ツグ
埋め
発見
読書
適切
馴染
##やし
バイト先
差し出し
間違え
##ine
ツグミ
あき
佐藤
回り
広げ
悪かっ
成功
最高
着い
誘わ
関心
##立っ
##振り
うまい
まさに
振る舞
手伝っ
line
いこう
すげ
にっこり
ひた
ネット
フィ
メリ
休日
団体
把握
様々
注文
片手
現場
進路
##イド
滑り台
ヒキ
ラブ
ロー
伏せ
左右
幸い
殺し
語っ
##たび
##直す
できれ
っぽく
フォロー
nh
せめて
のみ
トラ
事件
事態
何故
千尋
大切
成長
放り
間に
飛ん
##クシー
見つめる
しゃべ
nhk
アド
アホ
セット
デート
住ん
反論
売り
安達
寒い
放っ
泣い
試し
##ったり
##ケーション
コンビ
きっかけ
指さし
うむ
スケ
健康
嫌わ
感触
新庄
暗闇
温かい
神経
組ん
義理
駅前
鳴り
##なわ
##でに
立てる
いさ
世話
好意
年間
得る
暮らし
病室
運ん
頼り
##かせ
例え
動く
参考
現代
終わら
総武
編集
舞台
表示
見守
##ーカー
##くれ
##通り
あっさり
楽しん
いささか
あはは
トキ
一杯
倒れ
傾げる
優美
太陽
宗教
急い
新た
祭り
霧子
響く
##って
##よそ
##分け
##ニング
苦笑い
だらけ
いざ
すでに
たる
主人
卓也
寿命
想い
混乱
範囲
細かい
翌日
要素
足取り
響い
##ます
##ばし
尋ねる
あらた
アルバ
おと
みせ
ゆえ
一体
下り
保護
意思
拳銃
支度
残る
流れる
進行
逸らす
鋭い
集まっ
##かしい
美味しい
見やる
サラ
ミス
初め
好み
弁当
暗く
試験
##ウト
##すり
##わさ
##もう
##組み
##捨て
確かめる
手伝い
つれ
アピ
完璧
役員
復讐
捻っ
詳しい
賭け
驚く
##あい
##ぐる
キャラ
アピール
がら
きゃ
アップ
サブレ
タクシー
デザ
今さら
去っ
直前
秦野
苦労
##しっ
##引き
##ジュ
覗き込ん
さー
カー
バレ
台詞
喋り
待た
眺める
要する
##ッコ
##ザー
##ニュー
まずい
コミュニケーション
ニュース
優美子
くさい
ひそ
メニュー
一口
乾い
冷たく
助かる
含ま
吸っ
回る
慎重
攻撃
整理
歩み
狭い
胸元
##かす
##越し
かまわ
かかわら
あて
やっと
センター
厳しい
同級
固まっ
左手
怪訝
手間
教授
晴れ
柔らか
知れ
結び
肉体
##もの
##ィン
ありがたい
いえる
うえ
かわい
クミ
一日
伝える
伝わっ
信頼
全力
唯一
失礼
手前
時折
有名
激しい
聴い
自販
走る
近所
##けない
##しゃい
さっさ
見当たら
誤魔化す
やたら
優秀
広がっ
必死
掃除
書類
最低
海浜
無論
##ルー
##あれ
気づけ
ともあれ
いける
かき
こめ
ばっ
ラー
店長
抜き
病院
総合
良かっ
行け
行わ
通じ
遊戯
ファッション
コンビニ
さっさと
おー
だん
っす
つま
はー
キス
スク
スーツ
体験
余地
効率
告げる
喜ん
搔き
教科
止める
独り
研究
説得
##べく
##よく
##ジオ
##ゅう
どうぞ
なるべく
プレイ
シャワー
##ンプル
面白い
ティー
うう
うつ
たー
サー
ライン
乗せ
交換
払っ
指し
機能
見下
##去っ
くるり
きょとん
プリント
ラーメン
ぎり
ドラ
下手
交わし
今後
列車
受話
呟き
地面
平気
年上
捉え
服装
段階
義妹
設定
調整
足元
頼ん
##いや
##じゃ
##切る
##セン
そこそこ
受け取る
恥ずかし
ディス
控えめ
トキワ
うか
おも
きち
ぐる
エレ
カラ
カフェ
内側
取ら
夜中
居心地
捻る
望ん
目立つ
積み
駄目
##込め
##リーン
あっち
いやいや
可愛く
さっぱり
まちがっ
おう
カレー
パソ
マシ
一切
一時
不足
与える
人差し
信用
寂し
応え
戻り
抵抗
描い
経っ
苦痛
高速
##回り
##ッピ
取り戻
だんだん
パソコン
らしかっ
んと
オレ
コップ
夕方
日間
水着
混じっ
示し
腰かけ
若干
記録
黒髪
##ウン
##ましく
##ばさ
##上がり
##ズム
##換え
落ち着か
あらためて
あそこ
さぁ
勇気
勧め
困惑
大岡
引か
待て
明確
膨ら
途切れ
頼む
##ンズ
##るい
##ぜん
##オル
ちゃい
ひとしき
##ランダ
きちんと
エレベ
ひとしきり
シス
休ん
作ら
傍ら
全身
冷め
報告
寝る
対象
忙しい
暴力
染め
案内
正体
窺う
職場
記事
離し
##ろっ
##ッター
##入れる
やめろ
待ち合わせ
見送っ
きゅっ
ぎゅっ
さあ
どん
なれる
ギャ
フラ
リスト
一気
並ぶ
傾け
合い
増し
売っ
果た
注い
済ん
温め
講義
##ざり
##メント
楽しかっ
思い出せ
パーティー
ひたすら
エレベーター
とら
んー
クッキー
会場
広い
推測
機械
洗面
減っ
魅力
##落と
話しかける
わざと
たっぷり
くすくす
こめかみ
ぎりぎり
ゼロ
処理
工藤
張っ
拍手
挟ん
最悪
激しく
照らし
相当
相槌
絶望
警戒
退屈
遅い
選挙
##々しく
##書き
##フレ
##好き
##詰め
そうそう
なかろう
付け足
わりと
見渡し
すみ
たど
ふる
べつ
ゴミ
ダイ
噛み
多かっ
専門
役割
止まる
歴史
洗い
熱心
真ん
純粋
載せ
隠れ
落とす
近づく
エリ
ケース
ピア
ベランダ
中央
微か
怒ら
成り
探す
比較
見上げる
論理
辛い
頼ま
##まい
##わす
くれれ
キャンプ
スイッチ
例えば
デザイン
いよい
かい
かぁ
がる
ざわ
っこ
ふら
ゴール
ジュ
センチ
テンション
メンバー
ライト
即座
同情
怖く
悲しい
愛し
染み
横目
終了
自室
言おう
資料
遊ぶ
限っ
##かかる
##ろり
##回っ
##クト
言いかけ
飲み物
カップル
いよいよ
えっと
ぐい
ぱた
キー
シュ
ラジオ
依存
半端
怒っ
無事
直し
窓際
色々
途端
陽介
##ょろ
##コメ
##レート
##ボン
##ホン
気遣い
スペース
ピン
不幸
共有
好か
就職
指定
揺れる
映っ
流行
深夜
真似
経過
背負
見回し
触れる
##テム
真ん中
はた
アウト
タオル
ノー
ハロウ
人魚
冷や
刺激
午前
含め
封筒
撮っ
漫画
病気
調査
食い
食卓
##じろ
##かん
##ボード
##のめ
##ぱた
##明け
しかた
##ターン
落ちる
打ち合わせ
ハロウィン
やん
トップ
ドン
ドウ
ドリ
交渉
共通
出かけ
叩か
幽霊
悲鳴
摑ん
消える
現状
登校
皮肉
睨ん
立派
臭い
訊ね
証拠
詰まら
##かえ
##マン
##がえ
##リン
取り出す
アイデ
いわゆる
戸惑っ
カウンター
ラブコメ
ぱたぱた
かわり
バック
レシ
一歩
下がっ
俯い
入学
感染
承知
捜し
決める
爽やか
発行
看板
覚悟
解放
読ま
辿り
選び
青い
##あげ
##カル
##過ぎ
##さく
##流し
降りる
上手く
##んどん
すり合わせ
おとな
ma
っぱ
ふぅ
ガハ
サッカー
フロ
先日
加減
勝っ
大和
生じ
目覚
赤い
選手
##ルダー
##取る
##ぶし
##ビス
ステージ
ぜんぜん
ばっかり
シンプル
スピ
出せ
原稿
展開
弁護
従っ
文系
最大
直後
競技
計算
訪れる
酔っ
開か
鬱陶
##ティング
うっすら
どんどん
乗る
外れ
学年
当日
指摘
新人
施設
景色
溢れ
空白
竦め
聴き
自宅
自慢
詐欺
追いつ
遠ざ
##かれ
##まじ
##上がる
##クター
##だち
##ノベ
##寄せ
なくなる
ただし
うんざり
やすく
ぜんぶ
立ち止まっ
こない
まじ
シン
マッ
予感
喜び
大半
大抵
怯え
撮影
淡い
眠れ
着く
苦し
詳しく
重く
隠す
離れる
震わせ
##当て
##締め
ついに
リアル
見守っ
サービス
こないだ
かん
すい
ひっ
べく
エア
上がる
了解
予算
仮説
少々
感動
数字
正し
添え
素晴
絵里
至る
見合わせ
見覚え
覚まし
証明
逃げる
関わり
##ざと
##ッキ
##取れ
##やい
いやー
押しつけ
どおり
はろ
めんど
れれ
イヤ
サン
シート
変える
常識
成立
担任
推薦
期間
溜め
特殊
管理
聞け
複雑
赤く
踏ん
運命
##ルク
言い聞
いちいち
アイス
サイズ
こぼれ
ささ
ビル
ベスト
ラノベ
働き
売れ
息子
抱く
更に
望遠
理想
薙が
錯覚
開始
##向き
##寄り
打ち上げ
笑い声
閉じる
いただけ
伸ばす
柔らかい
##ジュール
きつい
さり
させる
さほど
てく
はっ
ひじり
スプ
タイト
実現
弱い
払う
支え
殺さ
漂っ
神社
薄暗
訝し
速度
関する
##コール
##焼け
##ートル
過ぎる
いただい
突っ込ん
えーっと
じみ
ゲー
ブレ
下げる
再会
尾行
届か
怪我
悪魔
抑え
握る
架空
混じり
組織
老人
肯定
荻上
見逃
警官
部長
鳴る
##われ
ちらちら
しゃべり
スケジュール
っぱなし
あけ
がた
つら
てっ
よれ
ハン
ヘッド
メートル
レコ
人目
分け
外見
実家
少なか
横顔
照明
街灯
道具
##ちこち
##まま
##めき
##ごく
##替える
##ダル
##置き
チャンス
引っ張り
クラブ
すげぇ
アイデア
いたし
かかり
ぶっ
ほー
むずか
ピース
ペット
内心
労働
包ま
向く
容易
幼馴
拭い
果て
治療
珍しく
確保
職員
覗い
運営
##イズ
##まだ
##レイ
##ネル
##ビー
しかめ
まだまだ
とっく
見つから
起こる
戸惑い
201
幼馴染
しゅ
つな
とい
ひら
めかし
キミ
クス
サウ
ルーム
便利
出版
出入り
単に
単なる
回転
土曜
夫婦
来年
表紙
解釈
超え
鳴き
##イプ
##ヤー
##ろしい
##まけ
##ばら
##ガン
##ズミ
##ジャ
##ぼう
##づい
##暮れ
思いつか
すぐさま
いちおう
##ライド
パンツ
真っ赤
こい
こっそり
つっ
へん
スーパー
ナイ
ビール
マグ
些細
交互
優れ
半年
嬉しかっ
実在
宿主
巨大
数え
断る
注目
温か
空き
表面
貸し
迷っ
鮮やか
##ろす
##わしい
##そく
##はよう
##オケ
考え込ん
思い浮
おかし
通り過ぎ
振り返り
帰り道
握りしめ
カラオケ
あわせ
おはよう
どっ
にくい
みな
コール
コース
シェ
上下
今更
付い
僅か
到着
前提
台所
味方
大勢
妄想
抜い
押す
指導
新鮮
昨夜
根拠
決まり
素早く
順調
##じみ
##ろき
##キン
##ュア
##ぶっ
コミュニティ
振り向い
ふたたび
max
そー
ドライ
ビニ
リスク
上目
下着
主義
冷た
努め
化粧
可哀
変更
宣言
寂しい
届く
恐れ
悩む
昼休み
滲ん
誤解
送ら
震える
##かろう
##送り
##張り
##払っ
吐き出し
ライター
動かす
きょろき
振り向く
あきらめ
メリッサ
サラダ
ビニール
きょろきょろ
きわ
はじめ
よぅ
アカ
ハウス
リズム
不快
丸く
余っ
働く
喧嘩
嚙み
後半
才能
持て
振ら
目つき
腕組み
見据
見受け
認める
運び
過剰
遣っ
関連
降っ
駐車
鳴子
鼓動
##こり
起きる
##ディア
レコード
とけ
エプ
ギリ
セックス
ボックス
マイ
レスト
不審
以降
会釈
住宅
公衆
包み
喜ぶ
屋上
彼氏
志望
技術
拒否
斜め
歩道
水星
留め
積極
立た
耳元
行事
襲わ
覚め
訊き
運ば
順番
##ウント
##き出し
##返さ
##殺し
##スター
##ぱち
ジャケット
スキル
システム
サウナ
可哀想
エプロン
あざと
ぐらい
しも
ちまっ
はて
ほしく
アプ
ガール
デー
パターン
レーテ
中二
人数
前後
失う
尽くし
心中
愛さ
愛想
明け
望む
死体
毛布
永遠
症状
発表
腐っ
謝っ
部員
頼み
首筋
##とめ
##リカ
##エット
##ずら
##ノキ
ともかく
覗き込む
目指し
素晴らしい
タイトル
クスノキ
おこ
こくり
グラ
ホーム
ボウ
垂れ
夜空
嬉しく
完成
寝室
意地
整っ
文学
楽しく
温度
至っ
角度
許し
迷い
騒が
##すっ
##がれ
##張っ
##行き
##でも
思い当
見つかっ
見つける
おいしい
クリーム
手伝う
ぶんぶん
フェス
とんでも
思い浮か
レストラン
あちこち
きか
ぴたり
まー
もしく
よぎ
アク
バランス
プラス
五十
先送り
出口
友だち
合わ
名乗
夕暮れ
岡田
惹か
手渡
折れ
散歩
日差し
水面
洗濯
渡す
満た
片づけ
発生
登場
紛れ
絞り
行方
集合
顔立ち
##ぐい
##そる
##リティ
##苦しい
##隠し
##恥ずか
書き直し
ストレス
かわいい
もしくは
うな
がん
つまら
ふーっ
めで
アン
キモ
グッ
ダンス
ブラン
ポジ
一息
不良
不明
地域
妊娠
寝転
徹底
戻す
払い
歪ん
気恥ずか
渡っ
炬燵
特徴
甘え
眠る
足早
進学
遥か
##イム
##よっ
##テン
##びり
##切ら
##起こ
いっそ
こそっ
なにしろ
飛び込ん
アドバ
アルバイト
いじめ
てっきり
へー
ほの
まえ
クール
テイル
フル
メイド
上がり
合同
好奇
巻い
手招
拾い
揺ら
教える
早め
有志
洗っ
溶け
澄ま
熱い
片方
維持
覗く
誘い
貰っ
##ざし
##ねる
##タニ
##てい
##サー
##ぼけ
##ノリ
受け入れる
ショルダー
ジャージ
スタイル
ふふん
まじまじ
エアコン
12
おまえ
なろう
ふいっ
パジャ
ヒール
メイン
並み
中年
人前
信者
前方
動揺
呑み
唐突
唸っ
堂々
安定
忙し
慰め
放つ
教育
暑い
特定
羽織
習慣
脱い
若者
衝撃
要領
見開
訊く
負担
載っ
通話
金魚
飽き
##立た
##やす
##セント
ひとまず
聞かさ
スポット
##フォン
##のめり
パジャマ
さして
すま
ふーん
カバー
ドレス
ハード
フリ
会え
叫び
地獄
客観
手早く
拍子
掲げ
暮れ
生命
異常
祝い
職業
脱ぎ
芳江
要求
覚える
親友
通路
限界
電気
##ッケ
##わか
##にち
##放し
浮かび
飲み干
繰り返す
信じる
かえって
誤魔化し
とんとん
いた
きら
だす
とれ
はに
わぁ
オタ
テープ
トーン
トースト
ピンク
交流
人影
今夜
再婚
前のめり
勝て
即答
回答
失望
始まり
心底
心理
懐かしい
方針
曲げ
照らさ
片付け
発想
越え
配慮
預け
食っ
食器
駐輪
##じて
##どころ
##立てる
##巻き
ついつい
いくぶん
おそる
切り出し
落ち着き
ショック
ブラウス
向き直る
ドラマ
果たして
さりげ
けして
たげ
ひっくり
ゆる
ゴム
サイト
ジョ
ペース
傷つけ
刺し
動画
半身
反省
取れる
合図
囁く
嫉妬
崩れ
忍び
恐ろしい
憶技
探り
殺す
沙汰
海外
率直
王子
疑い
目玉
移っ
親しく
話せ
財布
車内
選ば
面談
##とっ
##去る
##付い
##出そう
##洒落
くるっ
つくっ
##しゃる
ショー
うるさい
##ッピング
イヤホン
あらか
お洒落
くい
さい
ざっ
つばさ
ばっちり
ひっそり
フレ
ブルー
ポニー
ミルク
一致
主張
似合っ
働か
医師
危う
収め
団子
囲ま
奪わ
姉妹
嫌悪
室内
対面
患者
断り
月曜
本音
沈ん
渡さ
演奏
球技
用事
用心
直す
睡眠
硬く
窺っ
経緯
罪悪
親戚
証人
謝る
購入
輝か
金曜
騒ぎ
##あわせ
##ウンド
##シップ
##ごい
##ポート
##延び
##ぞろ
##遣い
思い至
やり取り
すれ違
頑張る
撫でる
抱きしめ
オレンジ
ドリンク
絵里子
きわめて
アカウント
えぇ
がたい
そっくり
にやり
グリーン
ボトル
レンズ
使え
修正
勤め
大好き
天気
定期
当たっ
応える
手札
昇降
検討
淹れ
漏れる
白く
相応
耳打ち
薄く
被害
規模
##まさ
##めい
##おそる
思い返し
たいてい
##ライズ
組み合わせ
ぱちぱち
おそるおそる
あわ
お腹
かから
ぴったり
ウォ
デスク
モテ
リコ
ワード
体勢
前髪
動作
呼べる
基準
如く
巡り
心当たり
愛情
手袋
断言
日記
次々
歓声
歪め
潜め
焦っ
燃え
異性
祈り
聴く
見知
達成
遮っ
釣り
静まり
面接
願望
##しり
##しめる
##ンセ
##ごろ
##笑い
うんと
可愛らしい
受け取り
アルコール
くすり
引っ張っ
つぶやい
ドン引き
フロア
鬱陶しい
ほのか
こもっ
した
はは
ははは
スープ
ソフト
バンド
ペア
ミニ
一種
中途
保っ
信号
切ら
含ん
察する
対照
屋敷
憐れ
懐かし
握ら
果たし
殺害
混ぜ
点数
熱く
理性
発作
破壊
端的
衣装
観念
豊か
責め
走ら
追加
醤油
金属
頼る
##いま
##かた
##あう
##カチ
##ょい
##ょぶ
##らしく
##ニック
からかう
同じく
もらおう
浮かぶ
あんま
もったい
さっそく
バスケ
だいじょぶ
ふらふ
冷ややか
おまけ
ぜひ
だー
やれる
カースト
シンガ
ハマ
ペーパー
モノ
ワイン
一角
京都
例外
健全
割っ
四十
広がる
建て
情けない
愉快
憧れ
救い
最中
残ら
気温
汚れ
決意
活躍
流さ
空け
脳裏
解説
貼り
進ま
進める
首都
##キュー
##ょこ
##返っ
##ラム
##だら
##んなり
いっしょ
くるくる
思いっきり
たいした
ただいま
気づき
生きる
##ティブ
追いかけ
比べれ
レシピ
84
いよう
ぎこち
くし
たがる
へえ
ほしかっ
よさ
センス
ソース
ドキ
ネタ
ホワ
上っ
不可
低く
体温
促し
喫茶
器用
城山
守る
対策
尽き
応じ
思案
打た
揃え
描か
揺らし
暖房
書籍
検索
歓迎
殺人
油断
深刻
焼い
疑っ
痛く
瞬か
見事
視野
許可
身近
輝き
追う
遅刻
集まり
静寂
##ナル
##コア
##抜き
##ぽど
##ボール
##付ける
##作り
##混み
立ち尽
さらり
よっぽど
くだら
ショップ
そっぽ
リアクション
ヒキタニ
ふらふら
おれ
しら
せよう
づら
にゃ
ふさ
ウザ
ハンド
フリー
マイク
人混み
体内
促す
倒し
勝利
包丁
受付
吊り
吹い
地図
大型
天使
定義
広場
悪意
拒絶
昼食
染まっ
毎年
渡良
特有
用い
睨む
背け
規則
読め
負ける
返信
郵便
離婚
黄色
鼻歌
##あがっ
##ドキ
##らう
##んじ
##ラル
##続き
##入っ
##ns
##加え
ますます
生き物
切り替え
問いかける
ジャン
真っ暗
出会い
ライブ
もたれ
取り戻し
##落とし
アドバイス
オタク
ホワイト
渡良瀬
cd
いび
うろ
しん
むっと
アリ
カット
ジェ
スパ
一定
企業
値段
凄い
厄介
合宿
回す
埋める
増える
外出
女王
座席
忙しく
操作
歌っ
法律
片隅
犯罪
紙袋
細かく
舐め
誠実
通る
頭痛
食材
##ナス
##トラ
##ッタ
##なかっ
##らん
##返り
##にこ
##着い
##ポール
巻き込ま
うわぁ
目覚め
ひらひら
グッズ
がかっ
くいっ
ぐいっ
ごま
てこ
ぶつけ
へぇ
やー
ツイ
ポーズ
下さい
事項
交通
勝つ
化け
口ぶり
外す
強制
懸命
手持ち
探る
映る
有効
横た
欠伸
犠牲
直感
示す
空っぽ
細く
緑色
羽目
解い
通う
達し
遣い
重なっ
金髪
飛行
##ーイ
##むね
##つり
##ッと
##取ら
##チェ
##過ご
##レン
##ずる
言い回し
押し付け
持ち合わせ
コーナー
スマート
おおよそ
おおむね
ほんのり
出会う
だらだら
##ンタイン
ろくに
こんにち
目指す
##ぐるみ
バレンタイン
つまん
ディスティ
少なから
いびつ
はあ
エンジ
クレ
ビジ
ホール
主に
人類
倫理
傾向
優先
光っ
冴え
合格
営業
堪え
夕飯
屋根
必然
怪しい
惨め
手作り
映像
時々
江森
混雑
灰皿
物事
理系
番組
発し
目線
目標
行う
観光
誘う
進藤
酷い
限定
願っ
類い
##がかり
##ぼっち
##ティック
いまいち
ひょい
飛び出し
##らっしゃい
ブラック
にこにこ
盛り上がっ
ぐいぐい
おとなしく
溜め息
くいくい
シンガポール
こんにちは
おっと
さも
とう
ぬい
のぞ
ゆっこ
オープ
サイン
セーフ
丸め
交わす
伝わる
似合う
体力
使える
商品
壊れ
夕日
寄せる
広く
廃墟
強引
役目
心なし
抱か
抽斗
排除
描く
放置
本日
枕元
気合い
水槽
湧い
潤ん
生ま
疲労
目元
眠気
終始
育っ
脳内
自嘲
返答
頻繁
##かせる
##うっと
##こむ
##まぁ
##なす
##なら
##アンス
##出る
##はっ
##厚い
##越え
まぁまぁ
##ラスト
取り返し
聞き覚え
打ち明け
持ち上げ
呼び出し
思い出さ
踏み込ん
よろしい
チャイム
柔らかく
独り言
##フレンド
たどり
ささやか
ガールフレンド
あたる
かっこう
しみ
ばら
エス
サンタ
スリ
ターン
一礼
上り
下駄
乳房
個性
内部
力なく
固く
大量
失い
奇跡
帰ろう
模様
欠け
気楽
淡々
済み
渋滞
犯人
真顔
確定
背景
装置
親しい
解答
読者
進み
過程
風邪
飾り
##カム
##こく
##こと
##らせ
##だい
##ヴァ
##at
##走り
##デル
##デン
聞き取れ
持ち主
付き合う
いただく
ダメージ
真っ先
リア充
にこり
ウェイ
向き直っ
ローファ
むずかしい
キモい
ぬいぐるみ
sns
じっくり
でかい
ぼうっと
ゆく
ウケ
サボ
シチ
会計
使用
出かける
効い
吸う
学習
定番
履歴
帽子
幸運
後方
成果
抜ける
接し
放送
本格
材料
構え
権利
理論
眉根
砂糖
空中
緩め
覆い
見届
迫っ
透明
避ける
集まる
食堂
##りっ
##ッツ
##ばす
##クタ
##おい
##ar
##舞い
##ギー
やすみ
スタート
なおさら
しかたない
おかしな
さりげなく
19
たた
ひき
ぶち
むむ
アナ
アトラ
イケ
オフ
キラ
シーン
ネコ
バット
ヒロ
メイク
不吉
今朝
付近
会わ
住む
体調
停め
児童
向か
周辺
唸り
天体
天谷
尖ら
忘れる
揺さ
新刊
映し
概念
武装
沈み
消す
独特
現れる
盗み
社畜
繋がり
舌打ち
親切
解け
詳細
誘導
転がっ
随分
静け
##きら
##ざっ
##ッフ
言い添
向こう側
踏み入れ
##レーション
真っ白
ニュアンス
間に合わ
見据え
いたずら
アトラクション
静けさ
あしら
きゅ
くすぐ
ずれ
なぞ
サプ
タニ
モード
ラケット
事前
亡く
代表
仮装
任せる
共同
再開
去年
吹く
固定
大声
容姿
屋台
平均
幸助
強調
急ぎ
性質
救わ
新宿
本質
校内
注が
浅く
浮い
潔癖
点け
目撃
礼儀
美大
義務
観客
解き
議論
這い
運ぶ
都会
頼ら
首脳
黙々
##回る
##抜ける
##リオ
##出せ
##ィー
##ぼろ
##焼き
##通し
##ングラス
差し掛
頑張れ
呼びかけ
##ディガン
にこやか
アルバム
カーディガン
スプーン
いじっ
およそ
がり
くさ
じーっと
つづ
づけ
はしゃい
ふわ
みせる
カラス
ガン
ネズミ
ユニ
一目
一斉
上着
入院
叫ん
在り
地味
履き
帯び
急速
性的
情景
挙げる
撮る
放り込ん
政治
断っ
昨年
有能
木々
湯気
溜息
演技
物音
発揮
的確
着信
福助
結ば
行ける
複数
見学
言動
訓練
話さ
間近
頼っ
黙り込ん
##しみ
##ぐれ
##ばた
##そっ
##チャ
##ソン
##ぜい
##っとも
ちょいち
ひとと
取り繕
せいぜい
楽しむ
踏み出し
恥ずかしく
乗り込ん
駆け寄っ
チャン
見渡す
売り場
見下ろし
付け足し
ダイニング
シュート
鳴き声
ナイフ
ヒロイン
サプライズ
ちょいちょい
あがっ
あがる
うっかり
つづけ
はしゃ
ぺこり
カタ
ココア
マル
一刻
中間
今頃
内緒
出よう
助かっ
収まっ
受信
場面
妥当
家事
履い
崩し
年下
強烈
慌ただ
手近
抱える
指差し
最強
業務
漠然
甘く
硝子
笠井
群れ
翌朝
致命
訊か
設置
責める
貴重
賛同
足下
返さ
通知
重み
鋭く
障害
騙さ
##ろしく
##けなく
##まわし
##たれ
##たて
##ライト
##起き
##モン
##ずり
##留め
いいえ
しまおう
受け止め
引き上げ
引き受け
差し出さ
ええと
シャッター
近づけ
##ディング
はーい
ううん
アクセ
きらきら
ドキドキ
生まれる
あちら
うら
えへ
かし
かく
かぎり
くしゃ
たろう
つまる
ぶる
ほっ
まして
まわっ
エント
クソ
パラ
ヒー
マン
予約
住所
保健
前回
動け
包ん
危ない
厳しく
呆然
唸る
回復
土地
圧倒
大将
幼い
恨み
推し
提供
極端
灯り
無邪
狙い
狙っ
生物
生じる
異様
硬い
箇所
説教
資格
赤組
転換
通す
関わっ
顔色
魔法
##かかり
##ウム
##るし
##より
##ぐら
##ピー
##チック
##スタ
##ジー
##下ろし
この世
入れ替
生き延び
起こす
降り注
さながら
ごとく
コミューン
吐き出す
ウェア
我が家
心地よい
薄暗い
アプリ
騒がしい
立ち尽くし
無邪気
こなし
ごろ
そわ
ぴくり
まん
やめる
アメ
ウイン
トイ
バッ
ボディ
マンガ
モチ
ロボ
伝わら
再現
出勤
力強
勤務
叶え
守っ
当たる
手順
拭う
替え
本能
根本
構成
殴ら
泣く
浴衣
点検
確率
積ん
簡潔
襟元
贈り
通学
##かつ
##キュ
##キラ
##くろ
##ほう
##がた
##そわ
##だす
##やっ
##の間
##ぶら
##ビュー
##向け
##構え
##並み
なんぞ
さらっ
行き先
飲み込ん
申し上げ
馬鹿げ
##ナーチェ
にこっ
締め切り
メリット
ピアス
ざわめき
ゲーセン
マイナス
ハードル
したがっ
そわそわ
##ナーチェック
11
あう
あたっ
かぶっ
こく
すっきり
ずるい
どき
ぺら
ウィ
パック
ヤナーチェック
ルート
ロール
一見
一連
以下
仮定
休む
偏見
傷つい
先端
光る
全国
共感
再度
分厚い
前置き
動機
地元
塗り
孤立
対処
幻想
張る
摑む
新型
新しく
日付
検査
残す
海岸
私立
素振り
絶え
育て
茶色
要因
覗か
解消
諦める
足ら
逃れ
通常
鈍い
難しく
頬杖
##つら
##くら
##テナ
##そい
##だる
##ニア
##下がっ
##ぶつ
##入る
##寄る
ときおり
しれっと
ただただ
とって
クリア
読み返し
ファン
ファミ
スタンド
チェア
フォーク
引っ張ら
気まずい
膨らま
背負い
ヘッドフォン
思い浮かべ
オープン
キラキラ
トイレ
25
ok
きい
こら
たがっ
ちま
ひね
ぽち
わき
わが
イラスト
クイズ
コント
ツッコ
ハム
プライ
マス
ムカ
一通り
交代
作れ
作れる
兄弟
大体
安い
改札
昼間
曲がっ
最も
楽器
涼しい
混み
清潔
温もり
漂う
演出
用件
療養
着る
絡ん
繋い
色んな
艶やか
解散
講習
謝罪
輝い
迎える
連想
遺伝
陽光
集める
電源
騒い
##ヤモ
##ーマ
##カナ
##げさ
##ダム
##プレ
##残し
##たくし
いわば
パーセント
見送る
ふふっ
ぶつぶつ
トラブル
うつむ
フラット
言い聞かせ
思い当たる
手渡し
ホワイトボード
ad
くわ
せれ
めちゃ
もつ
らし
わたくし
アス
イラ
スス
スライド
トレイ
バーテン
ヒント
ビビ
レンジ
並び
人形
伴う
偉い
味わ
喋っ
嘲笑
嫌っ
寒く
対抗
尊敬
居間
引け
想定
拗ね
指す
挑発
掛ける
掴ん
提出
散ら
本心
本棚
残酷
毎度
沿っ
演劇
留守
祖父
禁止
移し
素人
組む
肝心
腰掛け
覆わ
見抜
親指
解く
記念
記者
試み
販売
賑やか
辞め
通用
頃合い
飛ばし
鳴らす
##ーラー
##クリ
##ぽん
##切れる
##ぶる
##後日
##呑み
なくし
引き結
あげよう
差し出す
引っかかっ
落ち着け
ショート
乗り出し
しゃがみ
ブレザー
あらかじめ
ごみ
しな
しきり
たか
にく
よぉ
れよう
サーブ
チキン
ブロ
マーク
モール
リボン
促さ
充実
入試
分野
合流
同僚
噛ん
囁い
困り
地上
地球
地点
奪っ
存外
実質
平和
平日
広告
弾丸
待機
手首
据え
料金
晒し
歩調
無茶
痛ん
結ん
美しく
考慮
見込み
言語
語ら
資質
返せ
遊園
部外
間抜け
難し
革命
食品
高額
##ヤーク
##合え
##むろ
##こっ
##どろ
##ぼり
##84
ちょっ
でしょー
ほんわか
見せつけ
後ろめ
なーん
キャンパ
きっぱり
上手い
チョコレート
吸い込ま
ろくな
インカム
振る舞い
ひそめ
ぐるり
ぐるぐる
ギリヤーク
よぎっ
ウザい
ハンドル
バーテンダー
キャンパス
あから
おや
きっちり
こだ
すす
たぁ
ちん
ども
ふわり
わたっ
んじゃ
エピ
グレー
スター
チケット
ネクタ
パート
ビーチ
フード
ポット
メガ
モデル
ユー
一旦
上品
下っ
伴っ
作戦
助手
土産
大げさ
応接
悔し
投票
探っ
描写
文芸
早口
横断
止まら
正論
正常
歳月
比べる
注ぐ
浅い
涼し
渇い
満々
溜まっ
生地
矛盾
社交
祖母
積ま
空想
竦める
絡み
繋がっ
美し
芸術
袖口
貴様
軽やか
辛う
遮る
酔い
隠さ
高級
髪型
##ウェ
##トン
##ざけ
##ぐっ
##言い
##払う
##ベキュー
##投げ
##ハラ
##暮らし
思い切り
ほんとう
聞き流し
差し込ん
頑張り
落ち着く
繰り返さ
仕方なく
スタッフ
フォン
バーベキュー
##シャル
フィル
歩み寄っ
スクリーン
ピアノ
見逃し
ハンカチ
盗み見
アメリカ
ロボット
わがまま
あからさま
ネクタイ
辛うじて
しがみ
じゅう
たじろ
ったら
はめ
ほぐ
ぼろ
インター
コメント
サーク
タッチ
ドーム
フク
プラ
ポスター
ミラー
云々
仕切り
仰向け
体重
停止
偽物
再生
加速
去り
収まる
味わっ
喋る
外国
多数
小走り
年代
彩加
愚痴
所属
拭っ
搔い
早々
最適
欲求
混ん
火曜
物理
瓜実
異なる
登録
科目
経つ
自立
被っ
見かける
訴え
詰まる
諸々
述べ
野郎
関わる
食う
高井
高円
##々し
##きわ
##めく
##ドル
##ロール
##とど
##がす
##リエット
##ご飯
##パン
##もたれ
##ふる
##矢理
##障り
ものす
考え込む
思い込ん
ひと言
##ーンズ
無理矢理
起こり
起こさ
たまら
乗り越え
突っ伏
見送り
のんびり
指さす
ぶつかっ
ノリノリ
振る舞う
鳴り響
ふるふる
ジュリエット
言い聞かせる
ポジション
飲み干し
見届け
亡くなっ
ススメ
高円寺
bg
えらく
がっかり
しぶし
じん
すく
っきり
つくり
ぬく
びしっ
ぽか
カラー
セレ
上位
両方
主夫
保証
信仰
商店
回避
地下
奥底
定め
届け
弄っ
律儀
怖かっ
急ぐ
悲劇
抗議
接客
掻き
新入
暗がり
欲望
注ぎ
洗う
消去
渡り
温かく
潰し
現象
知人
科学
笑わ
芝居
踏む
送信
醜い
隣り
頑な
驚か
##込める
##たた
##リフ
##ジェ
##ニエ
##ネット
##慣れ
##応え
##遊び
思い切っ
見つかる
差し込む
閉じこ
##ファルト
大人び
当てる
アイドル
付け加え
仲良し
見やれ
スキン
馴染ん
キャラクター
ばっか
キーボード
データ
ディスティニ
ヒーロー
アスファルト
bgm
しぶしぶ
あど
いじり
がばっ
しげ
とど
ひい
やがっ
キロ
ギブ
クロ
サングラス
セラー
デジ
ナンパ
バリ
ミリ
ロック
ワイ
世代
予測
人手
伝説
住人
体操
保育
公式
出く
切れる
制作
同居
国語
圧力
夢中
大袈
契約
好ん
守り
安田
対立
小柄
山羊
帰れ
帰ら
幹線
形式
悟っ
意気
戸口
戻ろう
手際
手つき
披露
挑戦
教諭
数多
整える
早速
明後日
書記
桐本
欠い
正式
決断
澄ん
澄まし
無力
焦点
田村
瞑目
知恵
示唆
窺い
絞っ
聞こう
背もたれ
議事
身動
輪郭
辛く
近しい
速い
重大
金額
顔つき
黙り
##しげ
##くじ
##ほら
##ばり
##もる
##びれ
##ソード
##ベーション
##走っ
##高い
##流す
##絶え
いっそう
思い直し
話し合い
浮かれ
すれ違い
ちらほら
打ち明
入り混
すっごい
なおし
うーんと
サイゼ
##ンタル
向かい合っ
もたらす
かまい
ぽんぽん
悲しみ
膨らん
成り行き
スピード
スピーカー
シンフォ
寝転ん
ふさわしい
ジャンル
ビジネ
##atar
えへへ
とっても
エピソード
ディスティニィー
しげしげ
大袈裟
身動き
いそい
おず
くっきり
こっ
さぞ
すかさ
どー
はる
ばあ
ふざけ
ぶら
べし
わっ
イエ
エロ
エゴ
オン
カッコ
スコ
ダミ
ニット
パイプ
ホット
メディア
モヤモ
ラン
不尽
乳首
交差
他者
保険
児玉
判明
原理
厳密
反復
回収
困ら
堅く
夕焼け
大村
怒る
摑み
日焼け
昨晩
構い
決し
温かみ
湿っ
潜ん
濁し
灰色
牛乳
痩せ
白組
細部
胡椒
至極
興奮
色合い
芝生
苦しい
見計
課題
講師
賛成
蹴り
遣わ
除け
零れ
露骨
頰杖
##かち
##かしく
##ルフ
##ンテ
##シュ
##き込ん
##った
##ったい
##ュエ
##リスト
##だっ
##ガー
##スキー
##おず
##交う
##向かい
##帰り
##降り
##ひそ
##捨てる
あった
出し抜け
おそろしく
楽しめる
後ろ姿
持ち出し
入り込ん
っつっ
突き出し
面白く
くすっ
美味い
睨みつけ
間に合う
アドレス
ひそひそ
積み上げ
ジュース
めでとう
エンジン
エントランス
ツッコミ
ムカつく
##ニエッタ
シンフォニエッタ
おずおず
すかさず
モヤモヤ
hr
あだ
おど
か細
っしょ
てれ
ぴくっ
ぶっちゃ
まばら
やむ
ジム
セーター
ゾーン
ドヤ
ノブ
不承
両腕
中止
乱れ
人格
俯き
傷つく
傷つける
傾い
刻み
募集
哀れ
唱え
喜ば
土日
大して
好感
妥協
寝息
専業
居る
市川
平穏
弱点
忠告
悔や
手足
手すり
手がかり
手応え
捉える
掘り
採用
敷地
旅館
早足
晒さ
書け
朗読
消滅
湛え
湯呑み
無人
生理
留まっ
痺れ
瞬く
素材
良さ
衣服
見出
見舞い
許せ
身内
迫力
逃避
通じる
遠目
鉛筆
長年
隔て
青空
飼い
黒板
##しむ
##ルセ
##ざま
##つめ
##つぶし
##わけ
##わん
##ロム
##返せ
##ジン
##張る
##足り
##en
##ぱら
##ふふ
##押し
られれ
考えよう
言い分
よくよく
取り除
いかが
生き残
開け放
プロセ
他人事
##リーマン
呼び止め
ストレ
抜け出し
吹き抜け
サイド
伸びる
漏れ出
うわー
こぼし
馴染み
サラリーマン
指し示
おもしろ
おもむろ
##ッピー
見合わせる
危うく
##レンダー
フクロウ
突っ伏し
スキンシップ
打ち明ける
あだ名
ぶっちゃけ
おもむろに
いん
がふ
がたっ
ぐり
こつ
こわ
ずる
とれる
はす
ばれ
ぴっ
コス
コピー
タワー
ハート
ボード
マネ
ミュ
ロビー
一室
一段
上司
下がる
交わさ
人員
人通り
伝染
兼ね
冷気
出発
勃起
厚い
去る
呼べ
咥え
嘆息
城廻
報酬
壊し
太い
好む
存じ
射精
当初
後日
心得
応募
悔しい
感慨
憎悪
手続き
挟ま
捻り
提げ
改善
敏感
敗北
数十
文通
断ら
束の間
歌い
正当
演じ
濃い
牧原
物言い
現金
生え
生み
田舎
発売
発展
着け
硬直
稼ぎ
結末
縮こ
肝試
肩口
苗字
華やか
襟足
見通し
評判
象徴
買え
込ん
通さ
青年
頼れる
願う
食欲
首肯
鳴い
麻雀
麻痺
##ゆく
##くち
##ッパー
##はん
##ぼの
##オン
##デオ
##ou
##勝手
##er
##消し
##ふれ
##継ぎ
##甲斐
じゃれ
ところどころ
思いつけ
##ストラ
まとめる
申し出
大人しく
ややこ
作り上げ
##ッシャー
盛り上がる
トラック
プレイヤー
積み重
背負っ
ボウル
うなず
しみじみ
こくこく
ちまう
いそいそ
ストレッチ
肝試し
うず
かぶり
こま
しつ
ちび
つる
ねじ
はじ
ぽけ
もたら
クズ
クロー
クッション
コスト
ジーンズ
ブレー
一向
一家
万が
下校
余命
傷口
全て
凍て
包装
参り
叫ぶ
咎める
学術
実験
宣伝
就活
意義
戦慄
戦略
戻ら
擦り
攻め
明瞭
望み
気の
気圧
決心
沿い
浮き
消費
渡る
温める
滑らか
獲得
現に
発する
瞬き
社員
空腹
美香
翻訳
苛立ち
苦い
覆っ
貼っ
輝く
配置
閉める
音声
項目
食いつ
驚愕
鮮明
##ーホ
##くしゃ
##わろう
##ランド
##ラリー
##止める
##ぶせ
##ケー
##飛ばす
##ギリ
##履き
からかっ
言い返し
取りだし
とっさ
引き出し
ありがたく
やめよう
プログ
##リーズ
すっごく
スタンス
待ち受け
逃げ出し
ベルト
ぐっすり
おっか
おっしゃる
手招き
拾い上げ
羽織っ
見開い
すれ違う
シチュー
ごろごろ
モチベーション
贈り物
もたらさ
万が一
気の毒
30
いじ
かっ
すた
っぷり
にて
ぬる
のち
ばい
ほれ
みくじ
よけれ
アタ
エンド
オリ
カレンダー
ガー
キュ
クライ
コード
スノ
トラン
バイ
パッケ
ビデオ
ヘア
上履き
他愛
備え
優勝
写っ
冷凍
刺す
前日
区別
卑屈
印刷
參葉
右側
同調
命令
増やし
売れる
尊重
抑える
折っ
拓海
撮り
放棄
暖か
本番
欲しく
正月
正義
殴り
気だる
流す
滑ら
火葬
爆笑
珈琲
甘露
甘やか
空港
紡ぐ
継続
義輝
蒸し
裏側
視点
親子
観測
警告
資金
込み
迷わ
追わ
追及
逡巡
連続
金持ち
雑務
雑談
離す
面々
順位
領域
魔女
##ーナ
##こま
##くん
##たばた
##もや
##だか
##のり
##ベート
##揚げ
##ハハ
##ぺら
ちょい
思い描
感じ取っ
ひときわ
取り上げ
落ち込ん
プレッシャー
頑張ろう
読み上げ
ちょうだい
まさしく
スタンプ
チェーホ
ブランド
押さえる
ふうん
ちがい
投げかけ
ティッシュ
立ち止まり
立ち止まる
あきれ
ううっ
あけぼの
ボウリング
横たわっ
ばらばら
ひととおり
力強く
ぺらぺら
ビジネス
見計らっ
パッケージ
チェーホフ
かち
げんなり
さくっ
ざわざ
しるし
たて
てらっしゃい
なじみ
ばり
ふー
ぷっ
ほい
んっと
アー
ケン
サポート
トリ
バレー
ヒーター
ビッチ
プライド
ボート
ポール
マスク
ラグ
リュ
レース
ロミ
乾杯
以後
保つ
出席
分かれ
初日
勝てる
同い
和風
器具
囁き
四角
困難
奪い
実体
家具
居住
崩さ
巧妙
急が
怪し
悪口
悪化
感嘆
懸念
打球
扱っ
接触
提示
敵意
本題
来れ
校庭
気力
沸かし
深々
焼く
王国
発光
皮膚
直視
知的
祈っ
積もっ
突か
素朴
繁華
舞い
苦悩
見比
見落とし
試す
踊り
農業
近寄っ
迷う
難い
飲ま
騙し
##回さ
##こそ
##けん
##くわ
##ピュー
##ぽち
##ぽつ
##せと
##おし
##ずっ
##ネーション
##プト
##嫌い
そうこう
##っとり
じゃっ
言い残し
ひとこと
一人暮らし
引き寄せ
後ろ手
シャー
知り合っ
引っ越し
呼び鈴
コンピュー
真っ黒
つきあっ
リアリティ
動かさ
せっせと
もたらし
まちがえ
##ンガー
ステップ
取り戻す
はたと
グラウンド
思い至っ
ツイッター
ぽちぽち
うつむい
パートナー
サークル
ぬくもり
18
きつく
けー
しわ
しっくり
しんと
てて
どきり
ぱん
ぷる
へっ
よかろう
アザ
エン
エリア
サンド
ズボン
ダウン
テン
トマ
ハッピー
ベース
ホント
ランチ
一瞥
二言
仕組み
会える
停電
側面
入ろう
全く
凝っ
出身
別れる
利益
刻ん
割れ
勧誘
医者
及ぼ
堪える
天才
完結
実務
客席
容赦
寂しく
寒気
属し
山梨
市民
弱々しい
形成
思春
恵まれ
悪戯
愛する
戦争
承認
拭き
指差
掲載
損なわ
日中
日程
是非
望ま
木曜
枯れ
極力
欲し
無縁
照らす
特典
目立っ
眉間
睨ま
経済
脱ぐ
船越
装っ
装飾
襲っ
親し
諭す
賢い
通い
遠巻き
遮ら
選べ
都内
都市
防備
降る
面し
高度
##イモ
##ょん
##まち
##くちゃ
##ごも
##にぎり
##さし
##ワン
##オレ
##ふり
##鳴り
##セット
##残さ
##離れ
するっ
なんに
思い込み
思いつき
ありあ
##ールド
二人組
知らさ
食べ物
##ープロム
可愛らしく
行き来
コンセ
いまだ
ストレート
スタン
##らっしゃる
握り締め
調べる
突っ込み
別れ際
戸惑う
まちがい
借りる
202
睨みつける
ギャラリー
付け足す
流行り
辿りつい
訝しむ
相応しい
どきどき
プライベート
メガネ
数多く
入り混じっ
ダミープロム
ミュージ
ざわざわ
同い年
トマト
指差す
いで
うふふ
おる
けっ
こよう
すぼ
たろ
だぁ
つー
つん
でー
でん
とめ
なめ
まぶ
みろ
めくる
わし
スルー
セリフ
テイク
ピック
ポップ
ロング
下がり
中断
乃木
乗客
乱暴
人波
仕掛け
仲よく
似合わ
何者
作成
保存
処分
出せる
分間
刺さ
剣豪
及ば
収める
叶わ
名残
名刺
含み
呑ん
喪失
売場
多め
学ん
完了
導き
小型
希美
平然
後部
手入れ
払わ
拾っ
捜索
放し
暮らす
曇り
曲がり
更衣
校門
歌詞
死な
活発
渋い
減る
滲み
演説
漕い
無用
焦る
甲高い
相性
真意
石鹸
端末
簡素
経営
肩書き
背ける
血液
行い
衝動
裏腹
褒める
見透
観る
話そう
読める
足もと
辛抱
途方
進展
逸らさ
部類
配っ
重なる
陰口
隅々
雑貨
高らか
##キング
##ウンス
##っしり
##こえ
##込もう
##ッソ
##ぐさ
##バリ
##がち
##チュア
##おき
##ぶれ
##組ん
##ベツ
##or
##ギン
##真面目
##ぺん
##思い
じゃう
引き戻
引き金
引き取っ
キャッチ
つくる
ひとりぼっち
突き刺
突きつけ
ぽつぽつ
ぱちくり
オーラ
フィクション
スクール
うかがい
プラスチック
ブランコ
静まり返っ
ぎこちない
黄色い
アナウンス
出くわし
おどけ
ブレーキ
スノー
ロミオ
ありあり
コンセプト
うれ
かぼ
がし
くたび
こくっ
ごはん
しっ
しの
しよっ
じわ
たん
つらい
でこ
でっち
はち
ばん
ひんやり
ふだん
ぽかん
まくり
まくっ
ゆー
カテ
サキ
センセ
チバ
チラ
バシ
パパ
ヒト
一層
不敵
不在
不穏
中庭
乙女
交友
仕上げ
仰い
全校
凍り
出そう
刻ま
助ける
化し
卑怯
取ろう
口ず
合理
呆け
喫煙
回さ
執拗
売る
夏期
大仰
娯楽
実父
寝間
左側
延々
弛緩
強要
念入り
性欲
恐る
惜しい
成人
揃い
支配
植物
欠片
止まり
正す
治っ
混ざっ
清楚
申請
眩しい
眼光
秒間
等しい
緩やか
美容
自粛
虚空
見栄
見よう
談笑
貼ら
転ん
返る
速く
遅かっ
違反
適度
間際
陽気
面会
駆ら
##しん
##かわ
##イツ
##ウマ
##ータ
##回す
##なび
##バイ
##hr
##てら
##がさ
##歩い
##ミュ
##ごそ
##フル
##レオ
##レード
##換える
##変わり
##洗い
からかわ
ちゃおう
言い放
いやあ
またぞろ
つつい
プロデ
引っかかる
いただける
スマイル
##レーター
チェーン
チョイス
かつかつ
照れ隠し
ペンギン
盛り上がり
スペック
重ねる
100
折り畳
跳ねる
##マーケット
成り立ち
遠ざかっ
##ッキング
薄暗く
しゅんと
スーパーマーケット
気恥ずかし
浮かび上がっ
ソフトボール
##過ごし
エスカ
はしゃぐ
まんま
ウインク
イラッ
プログラム
コンピュータ
アザミ
がしがし
くたびれ
寝間着
14
15
うり
きく
さがみ
しず
じとっ
すなわ
だれ
づかい
てき
のけ
ぴょこ
ぶー
ぶつく
むり
むず
もごも
ゆら
アラ
イイ
エネル
オート
コマ
シナ
ジト
ター
ダブル
テーマ
バター
ラップ
争い
代理
代わっ
仲町
何ごと
優雅
利い
動産
卓球
単独
危機
原則
参っ
及ぶ
友情
反し
収入
声援
外部
多様
大柄
奪う
嫌う
学部
定か
幼女
座ら
当番
往復
従う
恰好
悲しく
慰める
憚ら
所作
捜査
捨てる
接する
掲示
揉め
案の
梅雨
構図
欠落
歌う
殴る
決勝
決まる
泳い
涙目
液体
渋々
留まる
異なっ
目の
目当て
眩し
睾丸
紛ら
細める
自習
色褪
苦み
葬儀
蛍光
表れ
裁判
補給
親密
身長
追求
通過
道のり
閉ざ
露わ
項垂
##ルミ
##シマ
##てく
##去り
##だれ
##エンス
##おっ
##無し
##ぷる
##読み
##明かり
##集め
##祭り
からから
あっけ
ありゃ
言い返す
いやぁ
大きめ
キャベツ
起こら
いただけれ
きりっ
ファイル
##ローチ
##イルス
吐き気
語りかける
気づかさ
組み立て
ふりふり
ぶつかる
くっつい
トラウマ
うかがえ
カフェオレ
遠ざかる
サンダル
通り過ぎる
がんば
##起こさ
ひっくり返し
モテる
あしらわ
急ぎ足
つづける
取り繕う
うらや
ファミレス
すすめ
じんわり
積み重ね
ストレッチング
ぷるぷる
かぼちゃ
すなわち
ぶつくさ
もごもご
エネルギー
案の定
色褪せ
13
16
pc
you
かあ
かり
こほ
しんど
じり
すんなり
そん
とんと
なす
はき
はむ
はや
ぼち
まわる
めくり
もや
ゆったり
よけ
よら
わん
わくわ
インス
ウイルス
ガイ
グロ
シリーズ
ソー
ネーム
バン
パワー
ビーフ
ブース
ペニス
ボーイ
マット
ラッピング
リラ
ルー
ワーム
一線
一環
一団
一貫
下ろす
了承
二の
会見
低下
何十
作用
作ろう
修行
借金
具わっ
冬休み
出汁
初夏
制限
助言
助成
反響
台風
台無し
呆気
呑む
呪い
咄嗟
地雷
始末
安易
寄る
寸前
小指
巡っ
幕張
年度
広げる
後者
慣れる
憂鬱
成年
所有
手っ
手短
扱わ
挙手
接点
放題
暑く
曰く
最新
有無
本名
来客
欠ける
欺瞞
歯車
死ね
段々
気合
海辺
浸っ
消毒
漕ぎ
焼け
熱気
犯し
独身
甲斐
畳み
疑念
発動
監督
目立た
直線
真相
着実
瞑っ
砂浜
秒針
空虚
紙束
紳士
給料
続か
緩ん
義姉
蜘蛛
観衆
訂正
訪ね
謝ら
辞儀
通ら
銃撃
馴れ
##じわ
##かむ
##イヒ
##シア
##き通
##たえ
##コッ
##がろう
##チャー
##分ける
##クロ
##もし
##ガイモ
##下げ
##ぼち
##新しい
##づく
##プレイ
##ホップ
##継い
##ペット
##伏せ
##映え
ことさら
なくなり
思いつく
かけよう
取り残さ
立ち上げ
立ち去る
知らせ
##ップホップ
入れよう
すれち
##しらえ
さらさら
聞き返し
無理やり
切り上げ
付き添
まとまっ
##しゃり
近づき
パンフレ
乗り込む
ジャガイモ
ブラシ
うるせ
気遣っ
つぶし
ごくごく
寄りかかっ
勝ち誇
すげー
ディスプレイ
うかがっ
追いつい
てくてく
訊き返し
よぎる
絞り出す
すれ違っ
吊り橋
ローファイヒ
イケメン
チャンネル
かしこ
めちゃくちゃ
下っ端
しがみつい
じゅうぶん
ぼろぼろ
リュック
居住まい
じわじわ
目の当たり
じりじり
ぼちぼち
わくわく
手っ取り
パンフレット
ローファイヒップホップ
17
いと
おろ
おしゃ
がさ
きらり
こて
こすり
じろ
じき
ぞー
ちがっ
はな
ぼや
もて
らん
インタ
カツ
ガイド
ギター
コーン
コイン
サハ
スロー
ソング
テキ
ノイズ
ブーツ
マザ
マッチ
ワーク
一昨
丸い
主観
伏せる
休め
住み
体格
余韻
作者
保た
倉庫
傲慢
傾ける
公正
六十
冒頭
加わっ
励まし
勘弁
勝敗
単調
取材
口々
合間
同然
商売
国道
埋まっ
大根
太腿
好ましい
威嚇
学力
宇宙
安く
安らか
実力
寒々しい
小物
少な
平静
年頃
弄り
強張っ
待合
徒歩
心がけ
息遣い
感性
感傷
慈悲
戦い
手洗い
指名
挟む
振動
掛かる
暗示
本屋
案件
構築
死亡
毎晩
気付
温室
漢字
無心
疑わ
痕跡
真夏
磨き
示さ
祈る
私服
素っ
緊急
繋がる
羨ましい
肌寒
育ち
茶碗
落胆
藍田
街路
補足
見積
見捨て
設け
許容
誇らし
豆腐
買わ
踏ま
蹴っ
車線
転校
辞書
透け
途絶え
週末
遠から
遣う
錆び
閉ざし
関与
電池
音量
顧問
颯爽
飛ぶ
鶴見
麦茶
##合える
##ーサ
##すた
##ちび
##こつ
##テリア
##ブン
##ムシ
##取れる
##アル
##アン
##起こし
##出せる
##足し
##ゼット
##着く
##ぼっ
##直さ
##ぱき
##ぴり
##外れ
##生き
##セル
##惚れ
##っとう
いっさい
##ントン
やらかし
取り直し
立ち去っ
話し合っ
##ージュ
通り抜け
楽しめ
聞き返す
とりとめ
忘れ物
行き交う
切り出す
読み進
買い出し
引っ込め
呼び出さ
踏み出す
追いかける
追い詰め
駆けだし
吹き出し
ぽつん
語りかけ
うるさく
フェア
吸い込み
ステレオ
手の甲
気遣わし
カウント
パスタ
振る舞っ
見下ろす
どんより
2015
コースター
あざとい
アプローチ
名乗る
がんばっ
飲み干す
しらっと
ローファー
オフィ
言い添え
慌ただしく
イエス
開け放た
プロセッサ
ずるずる
ちびちび
クローゼット
すたすた
エンディング
すぼめ
カテゴ
じろじろ
サハリン
あぶ
いたっ
おにぎり
がてら
さよ
ずらり
せん
たけ
ちっ
にわか
みっとも
むき出し
ゆう
ウイス
オーク
カプ
コツ
ゴルフ
トロ
ネック
バラ
ヒット
ビート
フロー
マラ
マダム
メロ
メンタル
リモ
ロマ
ロッカー
一声
一転
予報
代物
似合い
作文
俄然
信任
先頭
入口
典型
分析
千倉
半歩
原作
友和
名簿
呆れる
嗚咽
嚙ん
固い
固め
夢見
実母
寝顔
寝ぼけ
寝返り
小屋
尖っ
居酒
崩す
弱く
往々
復唱
応対
思想
惚れ
手帳
抜く
捻くれ
断ち
昇っ
昏睡
暗記
曇っ
最寄り
来い
柔和
正しかっ
殴っ
気軽
決着
消さ
淡く
減らし
温まる
湧き
無難
照れる
狭く
甘える
略し
盛大
突破
窓辺
童貞
筐体
範疇
終業
茶化
落下
虚構
蝋燭
補充
見分け
譲っ
費用
赤らめ
身の
身じろ
迫ら
透き通
遠藤
遭っ
選考
重視
鈍く
閉まる
開催
間接
関東
関わら
防御
面持ち
頻度
食後
騎馬
##しず
##ウモ
##ーガ
##ーリー
##ゆら
##らげ
##バル
##タル
##リッ
##ごう
##伸び
##付き
##モニー
##のまま
##定め
##違え
##潰し
##助け
##苦しく
##知れ
##売り
##遠い
##途切れ
からっぽ
なんせ
ありのまま
言い換え
ほうほう
受け流し
好き勝手
もらわ
もしもし
引き返し
引きずり
消え失
クリニック
つかん
つくら
じゃんけん
近づか
コンテナ
ショッピング
パンダ
限りなく
切れ切れ
くすん
美味しく
浴びる
送り出し
ぶつかり
寄り添
放り投げ
見守る
つまみ
おもちゃ
途切れ途切れ
ざわつい
やんわり
訝しん
見逃す
空き缶
フルーツ
手招く
あわて
ウォーター
向かおう
言い添える
逃れよう
味わう
ぽかーん
か細い
ガーデン
けっして
てきぱき
もやもや
さよなら
ウイスキー
居酒屋
pn
あや
うす
おば
ぎょ
くさく
けろり
こなす
たまっ
ちっとも
つっと
どよ
ばか
ぷくっ
めくっ
んな
エース
オイル
コレ
セール
ダッシュ
チーズ
ナンバー
パワ
フライ
プラン
マニア
リング
一面
下座
亀之
交え
体感
何もの
使命
傾き
入場
出番
初詣
加える
古書
同窓
味付け
啜り
喧噪
嗅い
回路
堅い
夜風
大通り
子犬
孤高
定評
尻尾
尽く
巻か
平台
平凡
幾ら
引用
強迫
従い
復帰
思惑
悪人
意欲
手術
投稿
抜か
撮ら
支障
暇つぶし
期限
期末
来週
栄養
植え
欲しかっ
止ん
歩け
歯切れ
段落
毎回
永久
海苔
潜り
濃く
無限
照り
特急
猶予
画像
異議
疑う
着せ
着替える
睫毛
知覚
石段
破滅
確証
移す
究極
紺色
線路
縛ら
纏め
罵倒
脈絡
至ら
良し
衝突
裏切ら
見解
見張っ
解除
触っ
話せる
調味
負っ
費やし
迫る
途切れる
通信
造作
遭遇
遺体
醸し
重なり
間隔
陥っ
零し
雷雨
面食
香水
馳せ
騒音
黒々
##いる
##イーン
##あわ
##あげる
##あがる
##ろい
##ンビ
##カメ
##つっ
##まん
##どり
##ぐん
##らわ
##バン
##タス
##タント
##リック
##アント
##ニコ
##ゅる
##ケン
##ケーキ
##ay
##加える
##締める
##沿い
からかい
たちまち
思い返す
言い募
かけれ
引き下
こちら側
押し黙
可愛かっ
##ーブン
とりわけ
打ち込ん
##らかん
飲み下
消え入り
たまえ
ファイ
恥ずかしかっ
かたかた
ストロー
アイロン
##しかろう
吹き抜ける
向き合っ
突っ込ま
座り込ん
美味し
##合わさ
しょぼ
ぱちり
放り込む
苦しみ
見据える
はてな
おこなっ
飽きる
はにかみ
見知っ
スリップ
差し掛かっ
パラワン
コントロール
マスコ
引き結ん
しなやか
セレモニー
あどけない
指し示す
ややこしい
エスカレーター
しずしず
閉ざさ
リラックス
勝ち誇っ
おしゃれ
オフィス
みっともない
リモコン
身じろぎ
亀之助
あぐ
いじる
いらっしゃい
うそ
こじ
すすっ
ずず
ずらし
だに
づらく
ぱら
ひらり
ふい
ふわっ
ぼそっ
まく
もー
ゆい
カチ
ガス
ガード
クーラー
ケトル
ジン
トン
トレ
トレー
ドイツ
ニコ
バイク
ビッグ
ヘック
ポン
マナー
ラフ
レー
一流
一筋
一様
三角
世紀
人工
今し
他校
休暇
侵入
先週
初心
利か
前向き
劣等
占め
危害
各自
哲学
問答
善意
喘息
園内
基づい
壁際
夏祭り
夕陽
外食
多々
大差
大方
大小
威圧
嫌味
学ぶ
学期
密か
対決
少数
希薄
弱み
得心
徹夜
心持ち
快適
恨め
恭子
戦う
捕まっ
捜す
掠れ
掲げる
教員
敬語
早朝
暗に
有利
染まる
校長
業界
極めて
模索
欠席
武器
汚い
消化
測り
湿り
満面
滲ま
潜り込ん
無数
痛め
白衣
相対
真摯
眠く
眠り込ん
破綻
移り
稼ぐ
突い
競争
結ぶ
絶句
継ぐ
繰る
背伸び
胡散
荒い
薄々
薄れ
裕也
見い
見失
見直し
論破
贈る
超える
軽口
軽蔑
返り
通報
道化
配信
電灯
非難
頭上
飲食
麻布
##っ面
##ゆい
##コロ
##取ろう
##がう
##戻り
##掛ける
##気ない
##ふわ
##聞こえ
##泣き
##一人
##求め
するり
しかる
大きかっ
取り立て
一人一人
立ち並
##ングル
話し声
##っきゃ
こそこそ
微笑ま
始めよう
つけよう
押し寄せ
かしらん
##ティア
振り返れ
振り返ら
飲み込む
歩き回っ
##しゃっ
過ごせる
近づける
##ラーコッ
乗り換え
ストーカー
呆れ顔
つきあい
撫で下ろし
あくび
吹き込ん
向かい側
引っ張る
漏れ聞こえ
しばしば
吸い込ん
折り返し
こんばん
躊躇う
開き直
馴染め
放り出し
きゃっきゃ
酔っ払っ
めんどく
ドライブ
おこなわ
思い当たっ
満たさ
ブランケット
呑み込ん
叫び声
1984
映し出さ
ふわふわ
コスプレ
凍てつい
食いつい
でーす
ゆらゆら
あっけらかん
インスタント
うるせぇ
プロセッサー
ぎょっと
あぐね
ヘックラーコッ
今しがた
ヘックラーコッホ
21
あま
おじ
おさ
おの
おぼろ
こな
こしらえ
さく
さした
しぐさ
じわり
ぞっと
つむ
どっと
にい
のっ
ひり
ぴん
まつ
わたる
イルミ
カス
カゴ
シーツ
スニー
セント
ゾンビ
タバ
タルト
ツリー
デイ
ナノ
ニヤ
ハシ
ピー
プル
ペダル
メダル
ランド
リス
ロク
ロープ
ワカナ
一理
上る
両脇
主婦
乗せる
乾燥
予期
予告
予習
交際
以内
保留
俯か
億劫
元々
公立
公開
分ける
判別
別人
前半
半月
双方
口早
同一
味見
咲き
噴き出し
因果
執行
売店
変われ
多かれ
好ま
子宮
学費
家出
宿命
密やか
小銭
差別
布教
延長
引ける
弱々しく
強かっ
必須
恥じ
憎む
憎ん
戻れ
手助け
扱う
振興
揚げ
支払い
教義
散々
文理
春休み
昨今
本意
機関
正気
歪み
死者
法人
法則
深め
満たし
滅多
漁師
漂わ
漬け
潰す
無音
焦り
焦げ
現地
用語
痛む
真理
真新しい
瞬時
短編
破っ
磨い
移行
笑む
経費
縛り
缶詰
脱力
臆病
若く
行こっ
要望
見ろ
見出し
覚醒
覚ます
観覧
許す
詫び
誇る
認知
誘惑
誘拐
語尾
請求
謝り
軽減
辿る
辿っ
逃し
逃れる
逆転
逆説
通勤
都度
都心
重苦しい
釣ら
銀行
長期
防ぐ
陰毛
雑踏
離さ
露見
青白
青み
順序
食わ
飲酒
飼っ
高々
黒く
黙る
##イッチ
##うる
##ウハ
##ショ
##どい
##マネ
##らえ
##たか
##リウム
##クル
##クエ
##パクト
##さる
##レット
##開き
##倒し
##ケツ
##広げ
##on
##乱れ
##盛り
##苦茶
できあがっ
しかめる
##っちら
取り引き
続けよう
押しつける
行き場
つかつか
落とさ
ストッキング
当て馬
そっけない
変えよう
とことん
掛け声
##ンタン
ソファー
気遣う
さしも
おーい
うつぶせ
ギャップ
フラッシュ
果たす
##落とす
絵里奈
少なかれ
ポジティブ
羽織り
サボっ
カタカナ
降り注い
バッティング
見抜い
ブロック
フィルム
たじろい
ものすごい
サンドイッチ
よけい
インタビュー
テキスト
オークラ
マラソン
まくした
さしたる
スニーカー
is
si
sf
wi
あがり
かろう
かくっ
がしっ
きつ
しめ
じろり
すき
すーっ
たけれ
だる
ちっと
ちろっ
てぇ
はした
ぱーっ
びくっ
ぴた
ぴたっ
まわし
もぐ
アマ
エキ
オサ
オーブン
カリ
キレ
クン
グリ
サム
シミュ
セク
タブ
チュ
チュー
ナルセ
ノウハ
ハンバー
バケツ
パフォ
パレード
フタ
ブック
ヘル
ボラン
ポリ
ミー
メリー
モー
レイプ
一行
並べる
交錯
仕様
仰け
仰ぎ
休ま
体質
余り
余分
信念
冷房
出向
分身
分かっ
分かち
到達
到来
刹那
助かり
務める
反映
口数
口説
口もと
吐か
咎め
唱える
嗅ぎ
境界
壊す
外側
大塚
好い
妖怪
始業
家屋
寝袋
寝起き
干渉
延び
弾い
役所
微塵
悟ら
悪夢
懐かしく
投入
持てる
指揮
捕手
描き
損ね
擦っ
救急
文言
文面
新年
新品
暖かい
曇ら
曲がる
更新
書ける
朗らか
林間
査定
概要
構造
止み
沈め
沸い
泊まる
泣か
活字
浴室
添える
湿気
無料
独自
異物
発音
白鳥
睨め
研ぎ
神妙
秋月
稼い
紅葉
繊細
繫がっ
聡明
膨れ
至って
茶髪
荒く
行列
記さ
諦観
護る
負わ
貸す
起動
転がし
進捗
逸れ
道理
避難
閑散
雅史
雷鳴
靴下
頭脳
飲め
鼻先
##うき
##ンゴ
##ンデ
##ーい
##すご
##こみ
##こもり
##返る
##んっ
##され
##さみ
##ツール
##みち
##部屋
##ジャー
##下がり
##tu
##ネタ
##飛ばし
##ポン
##45
##寄せる
##延ばし
##受ける
##繕っ
どうこう
ちゃえ
わかれ
はずし
受け流す
微笑ましく
いかん
押しとど
##インダー
あたりまえ
打ち切っ
なーい
差し入れ
キャスト
シャンプ
引っ込ん
引っかかり
コンサ
そろっ
ファースト
追い出し
追い込ま
当ては
待ちあわせ
出来る
触れ合い
握りしめる
抱き合っ
抱き締め
もらえれ
向き合う
ライド
かねる
振り向か
巻き戻
巻き込ん
##フォーム
ふんわり
寄りかかる
しゃべっ
結びつい
流行っ
##ッキリ
がたがた
てっぺん
つながり
つっかえ
名乗っ
気恥ずかしく
忙しなく
はにかん
はにかむ
あらかた
見知り
憐れむ
クレーン
ウケる
にくく
スコーン
ぽけーっ
バレーボール
見比べ
うれしい
チバセン
湿り気
こんばんは
イルミネーション
かろうじて
ノウハウ
ボランティア
仰け反
シャンプー
24
cm
dv
watar
いらっしゃる
えらい
おぞ
おろし
かおり
くり
くぐり
さざ
ざま
じい
じろっ
そら
とあ
はさん
ぴく
ふくれ
ぷいっ
まな
むっ
むん
やわら
わい
んんっ
インド
ガガ
コロ
スツール
タカ
テク
テント
ドロ
ナイト
バトル
ポーチ
マー
マック
マッサ
ミトン
ラスト
リサ
不要
不便
並行
中国
主催
人種
人材
介入
伊達
低音
傍目
先月
先導
免疫
冷やし
分担
初版
別々
別物
別段
制止
制度
勿論
包帯
単位
反らし
受胎
口角
口許
叱ら
吸わ
回数
在庫
場違い
声優
大胆
大層
天候
奇遇
容れ
宿題
富豪
対峙
尽くす
展示
属する
岡崎
差す
年末
幼稚
建設
往来
得点
心情
怯える
恐れる
想っ
態勢
投手
投資
抜群
拡大
挫折
故郷
断れ
最善
木製
本部
松尾
枝葉
極め
浮気
混じる
漁っ
炒め
無口
焼か
物体
狂っ
狼狽
現役
甘っ
生産
生真面目
異存
疲れる
病ん
癒し
発達
着地
秘め
移る
稼働
空席
窮屈
笑え
組ま
経路
編み
繫がる
脚本
自棄
自主
致し
表明
見張り
見回す
覚める
言外
言及
詮索
謙遜
貧乏
貰う
購買
贅沢
踊っ
身構え
躱し
軽快
近隣
造り
遂げ
過激
違わ
遠回し
遠回り
鍛え
長机
関節
限る
陣取っ
隠れる
電柱
静謐
首元
騒ぐ
高価
##あたら
##ンバ
##ウリ
##ーマー
##ざる
##まか
##まあ
##くさっ
##ッパ
##なに
##われる
##タクト
##たど
##ばく
##言葉
##ュラー
##リュ
##もじ
##もぐ
##にゃ
##ぽり
##ぽつり
##ズル
##のけ
##風呂
##ぼくろ
##払わ
##ぷら
##ok
##づかい
##答え
##乱し
##折り
##晴らし
##巻く
##繰り
##残り
##遂げ
##咎め
ないし
この頃
ついっと
ひと息
振り絞
なになに
タイマー
立ち上る
打ち切る
持ち帰
コーラ
切り替
書き込ん
書き直す
書き換え
まとわり
コンロ
コンタクト
おおかた
パンケーキ
ジャンプ
飛び降り
アイテム
しゃべる
さておき
吹き飛
流し込ん
ぽつりぽつり
滑り落ち
泣きぼくろ
めいめい
冷え込ん
プリクラ
倒れ込ん
きゃー
シスコン
ギャル
洗い物
サンキュ
こぼれ出
ハンマー
ギリギリ
あざとく
満たす
懐かしむ
ごまかし
がりがり
アクセサ
くしゃくしゃ
降り注ぐ
くわえ
散らばっ
こだわり
ほぐし
ほぐす
去り際
ディスティニィーランド
飼い主
おもしろい
おっかなび
いたって
フライパン
面食らっ
マスコミ
もぐもぐ
##tub
とある
タカシマ
マッサージ
おっかなびっくり
23
かこう
くぅ
げっそり
こね
ごそ
ざっくり
なだ
にらめ
におい
ぬっ
のける
はたま
ほころ
めぐ
もぞ
ウエ
ウス
オブ
オッケ
カル
カロ
シーズ
スナ
タフ
タウン
テラス
デュエ
ニンジ
パイ
パーク
パズル
ホッと
マニ
ミズ
メーカー
ランプ
リターン
レポート
レタス
上映
不信
不確
中々
中毒
予言
予防
亜麻
人殺し
付ける
伝言
伺い
依然
停まっ
先方
光り
全開
公平
分から
制し
務め
反動
反芻
収集
名作
名札
向上
吠え
吹か
喧騒
囚われ
国際
地方
均衡
執筆
塗っ
境遇
夏場
大使
太っ
奥行き
委ね
実績
宿っ
将軍
導か
小突
少なかっ
崩壊
工夫
差出
幾分
強固
形容
得体
思しき
急激
性交
情熱
惹き
愚か
戦力
戸棚
挙動
挟み
採点
摂取
摑ま
摘ん
改変
敬意
断片
既視
明白
明かし
星空
暴走
朝方
根性
歪む
毎朝
気後
水曜
沸き
沸く
治る
法的
洒落
活気
渡航
滲む
濁っ
火傷
灯っ
狙う
独立
独占
異質
異論
畳ん
目隠し
直行
眠い
眩しく
禁じ
籠っ
細身
義者
翻し
耐性
育てる
脇腹
自衛
良き
芽生
著者
行儀
裏切り
覆う
見惚れ
観点
試着
豪華
貫い
路線
躍っ
辞令
迂闊
迅速
返却
追跡
遅れる
過ち
適応
重力
金銭
開示
開発
陰鬱
隅っこ
露出
飢え
養っ
駆り
鳥居
##キュア
##シック
##べり
##カン
##ざん
##っぱい
##こけ
##ぎれ
##らぎ
##がき
##がめ
##そば
##アー
##ミー
##もぞ
##みる
##掛かり
##ぼみ
##an
##続け
##乗り
##プラ
##ed
##消す
##聞き
##ペル
##揃い
考えろ
考えごと
言葉遣い
思い知
ありふれ
言い合っ
たいして
あのー
かけ離れ
あながち
振り回し
振り回さ
おかず
引き攣
##ージャー
入れ替え
まあまあ
押し殺し
過ぎ去っ
見せかけ
プロジェ
決めつけ
##っこい
起き上がっ
つかれ
知りあい
引っ搔
受け取ら
おおっ
ファインダー
乗り気
すらり
逃げ出す
突っ込む
美味しかっ
##たるい
振り向き
張り上げ
浴びせ
送り出す
インストラ
くっつけ
##ウンテン
訊ねる
レシヴァ
追いつく
苦しん
容易く
つながっ
持て余
手渡さ
気恥ずかしい
揺らぎ
見開き
思い至る
不可解
スパイス
のぞき
たどり着い
絶え間
もつれ
ビビっ
たかだか
後ろめた
後ろめたい
フィルター
鳴り響く
閉じこもっ
デジタル
あったかい
ぐりぐり
キュウリ
ミュージカル
しのぎ
シナリオ
がんばれ
youtub
ぼやけ
カプセル
メロディ
セントーサ
コンサート
watari
はたまた
もぞもぞ
カロリー
シーズン
不確か
気後れ
インストラクター
97
cw
うき
おち
きる
こー
こみ
こぞ
さよう
しー
そぐ
そぶり
ぞろ
たまる
ちと
でっ
はら
はまっ
ばたばた
ひし
ぷん
ほっそり
ほほう
まっとう
もじ
アジ
イタ
イヌ
コネ
サンプル
シー
ドッ
ボロ
ポスト
マガ
ヨット
ランタン
リード
ループ
一手
下腹
両足
乗れ
乾かし
代役
余生
例年
便箋
個々
儀式
充電
入部
内面
冬場
凝視
出れ
分量
切符
前進
半数
厚木
台本
台車
各々
同人
吹奏
味わい
呻い
咀嚼
咲い
咳き込ん
喉元
喋れ
噛む
器官
国立
声高
外気
夜景
大い
失くし
子猫
存分
学業
学級
学問
定着
実物
富士
察せ
審判
小言
小振り
山中
嵌め
帰れる
年寄り
弁解
引退
弾き
当分
快晴
怒濤
悲観
愛お
成し
戦っ
所在
手配
批判
折れる
挿入
掛かっ
揶揄
摑め
救済
教養
教わっ
散っ
数える
敷い
文脈
新婚
新作
方面
昭和
書斎
有様
木陰
未遂
本位
来訪
果物
検察
次回
歌声
毎週
民家
水滴
沈む
没頭
泊まり
注視
津々
浸かっ
淹れる
無地
焼肉
熱中
爆発
物心
特集
牽制
生殖
生涯
甲子
異変
痛々しい
登り
皆無
目配
目論
眼下
眼前
砕け
破る
系統
紙片
細胞
給食
綿密
線香
締切
縮まっ
織り
繫がり
肯き
脱衣
腰かける
苦しく
苦々しい
蘇っ
蛇口
被告
装備
製作
見習
見あたら
触る
該当
調和
請け
論文
賃貸
足し
路地
身震
転倒
近かっ
退職
退院
遊べる
遊ぼう
過度
配ら
重々
重々しく
長野
長谷
青く
面識
頼れ
高め
##ルギー
##ンキー
##ーミング
##けら
##まわり
##ッス
##ぐむ
##らぼう
##てぇ
##んまり
##チョ
##リティー
##歩く
##にく
##だり
##だて
##だまり
##さえ
##09
##掛かっ
##サキ
##の下
##少な
##留める
##デー
##近い
##プキン
##es
##ぴょこ
##bn
##恐る
##崩し
##澄まし
##働き
言葉少な
ほどよく
##っちゅう
取り巻く
振り払っ
浮かば
まったり
微笑ましい
立て続け
開け放し
とりどり
持ち込ま
差し伸
キャット
切り替える
プレー
プレート
もとより
書き込み
コンクリ
繰り広げ
##ューサー
##ライス
思い出せる
思い出そう
どのみち
ファイト
追いや
バスケット
##イルド
プレゼン
照れ笑い
かすれ
フェンス
ウェブ
しょっちゅう
アレルギー
気まずく
オーバー
心地よ
##落ちる
頼りない
下りる
##ジュアル
ひそか
結びつけ
冷や汗
##かえっ
おとなしい
目覚まし
震わせる
寝転がっ
##起こす
スポットライト
ジョーカー
フレーム
釣り合い
のぞき込ん
ウェイター
シチュエ
むむっ
はしゃぎ
##8409
ちょっぴり
##ウェイ
鳴り響い
デジカメ
黙り込む
##ataru
はるか
##ent
こつこつ
はす向かい
マネージャー
うなずい
オリジ
蒸し暑
ちょいと
テンポ
センセイ
恐る恐る
プロデューサー
ぴょこぴょこ
項垂れ
しんどい
ソーサー
ロマンチ
ぱらぱら
ニコニコ
タバコ
isbn
##451
さざ波
978409
cwataru
そぐわ
ぞろぞろ
もじもじ
マガジン
目配せ
身震い
長谷川
シチュエーション
22
shr
tv
us
あさ
うさ
うお
うぅ
うろう
かちゃ
すっと
ずん
てろ
とたん
にょ
ねぎ
はぐ
ぱたり
ふす
ぶっき
へども
ぺろ
ぼそり
まこと
みつけ
むく
むくれ
めった
よん
アフ
アクション
イズミ
エンター
エッソ
オシャ
カン
ガタ
ガム
ガチ
キツ
スチ
セブン
タレ
デパート
デビュー
トントン
ナチ
ナイス
ノベル
ハンガー
ピーク
フレー
ブル
ホイ
ホン
ホルダー
ボリュ
ポニ
ミネ
ミックス
ムード
ラウ
リハ
リンガ
レギ
ヴィ
一節
上昇
主役
代償
仮面
仰ぐ
任さ
住まい
余人
信条
倒れる
停留
先々
先行
免許
入荷
全面
円滑
凝り
出場
削り
前者
労力
勝気
区切ら
受賞
口実
古典
叶える
号令
司法
告知
啜る
啜っ
嘆い
四百
回ら
囲む
固有
固まる
国公
地理
垂らし
報道
塞が
境内
増す
増やす
声かけ
外さ
外面
夜道
天文
失踪
好ましく
妨げ
子守
実践
寝かせ
小便
就い
居合わせ
常套
平等
店先
建前
弱っ
当選
心拍
忙しかっ
思索
性別
悔い
所詮
手放し
手抜き
投げる
拾う
指折り
捕まえ
掴む
揉み
握手
擦れ
放心
数々
敷か
早かっ
明かす
暮れる
最良
月明かり
未練
染まり
核心
桃色
業者
欠陥
歪める
比喩
気ま
気付い
水平
水銀
決算
決まら
泊まっ
波紋
洗剤
測る
湯船
滑る
潜っ
炊飯
点い
片端
物珍
甘んじ
生ん
疲弊
発案
発車
登っ
百合
矢継ぎ
祝福
突如
窺え
筆記
等々
箇月
算段
緩む
緩慢
繫い
繫ぐ
羞恥
耽っ
胡乱
脅し
致死
苛ま
荒れ
華麗
裏返し
裸足
見返し
親しみ
触ら
詰める
誇張
財産
貢献
趣旨
路上
踊る
車道
轢い
返品
逆らう
通行
連携
進化
配達
酷く
釈然
重々しい
銀色
長引
閉まっ
防風
隔離
隣部屋
雑用
雨音
静止
領収
頼める
食感
食料
髪の
鼻息
##イヤ
##ルーム
##きたり
##ーカ
##ちょろ
##まして
##めか
##なう
##なさ
##バタ
##タバタ
##返そう
##たけ
##ばせ
##ピア
##がん
##がえる
##がれる
##そぼ
##リート
##アス
##見る
##ごし
##去ら
##ださ
##びき
##レル
##エーション
##ワーク
##ゴムシ
##やき
##ずん
##のう
##放す
##下ろす
##el
##請け
##眠り
##fi
##連れ
##揃え
##彫り
からり
ようする
なくっ
思いの
感じ取る
かけがえ
一人ぼっち
立ち会
こそば
引き戸
引き込ま
引き続き
引き受ける
落ち葉
食べよう
つけ加え
まるまる
押し留め
持ち込ん
飲み会
読み取れ
落ち着ける
過ごせ
##なっかしい
手伝わ
ジャズ
ストップ
ストーブ
ストーリー
呼ばわり
待ち構え
しゃっ
しゃがれ
乗っかっ
作り出し
触れ合う
たびたび
突き放し
吐き捨てる
当たり障り
付け加える
座り直し
面白かっ
向かい合う
よいしょ
フェイス
盛り上げ
そりゃあ
置き場
つぶやく
こんこん
よそっ
初めまして
##じゃが
膨らみ
フラグ
##落とさ
照らし合わせ
付け足さ
たどたど
ドリブル
追いつか
関わり合い
思い浮かべる
##テンツ
見知ら
ディスティニー
慌ただしい
くしゃり
ぶるっ
ものすごく
とどめ
バリバリ
生み出し
縮こまら
しつこく
ふーむ
名残惜
見栄え
言い放っ
むず痒
スローガン
読み進め
消え失せ
トレーニング
まつわる
wifi
セクハラ
フタゴムシ
甘ったるい
ごそごそ
オッケー
持て余し
うきうき
さようなら
978409451
うろうろ
すっとぼけ
ぶっきらぼう
へどもど
ボリューム
ミネラル
リンガル
国公立
髪の毛
90
あふれ
いー
うとう
かさ
がや
がくっ
がましく
くりっ
こすっ
ごし
ご覧
ごらん
さ迷
しおり
すとん
すさま
そそ
たやす
ちくり
ちくち
っから
つづい
づい
はなし
はらり
ひゃ
まかせ
みてぇ
わた
イニ
エネ
コラ
コット
コウモ
サマー
スム
ダン
トーク
ナプキン
ハッと
ビック
ピタ
マザー
ラク
リピ
リセット
レイ
レモン
ロゴ
ヴァ
一覧
一際
七十
上空
上座
上がら
下ネタ
久々
乗ら
京葉
人望
保ち
倣っ
八十
公共
内定
冷まし
凝らし
出迎
切らし
初期
判然
刺さっ
割り込ん
加熱
加わる
励ます
効き
動悸
化学
半袖
半開き
卓上
卵子
反則
口走っ
古代
合計
名称
和食
嗅覚
噂話
嚙む
四方
垣間
埋も
執着
基調
基礎
塗れ
大手
奏者
嬉々
孤児
実況
実証
宿泊
寝そ
寡黙
審査
対話
専用
小道
展望
工程
幹部
弱気
微睡
心外
心境
忘却
応じる
息抜き
息づかい
悲痛
成熟
手探
手本
手汗
手遅
手櫛
抑制
抑揚
抽象
拘束
招き
捩っ
推理
掻い
揺る
揺り
揺らす
撮れ
支える
政府
救う
救っ
数式
有り
有益
朝練
木枯
本編
杞憂
板書
某日
校則
格闘
極まり
構内
構える
模し
欠かさ
次元
歩む
歩ん
歩ける
気怠
水道
津田
清水
温泉
滑稽
漁る
漕ぐ
濃密
無償
無機
無断
無垢
物憂
犯す
理事
生来
生ぬ
発散
目前
眠ら
眠た
瞬い
矢先
知性
破れ
破裂
祝っ
神聖
称賛
種目
築い
納豆
紡い
終わろう
結束
脅迫
自虐
舐める
良心
荷台
落書き
薄汚
虐め
虚ろ
蟠っ
街中
衛生
被り
裕福
西日
見まわし
見繕っ
触り
記述
詰まり
謳歌
谷間
貫く
買える
買おう
賢明
転がり
軽々
述べる
進歩
適性
邪悪
部署
配る
鉄道
長々
間柄
間延び
需要
顰め
黙考
##ヤキ
##ンティ
##ナギ
##ーバ
##れん
##っぱ
##よがし
##マチック
##テリ
##ッティング
##ぐらし
##らそう
##タイプ
##とれ
##ん坊
##ばしい
##がや
##ュラル
##アップ
##ャン
##びら
##やさ
##張ら
##ソー
##ずと
##aw
##づき
##でなし
##ふん
##飲み
##苦し
##馴れ
##植え
ことり
しまわ
言い切る
やらさ
受け止める
受け答え
振り払う
##ースター
引き替え
引き下がっ
引きずっ
通りかかっ
さすり
まるっきり
聞き取り
立ち上がろう
プロット
##っこん
キャリー
入り乱れ
クリーン
もとい
呼びかける
すごすご
コンテンツ
ファスト
##ファー
踏み込む
踏み入れる
生まれ変
ストライ
抜け出す
真っ向
探し求め
伝えよう
そっけなく
覗き込み
さまざま
ウェイト
焼きそば
風呂場
クラシック
ふんふん
##っぽい
ころころ
寄り道
躊躇わ
向き直り
心地よく
倒れ込む
辿り着い
フロント
遠ざけ
スプレー
見逃さ
明け方
名乗り
脱ぎ捨て
危うい
ぎこちなく
尽きる
クレーム
揺さぶっ
差し掛かる
取り繕っ
アクセル
##スタル
入れ替わり
入れ替わっ
ウィスキー
ひねくれ
混み合っ
くわっと
すくめ
閉じこめ
ぶらぶら
見出だし
こまめ
クライアント
ケンケン
滲み出
見透かし
でっちあげ
うらやましい
グローブ
気付か
ステレオタイプ
透き通っ
押し黙っ
ロクに
はしたもの
サムズ
シミュレーション
おぞましい
ふくれっ面
デュエル
youtube
イタリア
コンクリート
ロマンチック
うさぎ
オシャレ
ナチュラル
ラウンジ
気まぐれ
物珍し
うとうと
がやがや
ごしごし
すさまじ
ちくちく
コットン
コウモリ
手探り
手遅れ
木枯らし
津田沼
27
bo
pa
th
いたい
うー
える
かれ
かご
か所
がちゃ
きらめ
くつ
けん
こりゃ
ごっこ
すう
そぞろ
たれ
っちゃ
とまっ
なま
にじ
にやっ
ぱあっ
ぱしっ
ひさし
ぴしっ
ぴしゃり
まくる
みす
むら
もど
わら
わるい
んっ
イマ
オム
オール
カレ
ガキ
ガッツ
クビ
ケヤキ
ゲイ
サバ
サメ
シル
シロ
シュー
シヴァ
セミ
センテ
セッティング
ソックス
デン
デッキ
ハリ
ハゲ
ハーフ
パル
パチ
パリ
ポテ
マリン
ヤンキー
ユキ
ラッキー
リム
一式
一抹
万能
三百
下す
下位
世辞
両者
並木
中立
主な
主導
事象
仄か
今時
今月
今週
仕入れ
付か
付箋
伴い
何百
例える
保とう
俯く
偽り
働け
入道
内臓
冷える
凍っ
凛と
分離
切々
切迫
削ら
加工
劣ら
励ん
区切り
半日
半額
占い
参道
収拾
叔父
叔母
受かっ
口笛
台なし
右腕
合法
合唱
吹雪
園児
圧迫
壊さ
変哲
夜闇
大幅
大概
天国
天然
夫妻
孕ん
宝石
寒かっ
寝床
対価
居室
属性
巫女
巻く
平ら
幻覚
広間
張ら
強化
弾か
弾け
弾ける
当たら
形跡
形作
彷徨
快く
性能
怪談
悟り
悩まさ
惹く
愕然
憂い
懐中
扇子
手脚
手錠
手品
手軽
拡散
拷問
指輪
措置
掬い
揃える
携行
撃つ
支援
敬遠
整然
文体
日陰
昇る
映り
昼飯
曲線
最短
本性
柔軟
検証
構っ
模試
横切っ
機材
欠点
正午
死因
死骸
殊更
残業
残照
母娘
民族
気晴らし
水分
水風呂
池田
沸騰
波打ち
泳ぐ
洋裁
洪水
浸し
涼しく
渇き
減り
滞在
澄み
灯る
炊き
炊事
焦燥
特技
狙わ
生む
生身
生かし
疼き
発さ
白髪
益体
盛ら
盛況
相場
眉毛
着々
睡魔
破顔
確立
禿げ
稼げる
紙皿
素速
緩める
練り
繋げ
耳障り
腫れ
膨大
自尊
舞う
良好
色づい
蓄積
薄ら
薄手
見越し
見返り
規定
観望
訪問
設備
診療
診断
証言
試食
誓っ
語気
誠意
論法
譲る
負う
貰える
資産
赤ん坊
足る
蹴る
身なり
軋む
軌道
転がる
載せる
近頃
近辺
近寄り
近寄る
送り込ん
這う
連発
逸し
遊ば
道中
道す
道筋
遠足
配り
野生
金槌
鉢植え
銃口
録音
長身
長袖
閃い
隠そう
雨粒
電波
音色
頑固
顔だち
飲める
香る
鶏肉
##かれる
##ろさ
##キシ
##ウキ
##合おう
##るる
##カート
##むき
##こい
##つさえ
##まわす
##まとめ
##くと
##めっ
##マックス
##ht
##てして
##リット
##殺す
##にょ
##ステ
##ェル
##触れ
##下り
##ig
##ia
##op
##ノコ
##ポイント
##黒い
##ひし
##ぱん
##消さ
##ゾン
##ヒル
##海道
##締まり
##詰める
##知ら
##lent
##疲れ
##割れ
##刻み
##擦れ
##隠れ
##深い
##踏み
からん
さんざん
ちょこん
ありきたり
ほうれん
言わさ
ほどほど
取り囲
取り合わ
取り組ん
おいしかっ
おいおい
楽しま
すべり
立ち上げる
あいにく
とりたて
持ち上がっ
合わせよう
##ンドル
はいる
切り捨て
頑張ら
読み上げる
読み取っ
願い事
まとっ
##ランブル
振るっ
問い合わせ
手伝おう
ジャム
追い打ち
動き回る
抜け落ち
飛びつい
飛びつく
はぁー
##ーテール
##ーテーション
撫で下ろす
駆け出し
抱きか
サイリウム
アルミ
休み明け
ライバル
足りる
コミュニティー
褒め言葉
置き去り
えーと
プリキュア
叩きつける
割り切っ
割り振り
こぼす
走り回っ
ハイヤー
オーケー
馴染ま
あきらか
がらん
ばっさり
スクランブル
搔き上げ
マシン
ギャン
たどっ
ゴールデン
しかたなく
鬱陶し
むずかしく
つながる
冷たかっ
揺られ
呑み込め
ゆるやか
忍び込ん
忍び笑い
はははは
モノマネ
上っ面
不可欠
しんぱい
##過ごす
沈み込ん
くすぐっ
ほっぺ
生き延びる
##ーマンス
祖父母
見抜か
しゃがみ込ん
ごみ箱
ユーザー
盗み見る
インターフォン
生き残る
こわばっ
アタシ
クライマックス
思い描い
ラグビー
四角い
まぶた
引き戻さ
口ずさん
二の腕
付き添い
見積もり
カテゴリー
フローリング
見いだ
立ち並ぶ
あまつさえ
さくさく
ハンバーグ
パフォーマンス
ミーティング
芽生え
オリジナル
ポニーテール
よいしょっ
ビックリ
垣間見
センテンス
道すがら
31
it
led
ぁん
あお
うっとり
おぼ
おなか
かくり
かわら
かなっ
がたく
ぎらい
くぼみ
ささっ
ざら
じゅ
すむ
すらす
ずく
ずーっと
たたっ
ちゅ
とろ
とび
どいつ
なぎ
のろ
ばつ
ひく
ひぐらし
ぴょん
ぶつける
ぷら
ぺろっ
ぼそぼ
ぽそっ
めず
もふ
やか
よこ
をる
ウキ
ガラ
ガンプ
クー
グー
コラム
ゴロ
スティック
ソロ
チック
トー
ネガ
ハブ
ハグ
ハチ
フランス
ベタ
マスター
マウンテン
ミニス
メン
モン
モニ
ヤード
ラッシュ
リライト
リクエ
レール
一足
一端
一同
一条
不毛
不覚
不潔
丸まっ
丹念
争う
事物
交わる
人口
人柄
人妻
人違い
今どき
仕立て
付く
会合
体制
何時
余白
作法
作曲
便所
個室
偏差
停車
停滞
傷つき
兄貴
先延ばし
入浴
八百
公約
凍え
出題
出前
分かれる
到底
刻む
力ない
勉学
北海道
区切る
医学
厚く
及ん
双眼
取引
口ご
古ぼけ
可笑
名物
吸収
呟か
呪文
呼ぼう
命じ
品物
唐揚げ
噴き
囁か
回り込ん
囲ん
図ら
坂道
堪ら
塞い
境地
壇上
夕刊
夜明け
大雑
奇異
学者
守ら
安物
定時
宣告
宥め
容量
容器
密着
寛容
対角
尋問
小脇
屋外
屋内
工事
干し
平素
幻影
建っ
弄る
強め
役職
彼方
後継
後頭
後夜
忠実
快感
恋心
恐縮
恨ん
悪ノリ
惜し
憎ま
憧れる
承諾
持参
捧げ
捩る
損ない
搔く
撃ち
故障
敬礼
方角
早起き
明滅
昼下がり
有力
木立
楚々
模範
武闘
死後
殺意
泥棒
泳ぎ
海水
消耗
淀み
淑やか
混沌
渡せ
湧か
満月
満州
滔々
演じる
潜在
潤ま
潮風
澄ます
濡れる
火照
無性
焼ける
熟知
熱弁
熱狂
甘み
由来
由香
留学
異国
疑惑
疾患
痛感
目立ち
相互
真冬
着用
破ら
神話
神童
税金
稚拙
窓側
窘める
竹林
算数
糾弾
終い
終われ
経由
絞め
絞ら
緩く
緩み
繋ぎ
習性
習っ
耳目
聴か
肉じゃが
肩身
脱が
自前
自我
至近
興じ
花瓶
苛立っ
茶葉
葬式
藍色
表向き
装填
裏切る
製品
覇気
見通
見入っ
言質
訴える
語彙
警備
豊富
豪雨
貧民
越える
躍起
辞める
送れ
送辞
送れる
連鎖
運用
道々
遠出
遡る
醜く
重量
野暮
開口
開演
間髪
阻止
降ろし
除い
離せ
難く
難しかっ
霞ん
面影
音響
順当
飛躍
飾っ
館山
香ばしい
高二
高層
鳴く
齧り
##しな
##し立て
##ルマ
##ンシ
##きっ
##まえる
##ぎっ
##くそ
##くび
##めちゃ
##ドア
##らぐ
##わしく
##バレ
##ログ
##とる
##sp
##てつけ
##がましい
##歩き
##去ろう
##もふ
##レール
##レッシ
##スティック
##ズマ
##ゴー
##ソプラ
##着け
##ケート
##ad
##ダード
##臭い
##当てる
##でん
##ハイ
##解け
##負け
##混ぜ
##知り
##尽き
##濡れ
しまえる
けどー
ちょん
言葉尻
ためらい
言い張る
ほど近い
はずれ
取り分け
受け身
好き嫌い
振りか
出し物
やり直し
やり直す
引き出す
引き止め
入れれ
つつき
つけろ
さらなる
生き生き
ありがた
聞きつけ
ちらつい
タイヤ
持ち上げる
持ち歩い
あげれ
笑いかけ
キャリア
キャンドル
なさる
付き合わさ
書き下ろし
呼び捨て
帰り際
コンパクト
生まれつき
真っ当
飛び交
アイディア
落とし穴
なおす
駆け巡
##ンジャー
突っ立っ
ライフ
やばく
真面目くさっ
張り巡
投げつけ
うってつけ
置き換え
避けよう
割り振
折り合い
ふふふ
勝ち目
カウンセ
オーナー
##ーチケー
よそよそ
ローカル
放り出さ
トキソプラ
がらみ
ばっさ
成り立っ
シュシュ
辿りつく
はっはっ
ドライバー
騒がしく
紛れ込ん
フリップ
さりげない
フレンド
燃え尽き
憐れん
貼りつけ
ジャンパー
もたれかかっ
ジェット
ごまかす
向かわ
揺さぶる
入れ替わる
ファミリー
ひねり
悔やん
気圧され
##くしゃく
トランク
アーティ
ケンカ
ぱんぱん
アラーム
苦み走っ
がさがさ
恨めし
見失っ
開き直っ
青白い
silent
カリスマ
出向い
dvd
くぐり抜け
まな板
リサーチ
はぐらか
フレーズ
エネーチケー
スムーズ
生ぬるい
##awa
わらわら
##ight
すらすら
ぷらぷら
ぼそぼそ
めずらしい
もふもふ
ウキウキ
ガンプラ
リクエスト
大雑把
トキソプラズマ
26
ng
あたか
およ
おご
お主
おんな
おたく
かっと
かなわ
がわり
ぎくしゃく
くじ
くーん
ぐら
こびり
ごくり
しい
しお
すぱ
すりゃ
ずり
そよ
ぞわ
だらし
ちそう
つや
つとめ
づくり
でたら
とぼ
とぼけ
どけ
にぃ
のた
のび
はやし
はったり
ばさっ
ふらり
ぽっかり
まぎれ
みそ
むぐむ
もろ
やせ
よせ
われ
アーツ
ウィン
エイ
エコ
オペ
カイ
カブ
カク
キット
キング
クオ
ケータ
ゴー
サブ
シベ
タップ
タンク
テロ
デコ
ハーブ
ハッキリ
バナ
バタバタ
パタ
パンチ
パニック
ヒモ
ピンチ
ベテ
ペナル
ホラー
ボケ
リスキー
レア
一撃
一員
一帯
一変
上達
不正
不甲斐
両目
予行
事業
事柄
二百
交番
交じっ
仏教
伝う
住民
何せ
何物
何しろ
個別
倒す
偉大
停める
優位
充満
先んじ
入力
公民
共働き
内輪
冷笑
出張
分裂
切実
初恋
利く
剥がし
割合
劇的
力説
努める
効く
匂わ
医療
博物
危なっかしい
友好
反発
各所
合え
合致
名義
吾子
味覚
味気ない
命題
和室
啞然
喋ら
嗅ぐ
図鑑
地位
地区
地平
堪能
変態
変わん
夕映え
妖精
学び
容認
寝こけ
対戦
対等
対向
尊い
導い
小田
小窓
小刻み
就く
就寝
履く
山道
常連
平常
広がり
建築
弱者
強者
彩り
微動
徴候
応答
念押し
恩寵
息苦しい
惜しむ
想起
懇願
懐い
所帯
打て
技能
探偵
改稿
放た
救護
敗者
教祖
教わる
数値
数百
整列
斬新
新種
明かさ
映え
昼前
時おり
暑苦しい
暖かく
暴れ
木造
本好き
株式
標的
橙色
死のう
段取り
水泳
池尻
汲み
活力
涼やか
渋っ
湯沸
滑っ
潰さ
火花
点差
無し
無い
煌めく
煽る
燃える
片づ
物色
狂い
生前
生憎
留める
痛かっ
療法
盗ん
盲目
真逆
眠れる
着き
矛先
社長
私物
程遠い
窮し
立証
立とう
笑ん
精液
糸口
細々
細長
細工
終末
終盤
経ち
絡ま
絡め
統制
統一
統計
絶叫
綻ば
緩和
縫う
縮め
肝要
脇の下
脱出
腰掛ける
臨む
自暴
自明
自問
自称
苦く
苦々し
薄目
虚しく
衛星
装着
補う
要し
見なし
見定め
見咎め
規約
親族
観戦
試練
読もう
謙虚
貯金
賢者
路面
逃がし
逆光
通訳
速攻
連日
逮捕
遊べ
違法
適し
遺産
遺憾
鉢合わせ
長文
長所
長かっ
開放
防犯
防衛
降ら
隣室
集会
雑草
離任
難易
面映
預かっ
頑丈
題材
顕著
顧客
骨折
高かっ
高める
高まっ
髪色
黄金
##しばし
##かちゃ
##ヤード
##べつ
##ーリング
##トー
##すい
##っ端
##ちん
##ょく
##こっと
##つま
##つん
##どん
##ほっ
##ッジ
##ッハ
##ぐし
##ロング
##ロード
##とら
##とぼ
##んぼり
##ュース
##アウト
##パード
##もん
##フィ
##みれ
##00
##ジック
##馬鹿
##おく
##のろ
##強い
##任せ
##ビエ
##night
##置い
##プス
##ひり
##気なく
##休め
##消え
##ハン
##越える
##巻い
##干し
##寄ら
##添え
##ペディア
##詰まり
##ゲン
##ゲーム
##食い
##ww
##決め
しかけ
ちゃわ
ちょこち
ちょくち
ちょこま
ちょこっと
考え事
考えこん
思いがけ
思いとど
言い草
言い直し
言い切れ
あれー
取り合わせ
取り決め
うんっ
立ち昇
受け売り
答えれ
話し合う
おかしかっ
引き取り
引き締め
##やかし
通りかかる
生き甲斐
押し出し
聞き逃
聞き込み
可愛らし
見せよう
まずまず
とりなす
くださっ
流れ出し
キャンセ
閉じ込め
起き上がり
付き合わせ
つかえ
いちゃ
呼び込み
伸ばそう
振るう
問い返す
乗り場
乗り合わせ
乗り継い
ジャー
追い越し
強いて
ストア
ストック
ひょいっ
チェスト
チェンバー
握り返し
駆けつけ
吹きつける
馬鹿馬鹿
出会え
ブラコン
ライス
語り合っ
##ーキング
パーソ
使い捨て
張り出し
満ち足り
投げかける
投げやり
ウェーイ
つぶさ
つぶやき
ろくでなし
任せろ
押さえつけ
送り届
叩きつけ
しょんぼり
割り当て
さしあ
##さって
寄りかかり
躊躇い
スイート
締めつけ
フィールド
間に合っ
かき混ぜ
呟き声
ぐるっ
噛みしめ
噛みしめる
酔っぱ
ささやく
スプリング
ブレスト
ヘッドホン
シェリー
シェパード
絞り出し
探り当て
うろたえ
ツイート
エンジェル
飾りつけ
サボり
覆い隠
揺さぶら
きゅん
這い出
ユニット
恨み言
##プレックス
めちゃめちゃ
仕切り直す
窺い知れ
黙りこ
ぐりん
こつん
つるり
バイアス
甘やかし
及ぼし
及ぼす
スタンダード
2021
折り畳み
ターゲ
ルーティ
おろか
茶化す
パワハラ
言い募る
引き下がる
レーベル
ひりひり
まくしたて
押しとどめ
わいわい
マーシャル
振り絞っ
スナック
成し遂げ
目論見
##ッスル
ずんぐり
ホイッスル
##イヤル
極まりない
ウェイトレス
みすぼ
ユキペディア
素速く
のろのろ
ネガティブ
ミニスカート
silentnight
あたかも
こびりつい
でたらめ
とぼとぼ
むぐむぐ
クオリティ
ベテラン
ちょこちょこ
ちょくちょく
ちょこまか
キャンセル
sp
あてる
あさって
いおう
うぐ
うたた
えと
おな
おでん
かぐ
がく
がらっ
きらっ
ぎくり
くそ
ぐし
けら
こころ
すいっ
ずっしり
ぜったい
そそく
そびれ
たぐい
たしな
っ放し
づれ
にぎ
にや
ねだっ
のー
はね
ばー
ばさ
ばかし
ぱたん
ひび
ひやり
ふく
ほくろ
ぼっ
ぼけ
ぽーん
まじり
まがい
やあ
よき
よそう
アシ
アーム
イキ
イライ
イコール
オル
カセット
キョ
キメ
キュー
コンド
サク
サファ
シカ
シンク
スモ
セロ
セキュ
ソビエ
タブレ
タキシ
ダーク
デフォ
ナル
ノン
ハー
ハニ
パク
パーツ
パネル
パーテーション
ヘン
ヘタ
ミラ
ミッション
モラル
ユイ
ヨーガ
リレー
リノリ
一ノ
一幕
万端
万事
三脚
三四
上等
下さ
不調
不能
不倫
中高
丸投げ
主体
他意
付録
代々
伏し
伝っ
住居
作動
健気
傷つか
光ら
克服
入念
全般
内装
冷徹
処女
出現
分類
剃刀
削る
前々
創作
動線
動員
勘定
勝る
区分け
危惧
却下
原始
厳重
参戦
双子
反する
収穫
古く
各部
合意
同性
同類
名誉
吠える
呈し
周到
呷る
咲か
商業
商法
営み
嘲り
噤ん
回れ
報復
墓地
増加
壊れる
夜更
夜遊び
大雨
大昔
大違い
失なわ
奨学
女神
如何
始終
委ねる
姿見
実用
実習
寄ら
寝坊
寝よう
対人
対極
封じ
専念
尊大
小うる
居眠り
屈め
山手
山奥
嵐山
工具
工場
工作
年始
幼児
店主
当人
形状
役者
後戻り
復活
忍者
怠り
性根
恥じる
息苦しく
悟る
悠々
悩ま
情けなく
慢性
懐疑
懸案
成分
成就
戸締まり
戻さ
扇風
手違い
手振り
折る
折衷
抜かし
拗らせ
捲し立て
援助
撃っ
撒き
支払っ
支払わ
改まっ
放ち
敷き
断ろう
施し
施さ
施錠
既存
日和
映える
昼寝
昼過ぎ
書こう
有し
本作
束縛
梯子
梳く
権限
欠如
歯磨
気質
気取り
気さく
気休め
水音
汚染
決戦
決済
治ら
洋食
洗顔
洗練
浪人
海面
涙声
深山
清々しい
溺れ
滅茶
激痛
無職
無情
無闇
煌々
煎餅
煩わしい
爪先
物陰
狂わ
狂気
現し
瓦解
生温
疎遠
発端
白黒
的中
監禁
相続
県民
真上
着飾
石鹼
砂漠
硬質
祝日
私的
積もる
突入
立案
端々
笑える
筋道
答案
粛々
純真
素手
紡が
終電
絵画
絶賛
継い
緊密
縫っ
美貌
翌年
考察
耳許
肯く
背丈
脅威
腹部
自席
舞っ
色気
芥川
花粉
花びら
苦戦
茶請け
落差
蓄え
蕎麦
薄っ
蘇る
蘊蓄
虚無
街並み
表し
被る
要請
要約
見し
見物
見やり
解体
解せ
解明
記入
訥々
設計
試算
試さ
詭弁
誤差
譲り
譲歩
護ら
資材
賞賛
赤々
赤坂
身分
身辺
車両
轢か
近場
近況
退勤
通夜
週刊
遂に
道端
違え
遡っ
適用
遭う
部下
配布
酸っぱい
鉄柵
長生き
関西
阻ま
階級
雄弁
電線
電飾
音頭
頭皮
頼め
顔面
顔ぶれ
飾る
驚かさ
高まる
麗しい
黙し
鼓膜
##々しかっ
##しぎ
##かそう
##ルダ
##きれ
##カイ
##すか
##すっぽ
##ちょ
##ねぎ
##つぶ
##けな
##どく
##マイ
##なれ
##ブック
##ロジー
##ザメ
##ては
##んぼ
##抜い
##抜く
##そめ
##リエ
##ラート
##ラシップ
##ミン
##パタ
##ぽか
##さざ
##レク
##ボル
##サイド
##ずむ
##はだ
##is
##ir
##ベット
##好み
##ビア
##ポット
##ポーズ
##潰す
##打っ
##晴れ
##散らし
##継が
##ゲンガー
##騒ぎ
##持つ
##叫び
いくばく
思い思い
言い淀
ほどけ
##わせる
見え隠れ
やり直
やり過ごし
なにくれ
引き裂
引き合い
引き寄せる
いかなる
つつく
さすっ
だいいち
押し出す
押し付ける
ちらつか
見せつける
##インド
打ち込む
持ちかけ
持ち込む
##ンドウ
笑いさざ
差し支
コーデ
流れ込ん
キャプ
消え去っ
切り抜け
読み取る
付き合え
つかめ
つくづく
歩き去っ
やすかっ
そろり
すっぽり
すっくと
##こしょ
とくべつ
踏み込ま
まいり
スタジオ
待ち伏せ
飛び跳
しゃんと
乗っかる
間違える
済まさ
突き合わせ
突き詰め
吐き出さ
駆け抜け
抱きつい
抱きつく
抱きしめる
覗きこん
チャラ
チャレ
語り合う
寄せ合っ
寄せ書き
漏れ出る
スカラシップ
張りつめ
吸い込む
ぐったり
ろくすっぽ
クラクション
カメラマン
折り紙
そばだて
睨み付け
がっしり
躊躇っ
スイーツ
悲しむ
しゃべら
頼りな
おとなし
カーペット
時折り
やたらめっ
コンビニエンス
ティーポット
うつろ
うつらう
ドラム
カラフル
ゴミ箱
ダイエット
ピンポン
はためか
やんや
目覚める
すいすい
サンキュー
つらつら
つなぎ
あわせる
嚙みしめる
斜め向かい
めでたい
拾い上げる
溶け込ん
ひっくり返す
ひっくり返っ
ゆるく
ジョブ
忍び寄っ
静まりかえっ
憐れみ
ネタバレ
立ち尽くす
づらかっ
うろつい
化け物
おっとり
飾り気
見届ける
ぶちまけ
むむむ
くすぐる
なぞる
ユニフォーム
ひととき
ぶるり
ぽちっ
ビビる
移し替え
しゃがみこん
ぽかぽか
ひいては
ワイングラス
エロい
悔やむ
見出だす
取り除い
指し示し
うずく
はじめる
込み上げ
凍りつい
オートマチック
かりかり
すれちがっ
かしこまり
肌寒い
寄り添う
どよめき
尽くさ
飲み下し
トンネル
アマチュア
研ぎ澄
仰け反ら
アクセサリー
小突い
駆り出さ
##ペルゲンガー
ぷんすか
ドッペルゲンガー
大いに
差し伸べ
追いやら
かちゃかちゃ
スチール
イニシャル
コラボ
埋もれ
薄汚れ
すさまじい
シルエット
パルコ
抱きかかえ
ギャンブル
なぎさ
火照っ
アーティスト
リサーチャー
おんなじ
ケータリング
パタパタ
湯沸かし
細長い
ターゲット
うたた寝
けらけら
そそくさ
イライラ
コンドーム
ソビエト
タブレット
タキシード
ヘタレ
リノリウム
一ノ瀬
三四郎
夜更かし
歯磨き
滅茶苦茶
やたらめったら
うつらうつら
50
mf
pr
sm
あず
あはっ
うわっ
えっちら
かたり
かぶせ
きけ
ぎっ
ぎゅ
ぎしぎ
くぐ
くそっ
くぐっ
こもり
こしょ
ござる
さる
すー
せわし
ぞく
ぞん
たこ
たわ
たがら
づける
てけ
てらっしゃる
とがら
ねだり
のぼっ
はさみ
ふくら
ぶらん
ぷく
へら
へたり
へらっ
べったり
ほと
ぼやい
まくし
みつ
むせ
むすっ
やま
よこし
れっき
わあ
わなわ
わだか
アツ
イヴ
イント
ウナギ
オチ
オーダー
カート
ガソ
キノコ
クイーン
ゲート
コナ
コルク
シングル
スキー
スリー
タグ
タープ
タンス
チーバ
ツー
ツンデ
ツアー
デニ
トヨ
トッピング
トースター
ドッグ
ドリア
ドーナ
ニヒル
ネギ
ノスタル
ハミング
バース
ピスト
ブラス
プチ
ホル
ホース
ポート
ポッキー
ポーカー
ムーブ
メカ
メジャー
モンス
ユング
リフレ
リンゴ
レス
レズ
レイト
レトル
ログ
一夜
上気
不純
不慣れ
両立
事足り
交尾
人出
人選
人心地
仁王
件名
体躯
体裁
係員
保温
個体
偉く
元凶
充足
先手
先だ
先回り
免罪
八方
共犯
具材
処置
出産
出鱈
刃物
刑事
刑務
初耳
制約
制裁
剃っ
削っ
前触れ
劣っ
勝た
勤める
勧める
半眼
協調
協議
単行
厚手
厚意
厳し
参拝
反撃
反転
反抗
口座
口火
口論
合戦
合点
吊るし
同義
名目
吹っ
周知
呻く
和らい
和やか
咳き
嗜好
嘆き
嘆く
嘔吐
固辞
固まり
国内
地蔵
基地
境目
壊滅
変形
外野
外壁
多種
夜間
大皿
大統
夫人
失格
奥歯
如実
始発
威勢
威厳
娼婦
学歴
守ろう
定刻
家路
家賃
寝癖
対症
封印
小遣い
尾け
屈ん
常緑
年老
幼虫
広々
広報
序列
店舗
度胸
度合い
強気
弾む
弾ん
当事
後背
従兄
得手
得よう
復旧
復習
徹し
心細
心苦しい
怒号
性器
悪び
悪気
悲惨
愛着
慈しむ
憶え
戦場
戸籍
所持
手書き
手慣れ
打算
抹殺
担保
拒ん
招く
拝借
捗る
探そう
接近
控える
換気
撥ね
撮ろう
操る
擬態
教壇
整形
敵対
断じ
新規
方々
方便
日数
日課
昇り
星々
昼ご飯
時分
暴言
曜日
曲げる
書物
最小
有数
本堂
枚数
枝豆
桜色
検分
標本
標準
模糊
権威
横切り
機体
歌わ
死期
殊勝
残骸
毎月
気まま
水色
泊め
泳が
活用
浮つい
深み
深まる
混合
漂い
潤い
濁す
点滴
無様
燃やし
特製
生い
界隈
病人
病状
痛ま
瘦せ
発症
白み
白状
百貨
盛っ
目々
直近
直截
省い
看破
眠かっ
瞑る
矜持
知名
祝う
等しく
筋書き
節度
精算
紛い
紛れる
素早
細心
絆創
絞る
給仕
絶っ
絶つ
綻ん
綻ぶ
緒方
繋ぐ
繫ぎ
繰っ
纏っ
美女
美術
羨まし
耳慣れ
聞ける
脂肪
腹立つ
臭く
至り
至言
苦しめ
華奢
融通
蠱惑
行こ
行使
衣擦れ
裂け
装い
褒美
襲い
要点
見極
見れる
視力
許せる
訳知り
評し
詳し
認証
誤っ
誤算
諸君
警棒
責務
質素
赤色
超人
足跡
跡形
車体
軋み
軍手
転じ
転び
辛かっ
込ま
逆らわ
通そう
過言
過酷
遮光
邂逅
部位
部隊
配膳
酢豚
酸素
醒め
重症
重荷
重かっ
野外
鉢巻き
鎖骨
鎮座
長め
開会
除外
陰謀
雄叫び
雑音
雑巾
雨水
預ける
頷か
題名
顔合わせ
風潮
風向き
食え
食らっ
飼う
館内
馳走
駆使
騙す
高圧
黙ら
黙殺
鼻血
##イスト
##ウッド
##きゃ
##えに
##カッ
##すれ
##っ子
##こめ
##こもっ
##つや
##けっ
##まわっ
##まつり
##くどい
##ほか
##ぐさい
##なお
##らせる
##タイム
##ブー
##ロコ
##ピン
##ピック
##上がら
##ラト
##ライン
##ミア
##殺さ
##だく
##ツハイ
##噛み
##エル
##付く
##ゴロ
##ジョ
##ジョン
##おっちら
##モア
##ずみ
##ずまい
##ゅん
##はら
##のい
##触り
##ケース
##de
##ac
##後ろ
##太郎
##積み
##交ぜ
##pg
##ビル
##ノン
##ノール
##除け
##ee
##ぬる
##潰さ
##ぴら
##流さ
##ぺらい
##ぞく
##飾り
##割り
##寒い
##吞み
##ぢんまり
##溢れ
じゃーん
じゃがい
あっけなく
くるま
そこかし
思いかけ
思い起こさ
言い切っ
言い切れる
ひとえに
二人乗り
小さかっ
取り扱
取りかかっ
取り留め
取り乱し
立ち込め
立ちはだ
見つかり
行く先
引きは
引き返す
引き立て
引き取ら
引き起こし
なぁに
##ずから
楽しもう
押し込ん
押し当て
聞き流す
聞き取れる
まずかっ
タイツ
後ろ髪
とてつ
とりだし
持ち物
決め込ん
はいっ
笑い話
ええっ
入り組ん
なさら
切り裂
切り返し
起き上がる
シャンパ
離れ離れ
買い取っ
書き上げ
マジック
コンテ
コンプレックス
抱え込ん
たまご
ファンタ
踏み出せ
手伝え
乗り物
追い払う
ごとき
飛び交う
しゃくり
作り出す
つきま
突き上げ
駆け込ん
かつん
頷き返し
ブラザー
ブラウン
サイコロ
がちがち
アルファ
アルツハイ
かすめ
アニマル
パーティ
詰め込ん
フェイク
張りつい
張り上げる
見送ら
隠し味
巻き起こ
満ち溢れ
ヒメノ
吸い寄せ
おっぱい
ディスク
風呂上がり
クラッカー
送り込ま
折りた
進めよう
走り去っ
##ルトラ
すり抜け
馴染む
すげえ
スケール
デザート
ひそやか
つま先
照らし出さ
ふるまい
ゴミ袋
タオルケット
アイデンティ
辿り着く
酔っ払い
ひっかけ
##ざとく
踏ん切り
2013
シェア
嚙み締め
運び込ま
垂れ下がっ
アクセント
合わさっ
ジョーク
崩れ落ち
フレンチ
ウォーク
ウォーマー
ミニチュア
ミニゲーム
用いる
うろつく
うろちょろ
ビジョン
スリッパ
ひきつっ
ひきこもり
履き替え
推し量
力強い
ファンファー
こらえ
ひねっ
わきまえ
ちょっかい
プラット
生き残っ
マネキン
縮こまっ
ややこしく
うなずく
うずめ
ぽけっ
浮き彫り
おっかない
ぬるぬる
トランプ
怪しま
見比べる
踊り場
曇り空
突き刺し
突き刺さっ
チラシ
プロデュース
むりやり
がさごそ
トロッコ
身の回り
寄り添っ
醸し出し
醸し出す
ずずい
おのずと
プルースト
きつかっ
チューブ
テクニック
##ンバス
まとわりつい
ニンジン
思い知らさ
引き攣っ
ひしひし
立ち会い
さ迷わ
たやすく
出迎え
見いだせ
とびきり
ありがたかっ
ペナルティ
片づける
つぶさに
さしあたっ
黙りこくっ
おなじ
たしなめる
サファリ
伏し目
薄っぺらい
チャレンジ
えっちらおっちら
ぎしぎし
くぐもっ
こしょこしょ
ぞんざい
わなわな
ガソリン
ツンデレ
デニム
トヨタ
ドーナツ
ピストル
モンスター
レトルト
先だって
出鱈目
大統領
年老い
悪びれる
じゃがいも
そこかしこ
シャンパン
アルツハイマー
ファンファーレ
gw
mo
sh
いな
うざい
おし
おふ
かざし
がに
がくり
きき
きめ
きれる
きょう
ぎゅう
くくっ
くぐる
くびれ
けり
けち
こし
こり
ごった
ざわっ
しよ
しがら
しっぽ
しどろ
じりっ
じたばた
ずぶ
せせ
ぜー
そつ
たつ
ださ
ちば
つり
つけれ
つがい
てか
てー
とつ
となり
どし
どす
どかっ
なで
ねむ
のう
のど
のめ
のせ
はか
はれ
はり
はば
はみ
ばち
ひか
ひまわり
ぴり
ぶわっ
へばり
べた
ほこり
みりゃ
むか
むしり
めずら
もそも
やく
よぎり
りん
るる
わーっ
アウ
アバ
イカ
イチ
イレ
イオン
ウー
ウルトラ
エッグ
オト
カール
カッター
カリカ
キッと
ゴースト
シリア
スコア
セクシー
センシ
ソリ
タール
ダチョ
ツール
テノール
デュ
トモ
トオル
ドレッシ
ナニ
ニン
ニート
ニュー
ハサ
バル
バツ
バッド
パト
ビキ
ピザ
フラン
ブーム
ヘビ
ベール
ポチ
マント
マップ
マウンド
マリオ
メンズ
モバ
ラリー
リズミ
レバー
レンタル
ロス
ロシア
ワク
ワールド
ワイルド
一昔
万全
上級
不全
不揃い
両端
中野
中華
丸出し
乏しい
井戸
交わっ
介さ
介護
代え
任務
伝票
体つき
侮蔑
保持
保障
偏り
催し
傷痕
儀礼
儚い
儚く
兆し
先刻
免れ
公演
冷水
几帳
凶器
出血
刊行
初歩
利き
刷り
剝がれ
剣道
剥い
劣る
劣化
効か
効力
動じ
勝者
北風
区切っ
匿名
卑猥
厚み
収まら
口癖
召喚
可憐
叶う
各種
合わさ
同感
同室
名所
含める
吸殻
命取り
品定め
嗜虐
回線
回想
回ろう
固唾
土蔵
在校
均等
埼玉
堅実
夏まつり
大吉
大阪
奢っ
好物
如し
妨害
婉曲
存続
学内
学ラン
守備
定型
客足
宿る
寂寥
密度
専任
導く
小難
小石
屈折
山々
岡野
川沿い
市販
希求
帰し
帰路
幼く
幼少
庇護
弱まっ
強風
彩ら
彫刻
往生
後々
後ず
後押し
得策
心が
快速
急遽
急かす
恐ろし
息苦し
悔しく
悪事
悲壮
悶え
惑星
愚直
愛猫
愛おし
憶測
懺悔
手ぶり
手触り
打てる
担ぎ
拝見
持久
挙がっ
捏造
捗っ
捲り
接続
推論
推奨
掬っ
掴ま
掴み
損し
摘まん
撤収
擁立
擁護
改める
放す
教材
敵わ
文書
斜面
斜陽
断た
断れる
方式
既成
日頃
日にち
日帰り
早急
早かれ
明ける
映す
映ら
晒す
晩秋
更け
最上
望ましい
朽ち
根っこ
極度
極限
楽曲
様式
歓談
正座
正門
歩か
歩行
気安
水中
汲ん
決裁
法定
泣け
洋服
活性
派閥
流星
流儀
浮浪
海沿い
消灯
淀ん
深まっ
清算
渦巻い
満喫
溢れる
漁り
漱石
濃紺
炎天
点滅
為す
無く
無骨
焦れ
然る
熱意
片目
物質
生々しい
用紙
発注
発せ
登山
白紙
白亜
目星
目許
相違
眼球
着こ
着込ん
着崩し
矢印
知能
磨り
神津
空調
突進
突つい
窘め
端正
筆頭
節約
紫煙
組め
経歴
絵面
練乳
縋る
罵声
羅列
美しかっ
習熟
耐える
耽る
肉球
肉食
肩紐
臨ん
色彩
花束
若手
苦情
茶屋
茹で
葉っぱ
薬物
蠟燭
表す
表彰
表わし
被写
裏手
補っ
補強
見立て
視覚
覚まさ
解ける
託し
記載
評論
詰問
説い
説き
課金
謝辞
謝恩
謹慎
議題
譲れ
譲ら
貫き
貴族
贈っ
赤点
走れ
車輪
軋ん
転生
軽々しく
込める
通わ
通称
通帳
連休
進級
遂行
遅かれ
遊具
遠まわし
適宜
遺言
部品
配送
酷使
酷薄
重圧
野良
野心
金色
針先
鉄板
錯乱
鑑賞
長編
開封
防波
除く
隔たり
隔てる
雇っ
難題
革靴
順々
預金
頭部
顎先
風見
風習
養わ
養護
饒舌
駆虫
騒々しい
騒がし
骨格
高揚
高鳴
高齢
高笑い
高鳴り
黒ずん
##かえる
##あめ
##あがり
##ろせ
##ンコ
##ンダー
##ンサー
##キャ
##シノ
##シング
##カタ
##むけ
##こちら
##ねっ
##つれ
##けぼり
##まろう
##まかせ
##めよう
##めかしい
##テッド
##テーブル
##ッズ
##なおし
##バシー
##とこ
##コラ
##てけぼり
##抜か
##ピカ
##リウス
##クール
##もどろ
##さむ
##ガタ
##ガード
##開け
##出来
##サイト
##ニヤ
##ニラ
##ニスト
##の手
##下がる
##利き
##ぼこ
##ぼん
##メル
##as
##ダチ
##ダウン
##憑か
##迫っ
##黒く
##ec
##ぬけ
##ふっ
##ふた
##ふや
##冷え
##細か
##詰まっ
##握り
##残っ
##造り
##壊し
##兼ね
##待ち
##偽り
##紛れ
ことごと
いいや
なるたけ
これる
いっつ
もうけ
ちょー
やっつけ
思い入れ
思いつめ
ほうっ
ひと気
取り組
取り入れ
取り掛かっ
取り澄まし
立ちす
立ち姿
受けとっ
答えよう
答え合わせ
やり場
なにごと
引き締
引き離
引きずる
引き起こさ
引きつっ
引きこもり
引き起こす
引きこもっ
##たくっ
つつか
さらさ
押し上げ
押し出さ
押し切ら
聞き出し
過ぎれ
バイト代
後ろ向き
立ち上っ
打ち破
打ち震
打ちのめ
持ち出す
持ちあわせ
置いてけぼり
行きつい
差し挟
差し上げ
流れ落ち
キャパ
キャス
キャビ
キャップ
キャンバス
ええい
入り交
切り身
切り離
切り分け
頑張れる
っぽかっ
っぽっち
つかの間
引っ込める
書き物
書き込ま
書き直さ
降り積
伸ばせ
おくび
コンプ
コンクール
どの道
受け取れ
いまどき
きりきり
ファー
踏み込み
ショコラ
乗り出す
ジャイ
ジャック
追い込み
追い出さ
ストリート
##ローグ
##スマン
コミケ
なおかつ
つきあう
突き立て
突き止め
物語っ
駆け下り
フォー
フォーム
吹きかけ
抱き上げ
よーし
とことこ
座り心地
語り口
詰め寄っ
フェーダー
誤魔化そう
張り付い
リーダーシップ
巻き込む
さきほど
うっせ
焼き肉
焼きつけ
プリン
ティンパ
かかわっ
折りたた
こぼれる
チェックリスト
回りくどい
ひたと
売り切れ
売り払っ
がらがら
歩み寄り
晴れやか
結びつく
結びつき
かわいそう
抜き取っ
ディスレク
うかがう
すみっこ
ふるまっ
洗い流し
隠れ家
エリート
アウトドア
トップス
ガハマ
正しけれ
容易い
2014
2011
シェフ
##ュアル
ホームルーム
アンテナ
揺らせ
羽織る
あわただ
巡り合え
静まり返る
ハマっ
モノレール
にゃー
にゃん
エスパー
##デルセン
覆い隠し
ネコザメ
##ッフル
あしらう
あしらっ
くすぐったい
解き放
つづく
あちらこちら
恨みがましい
モチーフ
プライバシー
混み合う
うつむき
引き結び
ブログ
無茶苦茶
ちんちん
ユーモア
しがみつく
たじろぐ
仕切り直し
か細く
取り除か
プロセス
田舎道
つるん
かったる
かちかち
舞い上がっ
ミュージック
でんわ
サキサキ
言い放つ
項垂れる
わんわん
馴れ馴れ
ワークス
素っ気ない
素っ気なく
茶化し
あやふや
ファイヤー
ニヤリ
ハシッシ
モーニング
口説い
持ち帰っ
切り替わっ
マニュアル
プロジェクト
請け合い
心地よかっ
蒸し暑い
アフリカ
ヴィジョン
長引い
思いのほか
こそばゆい
揺るが
ストライク
ハリウッド
ポテト
##知らぬ
クーペ
ゴロゴロ
モニター
惜しま
飛び交っ
よそよそしい
シベリウス
馬鹿馬鹿しい
ばさばさ
スモーク
代々木
差し支え
うずくまっ
研ぎ澄まさ
ぞくぞく
ぷくーっ
従兄弟
しがらみ
しどろもどろ
めずらしく
もそもそ
ダチョウ
ハサミ
ビキニ
モバイル
リズミカル
几帳面
心がける
着こなし
ことごとく
ディスレクシア
28
29
80
bl
fm
lhr
rpg
あぁ
あふ
あっと
いっと
うけ
うしろ
うがい
おん
かじ
かな
かみ
かっちり
かくれ
がかり
がっくり
がさっ
がっちり
くま
くらっ
こき
ごう
ごた
ごかし
しく
しゅっ
しだい
すか
すがる
ずき
ちい
つぐん
てりゃ
でろ
とおし
どや
なび
にかっ
ぬぅ
のぼ
はん
はーん
はぐれ
はやっ
ばったり
ぱし
ぱしゃ
ひっきり
ひねる
びくり
びっしり
びくび
ふらっ
ぷに
ぷはっ
へそ
ほけ
ほわ
ほわっ
ほろり
ぼー
ぼやく
まどろ
みずから
めざし
めくら
もこ
もく
もめ
やかん
ゆるい
んで
アサ
アンチ
イチャ
イギリ
カジ
カモ
カルト
カンパ
キリ
ゲット
コピ
サロン
ザメ
ジッパー
スラ
スライス
セイ
セーラー
ソレ
ソニー
タッパー
ダサ
チン
デカ
デメ
トム
トング
トーナ
トウモ
ナマ
ナッツ
ノルマ
パシ
パフェ
パペット
ヒツ
ビク
ビジュアル
ピリ
ピーナ
ボン
ボイス
ボルト
マク
ムシ
ムー
メルセ
ヨー
ランク
リーク
レディ
ロード
ロイヤル
一句
一点
一心
一概
上体
上質
上出来
下ろさ
中指
中空
中旬
中枢
主要
乏しく
乗車
乗ろう
予選
亡くし
仏壇
仕返し
代わる
企ん
伊勢
伝達
伝手
伝わり
似通
佇ん
体型
併設
使おう
供給
価格
便宜
信憑
修復
個所
倍率
元旦
先程
入手
入門
内省
出で
出揃
分別
分派
分かる
初冬
判定
加害
動向
勘繰り
半信
半球
半疑
半泣き
卑劣
厳か
収まり
受講
受かる
口頭
口紅
口出し
古び
同席
同行
同期
同化
名詞
含む
吸血
咲く
嚙ま
地帯
堕ち
塗ら
塗料
増や
壁掛け
声量
夕闇
外れる
多義
大地
大筋
大振り
大嫌い
大まか
天性
太平
奇声
奥まっ
奴隷
妄言
始まら
姑息
婚活
媚び
嫌々
嫌気
安眠
安寧
安っぽい
実態
家々
密室
富ん
寒風
射竦
将棋
尊厳
小路
小腹
小川
小賢
小瓶
居座
左様
差さ
帳尻
常時
平家
平板
年中
底辺
座れ
座卓
庶民
強力
強張り
強張ら
形態
後退
後回し
従来
御免
循環
心霊
心掛け
心ゆく
忍ばせ
志向
快活
快音
怒気
思慮
急き
急かさ
怪物
怯ん
恐ろしく
息切れ
悠長
悪びれ
悲哀
情け
意向
愚かしい
愛らしい
感受
懲り
成田
戯言
所以
手玉
手鏡
手もと
手立て
手詰まり
打席
打者
払拭
折ら
招い
挙句
挿し
捌く
捕まえる
掠め
探せ
接ぎ
掴め
提灯
揺らい
揺らめ
摘ま
撃鉄
操っ
支持
改め
救え
整い
文法
文献
断絶
方言
日の
日光
日傘
旦那
旧式
明快
普及
景気
暗殺
暗黒
暗唱
暗黙
更生
更なる
書評
月面
有望
未満
本命
束ね
来よう
染める
楽観
楽園
概ね
機構
機内
欠かせ
武蔵
歪ま
殺せ
比丘
気取っ
気兼ね
氷水
求人
汚し
油揚げ
波風
流動
海鳴り
消極
消防
涼子
深淵
添付
清浄
減らす
温まっ
湯吞み
滋養
滑れる
滞り
潜る
潤滑
点ける
無効
無精
無尽
無碍
無為
焼却
煙突
煽っ
煽ら
熟睡
熱帯
片足
片づい
片付い
片っ端
物件
特性
特異
独白
猪口
率先
王道
現す
理念
理科
生息
生気
産ん
用水
男前
疾走
病む
病的
痺れる
発信
発明
白飯
白米
白々しい
的外れ
目頭
目安
相棒
省け
眇め
眉尻
真空
真偽
眠ろう
瞠っ
矢面
石庭
祐二
積もり
空ける
策士
節介
築く
簡易
精通
素足
素質
素知らぬ
細か
細面
組まさ
結晶
給ひ
統括
続行
緊迫
緑茶
縁側
縛る
縦横
繁殖
義母
義兄
羽毛
習い
聖地
聴覚
肘掛け
肩越し
腹立た
臨時
自責
至高
至福
苛烈
荷造り
萎ん
萎縮
葛藤
薔薇
虚偽
虚しい
血の
衝か
表層
表札
被せ
裁量
装う
補正
複製
見目
見合っ
見直す
見分ける
規範
視認
観葉
解剖
計っ
記号
設営
課し
講堂
警視
護っ
豚肉
負い
財団
貼る
資本
贅肉
贈ら
赤み
走馬
起因
足首
踏まえ
躍り
身だし
身振り
車窓
転送
軽め
辛辣
辞退
辟易
農場
農園
迂回
近年
迷子
迷宮
追従
退場
逃亡
逆手
遅らせ
道義
達人
適任
遮断
遺書
郷愁
配分
酒盛り
重度
重心
野原
鈴木
長男
閃き
閉店
閉塞
阿呆
陸上
陽ざし
隔絶
障る
隠せ
雅美
集約
集客
雑木
離脱
難しかろう
雨風
雨宿
靡か
面差し
音源
順応
頼も
飲もう
駅員
高み
高熱
髪飾り
魔力
麻薬
##ルム
##あら
##ナイ
##ウル
##べっ
##ーノ
##トリ
##つる
##まね
##くねっ
##めぇ
##ほや
##マーク
##なぞ
##バミ
##ローブ
##グランス
##とろ
##コツ
##てん
##ばなれ
##げん
##が丘
##ュメ
##リンズ
##リネット
##見よがし
##ごち
##もち
##もこ
##にや
##せい
##フフ
##06
##スコ
##立たし
##ボロ
##ボーン
##サギ
##やっと
##やほや
##はき
##はー
##のこ
##放さ
##ぼし
##ic
##ri
##メイ
##オカ
##ぷに
##デス
##砕い
##ビリ
##ビアン
##飛ん
##os
##nd
##違っ
##当たっ
##投げる
##撒い
##ひとり
##bo
##仰ぐ
##越す
##静か
##仕事
##討ち
##ぞり
##急ぎ
##林間
##ヨウ
##借り
ようやっと
いい聞
じゃい
なくす
ものっ
できあがる
ちゃら
ちゃっちゃ
これ見よがし
考えこむ
思い悩
思い違い
ありか
思うさま
ためし
ためらっ
ためらわ
言い表
言い合い
ひと足
かけ声
あとがき
取り憑か
ああっ
立ち直
答えろ
振り返し
##タージュ
まっさら
微笑まし
行く手
引き剝
引き剥
引き継ぎ
引き継い
じゃあじゃ
だろー
通り越し
通り抜ける
押しかけ
押し入れ
聞き取ろう
まずく
タイガー
上げれ
とりなし
打ち消し
持ち替え
持ち直し
持ち帰り
忘れよう
笑い飛ばす
差し込み
流れ星
なさっ
切り抜き
クリック
つくし
引っ込む
降り立っ
まとまり
いただか
勝手口
切っ先
おおっと
おおまか
踏み越え
ショウ
ショット
ジャンク
追い込ん
スタバ
止めよう
飛び出
飛び込む
アイコン
作り上げる
出来上がっ
##ディネ
伸ばしかけ
慌てる
さておく
自由が丘
突きつける
突き放す
##しかかっ
吹きつけ
抱き寄せ
抱き着い
##ちゃん
チョーク
逃げ場
逃げ込ん
スポンジ
サイク
ふうっ
座り直す
切れ目
かすめる
気配り
組み替える
うるさ
流し込む
フェード
させよう
もたげ
張り詰め
プールサイド
借りれ
投げ出し
比べもの
増えれ
おっしゃっ
つぶす
ろくろ
泣き言
泣き声
とんだ
ディレ
冷え込む
スペード
スペシャル
受け入れよう
クラリネット
ふんぞり
見渡せ
並べ立てる
インテリア
跳ね起き
勝ち気
勝ち負け
スキップ
締めく
締め付け
パスポート
悲しん
埋めよう
回り込む
伏せら
放り込ま
放り投げる
スケート
ミステリ
きゃあ
かき氷
搔き上げる
ティータイム
ううう
見下し
カフェテリア
合いの手
とらえ
噛み締め
中央林間
染み込ん
しかたなかっ
##かえし
##かえす
鬱陶しく
シンキング
苦し紛れ
ひっつか
添え物
こぼれ落ち
売れ残り
混じり合っ
ヘッドライト
貸し出し
シェイク
きわまり
斜め下
立たさ
グラム
グランド
迷い込ん
アンケート
浮かび上がる
ゆるゆる
フレグランス
あわあわ
混ぜっ
ぎこちなかっ
吊り上げ
横たえ
オープニング
サボる
なぞなぞ
頑張れよ
あちら側
ぶるぶる
エントリー
ボディーガ
コントロー
試みる
しなだれ
おやつ
こだわる
##ウェア
インターネット
バリトン
ワイヤ
零れ落ち
がふっ
いじら
ヘアピン
思い描く
かちり
導き出す
曲がりくねっ
見透かさ
チラ見
ぴょこっ
はきはき
畳みかける
すれちがう
こすり合わせ
気付く
カウントダウン
あぶない
湧き上がっ
透き通る
##リッジ
飲み下す
しょぼい
トレンチ
返り血
ハシバミ
まくしたてる
グリル
吹き飛ばさ
ほころば
光り輝
惹きつける
プロジェクター
はらはら
コネクション
愛おしく
キツネ
リハビリ
レギュラー
たどたどしく
名残惜し
ひゃっ
寝そべり
微睡み
すうっ
イマドキ
オムライス
リムジン
取り囲ん
とろとろ
カウンセリング
および
つやつや
カクテル
パーソナ
ぐしぐし
にやにや
小うるさい
すーはー
たわごと
ホルモン
レズビアン
紛い物
##ロコシ
アイデンティティ
ごった返し
とつぜん
カリカリ
マリオネット
立ちすくん
入り交じっ
ティンパニ
あふれる
いっとき
ぷにぷに
もこもこ
トーナメント
トウモロコシ
ピーナッツ
メルセデス
出で立ち
出揃っ
小賢しい
比丘尼
腹立たしい
身だしなみ
雨宿り
じゃあじゃあ
ボディーガード
00
81
con
go
hp
ih
ol
vi
wor
あつい
あわさ
いたく
いたる
うし
うだ
うなり
うなっ
うーっ
うぐっ
お手
おぉ
かむ
かこ
かの
かぶ
かまし
かぶる
がましい
きた
きん
きっかり
ぎっしり
くら
ぐぐっ
こけ
こぎ
こた
こって
ごろん
ごちゃ
ごほっ
さと
しり
しつけ
しっとり
すがり
ずずっ
そび
そらし
そそる
たす
たげる
たがり
たたら
ちっぽ
ちまえ
っ子
つかっ
でか
でぇ
とこう
とろり
なつい
のり
のたま
はえ
はやく
ばしっ
ひしめ
びくん
ぴか
ぶれ
ぶらさ
ぶ厚い
ぷり
へい
へーっ
ぺこ
ぺん
ぺこっ
ほっこり
ぽり
ぽこん
まじめ
まぶし
みつける
むき
めき
めぐら
もり
もみ
やい
やさ
やぶ
やがる
ゆり
ゆみ
ゆとり
よお
れん
ろう
んーっと
アブ
アパ
アゲ
インチ
ウノ
ウサギ
エニ
エモ
エビ
オラ
オセ
オースト
オリン
カミ
カ所
カティ
カーブ
カジュアル
ガチャ
ガトー
キン
キュア
キリスト
クリー
グッド
ケツ
ケンタ
コウ
コリンズ
シール
ジュー
スズ
セオ
ゼミ
ソメイ
タダ
タスク
チノ
ツイン
テール
テンプ
テンパ
テイスト
デビル
ドル
ネイ
ネイル
ハウ
ハンズ
パッ
パフ
ビー
ビタ
ビリ
ビュー
ピカ
ピッチ
ブレス
ベージュ
ホモ
マカ
ミーツ
メイ
モブ
ヤバ
ラム
ラベ
ラベル
リボル
レン
レイン
レッド
一身
一服
一挙
一介
万人
丈夫
不遜
両側
中核
中古
中堅
丸々
九十
予鈴
五百
亡霊
享受
人質
人恋
今さ
今晩
今ごろ
仔細
仕込み
付与
代価
代金
伺っ
低かっ
何に
余ら
余所
侮ら
便り
保守
修理
偏っ
偽装
償い
優越
優しかっ
公表
六本
円陣
冒険
冬至
冷却
冷淡
凡庸
出社
分割
切ろう
刈り
利口
刺々しい
刻印
削除
前夜
前振り
剝い
剝き出し
割く
割引
創造
励む
労う
動じる
半々
南国
厭わ
取得
口内
古着
古本
召し
召さ
叱り
司会
同等
同好
同棲
名分
名字
吞ん
周年
呻き
呼気
和らげ
問おう
善人
喝采
営ん
嘯い
四駆
団結
図体
固める
国家
均一
墓参
壮絶
変貌
変人
変装
変わろう
外観
多岐
夜通し
大過
大衆
大嘘
大騒ぎ
太く
契機
奔流
安らぐ
定例
定規
宝物
実地
家電
容疑
察知
寿司
射的
尋常
小鳥
小皿
小僧
尚更
居ずまい
屈託
届き
崩れる
川面
川べり
巡る
巡回
巧み
差異
帰結
帰ろっ
常々
平行
平坦
年号
幼子
広大
庇う
当惑
形而
後味
従え
従業
得てして
徹する
心穏
心残り
必殺
忌み
忌避
念頭
怠惰
急かし
怪しく
恒例
恩恵
患っ
悩まし
悪寒
惑わさ
愛せる
憎しみ
憐憫
懇々
戦術
戻そう
所定
扁平
手当
手刀
手頃
手合い
手ぶら
手並み
手放す
抱擁
抱っこ
拍車
拙い
招待
持論
指ぬ
振れ
排し
探さ
推察
掻く
揉める
揚々
損傷
損なう
操り
支給
放さ
敢え
散り
散見
整う
断固
新築
日没
日暮れ
早退
明晰
明くる
昔話
春先
晩飯
晩ご飯
普遍
書棚
月光
有耶
望め
朝刊
朝ご飯
期日
未明
本文
本館
本栖
朱色
条虫
来月
来賓
東福
染色
栄光
根元
根こそ
格段
森閑
様相
樹木
機器
正規
歩幅
歯噛み
死角
毅然
気候
気取ら
水族
水溜
氷河
汗だく
汚さ
池袋
治癒
法学
注釈
洗わ
洞窟
流石
浜辺
浪費
浮上
浸り
浸かる
消息
深まり
混む
混ざり
温厚
湛える
満載
溶ける
滅び
滅入る
漆黒
演習
潰れ
濁り
濃厚
濡らし
火種
無き
無能
無二
無知
無謀
煉瓦
煮物
煽り
燃料
爆弾
片頬
牛肉
牛丼
物置
物悲
物思い
物静か
独断
獲物
玉ねぎ
班分け
現世
球場
理知
生贄
用賀
用途
異端
疎い
疑心
疫病
癒さ
発祥
百戦
盗撮
盛ん
目下
目尻
目障り
直せ
省略
看過
看病
着ける
短所
短冊
矯正
石油
研修
社内
神秘
移入
移ろう
稲荷
稼げ
穏当
空回り
穿い
窓枠
童話
競走
筋合い
答辞
築き
篭もっ
精々
精度
糖分
紙切れ
紡ぎ
終息
経た
経て
絨毯
絶滅
絶大
網膜
綻び
縄張り
縋り
縋っ
縮ん
置け
群衆
群がっ
羽柴
翌週
習う
習得
老け
老女
聖人
脅さ
脅かす
脊髄
脱会
腐り
腕前
膠着
自力
自家
自発
自炊
色恋
花柄
花壇
芸能
苛む
苦しかっ
萌え
落花
落雷
薄着
薄まっ
虚勢
血な
血管
行先
表通り
裏目
複合
西洋
覆す
見地
見得
見合う
見過ご
見とれ
覚束
親交
訊け
診察
詰ん
誇り
認定
認可
語ろう
読解
諭し
謎かけ
警護
負荷
貧相
貯め
賑わい
起床
足搔
足踏み
踊らさ
踏切
蹴ら
躍る
身軽
身勝手
躱す
軽侮
轟音
轢き
近寄ら
返せる
返そう
退散
通える
速やか
連呼
過大
過敏
達観
遙か
遠のい
適量
遭わ
選り
選抜
邪念
酒瓶
酔う
醬油
重たい
金閣
金網
銘柄
錬金
錯誤
鍵盤
鎮め
長居
長髪
長寿
閉館
開店
開幕
関門
降車
陣取る
除菌
陥る
陥り
陰湿
陽だまり
際限
隣町
雇わ
雑多
雑煮
離陸
震動
青々
青色
面積
頂上
頂戴
預言
顰める
風貌
風変わり
飛ばさ
飴玉
飾ら
餃子
養父
駆除
駆動
魔物
鳴ら
鳴らさ
黄身
黄昏
鼓舞
鼻孔
齧る
##しれ
##じ茶
##かぶ
##かから
##イオ
##イナー
##イメント
##ルル
##シガ
##シティ
##カツ
##カレ
##トロ
##れれ
##すく
##すかし
##まく
##ゆき
##テイメント
##ッテル
##ドウ
##ドックス
##なで
##バランス
##返ら
##返せる
##とめる
##とれる
##se
##コース
##上がれ
##がま
##がく
##それ
##チン
##アツ
##アゲ
##ラップ
##ラリア
##戻し
##ごわ
##ごた
##パク
##もろ
##もく
##びやか
##切ろう
##ツボ
##レッタ
##エイ
##エール
##スピア
##ワイ
##ワク
##ボー
##付か
##ジット
##サイ
##おろ
##おお
##足す
##モノ
##無耶
##ずき
##ケード
##厚く
##ik
##ta
##ap
##ぷた
##飛ばさ
##吹雪
##ぱしゃ
##un
##ぴし
##ぴか
##ぴょん
##乱す
##浸し
##育っ
##ふー
##鳴らし
##ぺろ
##知る
##固まっ
##難い
##残す
##届い
##ヨシノ
##渡し
##渡す
##射し
##持っ
##求める
##頼み
##代わり
##滑り
##飽き
##凄い
##狭し
##冴え
からー
もの悲
できたて
ちゃちゃ
いっせい
ちょろ
わかめ
思い返せ
言い争
言いつけ
言い直す
ひと時
ほど遠い
またがっ
またもや
かけら
大きけれ
取り掛
取り外
取りつけ
取り合っ
取り上げる
取りかかる
取り巻き
あああ
立ち話
立ち去ろう
受け付け
##らしかっ
振り出し
振り上げ
ともし
おいし
引きずら
引き留め
引き連れ
入れ違い
あんれ
言えよう
押しやっ
押し倒し
聞き出す
ちらつく
過ぎっ
眺め回し
とりまとめ
持ち手
持ち出さ
プロポーズ
##ンドラ
決めつける
あげく
行き違い
行き届い
キャン
入り込む
読みかけ
シャイ
シャッ
シャープ
離ればなれ
引っかけ
呼び名
呼び込む
いただこう
もったり
ふっふっ
コンコース
繰り出し
繰り出さ
##ューズ
##ューシャ
求めれ
信じよう
受け取ろう
あらあら
いまさら
踏みしめ
手伝える
乗り込み
乗り換える
生まれ育っ
申し込み
追い払っ
追いやっ
強いる
諦めろ
待ち望
バスローブ
##バーサ
しゃがん
触れ合っ
突き落とす
吹き込む
吹き飛ばす
##ちゃら
##ンジェ
話しかけよう
逃げ道
逃げ込む
頷き合う
覗き見
ぶん殴
ブラジャー
スポルト
サイクル
##つかない
さまよっ
アニソン
アニサキ
そっちのけ
パーカ
パーマ
詰め合わせ
スカウト
流し台
流し込み
盛りつけ
盛り上げる
もたせ
ウェーブ
つぶっ
ぽんかん
揺れ動
クラゲ
控え目
送り込む
うわあ
うわごと
叩き込ん
アレンジ
こんもり
##フェンス
死に絶え
睨み合う
睨み付ける
インパクト
ぱちっ
すり替え
くっそ
くっくっ
スキャン
オーディ
##シャン
回り道
すげなく
間に合い
頼りなく
倒れ込み
あらたまっ
デザイナー
手間暇
結びつける
結びつか
搔き分け
独りぼっち
積み上げる
示し合わせ
待ち合わせる
たどる
ふるっ
ざわつく
ふらつい
染みつい
背負う
はためい
はためく
ノーパン
食いし
食い下がっ
食い入る
すり合わせる
ガハハ
追いつけ
追いつこう
遠ざかり
まじない
苦しむ
ひっかかっ
こぼれ出る
売れ行き
売れ残っ
がたぴし
むずかし
つっかけ
つっかける
シェール
アカデ
頼みごと
絞り出さ
うなぎ
めでたし
アンダー
アンバランス
ブランデー
手招い
揺られる
見開く
暮れな
思い至り
巡り合わせ
燃え盛
だーれ
不可思議
ふさわしく
##んじん
ジェラート
横たわる
##ーイング
クレジット
冴え冴え
とうとう
たどり着く
ばら撒い
サンタクロ
ターンテーブル
##ヴァー
たたえ
ぶちのめ
なぞり
なぞっ
解きほ
解き明
つづき
ガンダム
##ばたき
マルチ
アクセス
どきっ
ウィンドウ
散らかし
すくめる
クロス
ランキング
あったかく
やむなく
刻み込ん
悔やみ
取り除く
おもしろかっ
田舎町
じゃれあい
アタック
##ハハハハ
ふーふー
四角く
2022
まぶしい
刺さる
引き戻し
ばんばん
口ずさみ
のけぞ
揉め事
バンブー
おろおろ
はなれ
フローラル
断ち切っ
断ち切る
消え失せる
マニアック
潜り込み
照りつける
言い募っ
カチン
痛めつけ
青白く
モーメント
押しとどめる
当てはまる
コロコロ
アクセサリ
ニンジャ
惹きつけ
引っ搔か
引っ搔き
uss
ぺろぺろ
ガタガタ
イタリアン
the
がちゃり
もどかし
すべり台
ほっぺた
おぼつかない
ぴょんぴょん
駆け巡る
張り巡らせ
割り振ら
はっはっはっ
はぐらかさ
ぐらぐら
ずり落ち
思いとどまっ
立ち昇る
聞き逃し
送り届け
酔っぱらっ
覆い隠す
キョロ
キメ顔
シカト
言い淀ん
キャプテン
飛び跳ね
せわしなく
ぶらんこ
まくし立て
ノスタルジー
たまご焼き
ファンタジー
アルファベット
プラットフォーム
おふくろ
へばりつい
センシティブ
トモダチ
打ち震え
キャビネット
あわただしく
くまなく
ごたごた
ぱしゃぱしゃ
びくびく
コピペ
デメリット
似通っ
射竦める
接ぎ穂
血の気
サイクリング
シェイクスピア
お手上げ
こってり
ちっぽけ
ぽりぽり
やぶさか
オセロ
オーストラリア
オリンピック
セオリー
ソメイヨシノ
ビリヤード
リボルバー
今さっき
六本木
墓参り
心穏やか
指ぬき
有耶無耶
根こそぎ
血なま
スポルトップ
アニサキス
サンタクロース
40
92
co
ii
ic
op
on
pop
re
se
あぐら
いり
いも
いらっ
うそう
うすら
うっとう
うどん
えーっ
えてして
おざ
お蝶
おびき
お好み
かぎ
かがみ
がけ
がたり
きらい
くち
くたく
くもり
ぐう
ぐにゃ
げっ
ごろり
ごにょ
さげ
さつま
ざい
ざーっ
ざりっ
しで
じか
じめ
じまい
すする
ずらす
せり
たっと
たまり
だて
ちり
ちーん
ちから
ちろり
ちびり
ちやほや
っ気
ったく
つない
つっこ
づき
てよう
てこう
とか
とべ
とっと
とおっ
どろ
なけ
なみ
にじり
にんまり
ぬぐ
のこ
のばし
はまり
はーっ
ばしばし
ひげ
ひひ
ひらめ
びしょ
ふけっ
ぶっこん
ぷし
へこん
へこみ
べべ
ぺち
ほぐれ
ほつれ
ぽい
ぽっ
ぽこ
まき
まぜ
まもっ
まざま
みよっ
むさ
むふ
めく
もも
もやし
やみ
ゆらり
よよ
よみ
よろし
アミ
アガ
アオ
アート
イブ
イミ
インク
ウソ
エグ
エク
エラー
エッセ
エンタ
オヤ
オプ
カリフ
カバン
ガク
ガシガ
ギア
ググ
ケチャ
コク
シグ
スライ
スカー
スエット
セラ
セルフ
ソープ
ダシ
チーン
ッと
ッて
ツボ
デレ
トゥ
ドツボ
ナレ
ナース
ナレーション
ネオン
ババ
バニラ
ピリオ
ピーラー
プリー
ヘビー
ベン
ベア
ベガ
ベビー
ベレッタ
ペラ
ホウ
ボー
ボブ
マリ
マスト
マウント
ミサ
メーター
モル
モップ
モーター
ヤマ
ヨウ
ラテ
ラック
リバ
ルビ
レンガ
レッツ
ロリ
ロケット
一退
一会
一陣
一進
一括
一矢
一休み
一握り
三々
三つ
上の
上回る
下し
下ら
下心
下品
下読み
不利
不服
不動
不変
不断
不平
不運
両耳
両肩
中継
主食
乱雑
乱れる
予兆
事案
事例
事後
五々
亘っ
交ざっ
人文
人情
人称
仁和
介抱
仕業
仕打ち
付随
代官
仮眠
仲直
仲睦
会心
会費
会おう
伝統
似つか
低め
余る
余程
俯瞰
値踏み
偏狭
備品
備わっ
催促
傾く
優等
元来
光線
光栄
光源
免除
入社
全っ
共謀
兵隊
内密
内申
円満
冬服
冷酷
冷める
凄く
処罰
凶暴
出店
出窓
出展
出かかっ
出歩い
出歩く
分解
分散
分岐
分泌
分かり
切に
切断
初潮
判じ
前線
前歯
前衛
前倒し
剥き出し
割い
割る
割と
割れる
加筆
労い
効用
勝とう
募る
募っ
勢力
化す
匹敵
午睡
半生
単体
即席
厳格
厳守
及び
反感
反面
右足
各人
各位
合成
吊る
同種
名産
吹聴
咥える
唐辛
啓示
喚起
喰らっ
嗜む
嘲る
因縁
団扇
囲い
図っ
地頭
垂れる
基づき
堤防
報い
塞ぐ
壁打ち
声明
売ら
変質
変革
外科
外資
大義
大股
天板
天啓
太田
失言
失敬
失恋
奇抜
奏で
奢り
好戦
如き
如才
字幕
孤島
学食
安直
安価
安かっ
定める
宿村
寂しかっ
密約
寝ろ
寝泊
寸分
封鎖
射し
射撃
導入
小麦
就き
山間
嵌っ
左隣
帝国
席替え
常人
常備
幅広
平積み
年収
年金
幼かっ
広島
序盤
店構え
延期
延命
引力
弱音
強み
強行
強豪
強靭
強まっ
弾く
彗星
彷彿
役回り
律し
律義
後ほど
心もと
心強い
怜悧
怠慢
急流
急須
性分
性癖
性腺
怨み
恐々
恥ず
恩人
悩め
悪しく
悪しき
惜しかっ
愉しい
感知
慕わ
慟哭
慰謝
憎み
成虫
手法
手摺
手提
手回し
打撃
払え
抗い
抗弁
担う
拘わら
拙者
拝観
拠り
括っ
拭え
拵え
持続
捌け
捕らえ
捩り
捲っ
捻じ
排斥
掛から
探険
提言
提起
援護
搾り
搾取
撤回
撤退
撮れる
擦る
支払う
改造
改革
放出
放逐
故意
教職
教訓
散乱
散らし
断定
方形
日だまり
昆虫
景品
智慧
暑かっ
暗幕
暗転
暗号
替わり
最期
月末
朗々
朝日
木の
木目
木霊
未知
本書
来店
松林
枕もと
柄杓
某所
校外
根底
根源
根幹
根回し
案じ
梳い
検定
極み
極まる
欄干
次ぐ
欲張り
歯嚙
歯止め
段差
毒気
比例
気負
気弱
気付け
気疲れ
水気
江戸
沁み
沈鬱
沖縄
治り
治す
泣ける
洋風
津久
洩れ
流通
消失
深める
清涼
測っ
渾身
湯上がり
湿ら
満員
演目
漬物
潤沢
激し
火災
炭酸
点々
煌めき
煌めい
煌びやか
煩悩
煮え
煮込む
熟練
片付ける
片割れ
物騒
犯さ
狂信
狭間
玩具
珍し
現職
理路
理詰め
瓜二
生やし
産物
用具
田原
男手
男物
留保
留年
疑わし
疑わしい
病死
症候
痙攣
発進
白熱
皮むき
盗ま
目印
直立
真横
着火
瞑り
瞑想
知事
知ろう
短め
短期
矯め
石垣
砂煙
硬貨
磁気
神頼み
秘策
稲毛
稽古
空しく
空振り
突く
突撃
突発
窓越し
立体
竦ま
筆跡
管弦
粘り
精査
紅潮
純白
級友
素性
素麺
終止
終点
絡む
給へ
絶命
綴っ
総菜
緻密
縁石
縫い
縮れ
縮刷
縮める
繋が
纏い
罰し
美しき
翌月
老い
耳た
聖域
聴取
職務
育つ
背脂
脆く
脇役
腐腐
腕ま
臨海
臨床
自制
自負
自重
色白
色紙
花弁
苛立た
苦虫
苦味
茜色
茶々
草原
荒々しい
荒々しく
落着
蔑む
薄情
薄らい
薬缶
藤野
虐待
虚飾
表記
被せる
裁定
要ら
見本
見紛
見返す
見抜け
見回り
見きわ
見張る
見過ごし
規制
親近
観賞
言明
計略
託す
託さ
訴訟
試行
誇示
誓い
語調
語感
語法
読字
調達
諍い
論争
論点
論拠
諫める
諭さ
識別
護り
護身
貰わ
貶め
貸金
賃金
賢く
賢吾
賭ける
赤字
走行
赴い
赴き
足す
足労
足掻
跨っ
躍ら
身ご
軌跡
軒下
転げ
転ぶ
転載
軽薄
輝かしい
込む
迫り
迷走
退い
退く
退学
逆恨
逆らっ
逆らえ
途絶
通え
造花
週休
遅め
道順
道徳
遠かっ
適正
遭難
選べる
選ぼう
都立
醜悪
醜態
釈明
野望
量販
釘付け
鋭利
鍵穴
鐘撞
門限
閉鎖
閉まり
間合い
闘い
防虫
陽射し
際立っ
障っ
集計
集まら
雑念
難解
雲間
電球
霧消
露天
非力
靡く
頓着
頓狂
頭蓋
題目
顧み
風船
風通し
食券
飲料
駄々
騙っ
高等
高一
魔球
鷹揚
鼻腔
龍安
##かな
##イダ
##イチャ
##ルド
##あたり
##ウダー
##シズム
##りん
##ざす
##ざめ
##ざら
##すう
##すさ
##むく
##っか
##ちり
##ちょん
##まう
##くさい
##ほん
##テール
##テリー
##ッティ
##ドリ
##ドール
##ぐみ
##なおり
##ババ
##バック
##タリー
##移り
##ロイ
##ロワー
##とて
##コーン
##んじる
##がなく
##チバ
##リッシュ
##ラワー
##ラウンド
##戻っ
##ごり
##ごたえ
##ごにょ
##死に
##クチャー
##クイーン
##だれる
##さつ
##レツ
##スチャー
##ジカル
##サム
##サス
##ゃあ
##おど
##おの
##倒す
##はぎ
##下手
##着せ
##着ける
##ヴィ
##ぼて
##rl
##tt
##tm
##直ぐ
##直そう
##ol
##指し
##ポチ
##づる
##ギレ
##でか
##ck
##乱れる
##ふさ
##恐ろしい
##散っ
##透け
##台詞
##漏れ
##ぺち
##伏せる
##崩れ
##掻き
##塗れ
##塗り
##壊す
##ヘッド
##初め
##漬け
##拾い
からめ
からぁ
ってー
いいかけ
なんちゃ
られよう
ちゃあ
ちゃっかり
ちゃおっ
たらたら
あっはっ
ときめい
くれよう
ついぞ
考えつか
思い上がり
言い逃
言い澱
言い張っ
言い足し
言い直さ
いつ頃
ほうじ茶
ひとし
やらかす
取り柄
取り出そう
取り下げ
取り違え
一人ひとり
気づまり
立ち入り
立ち回り
立ち込める
立ち去り
##いつく
受けれ
振りかけ
振り込ま
やり口
やりがい
やり遂げ
やり過ごす
おいしく
なにせ
向けれ
行く末
引き手
引き出そう
引きつら
##ージー
つつましい
つつがなく
生きよう
言えよ
押し通
押し込ま
押し上げる
押し留める
聞きか
聞き耳
聞き方
聞き取っ
聞き捨て
聞き入っ
聞き咎め
うまかっ
タイル
みるみる
眺めまわす
なかれ
打ちつけ
打ち切り
持ち運
決め顔
あーん
くださる
行きつく
笑い合っ
笑いあっ
差し迫っ
コーディネ
飲み込み
起ころう
起こそう
切り口
切り札
切り返す
切り取っ
切り取ら
切り揃え
しまい込ん
クリエイ
読み解
シャーク
シャトル
付き合える
つかみ
引っ掛け
慣れれ
書き写
書きかけ
書き留め
書き換える
呼び出す
すごーい
伸ばせる
帰りがけ
ひどかっ
コンセン
##たらかし
問い返し
踏みに
踏み外
踏み台
踏みつけ
乗り切っ
乗り越える
ジャガー
ジャングル
追い詰める
追い討ち
仕方なかっ
まいっ
ストロ
##からび
大人しい
真っ直ぐ
待ちぼう
飛び立つ
飛び立っ
しゃり
コミック
作り物
作り置き
はぁっ
連れ立っ
連れだっ
つき合わせ
代わり映え
プロムクイーン
握り拳
駆け足
駆け込む
駆け込み
フォト
フォロワー
勢い込ん
吹き出す
吹きすさ
チョロ
逃げよう
覗き込ま
なし崩し
向き合わ
突っぱ
サイレン
サイエンス
座り込み
面白味
ライティング
ライナス
ライオン
助け船
レジュメ
寄せつけ
寄せ合い
寄せ合う
寄せあっ
組み替え
組み込ま
組み立てる
##ンクス
見当たり
うるうる
使い道
使い分け
吸い殻
消し去る
置き所
手の内
気遣わ
焼きつい
焼き付ける
つぶせる
泣きつい
ディナー
ディフェンス
ディテール
冷え込み
クラウ
クラッシュ
確かめよう
変わり者
うわべ
ふんだん
並べ立て
バーレル
折り目
##っぽう
##っぽく
ぶつから
派手め
##イラル
走り去る
インナー
インカレ
寄り集
ぱちん
ぱちーん
##しょり
気まずかっ
悩み事
挙げ句
オーケ
オーヴァー
悲しま
##シャツ
##ーチン
埋め合わせ
ひたむき
フィッシュ
ローラー
ロータリー
見守り
ミスっ
賭け事
歩み出
手間取っ
かき上げ
見下す
見下ろせ
ドラクエ
うかがえる
カフェイン
応えよう
取り戻そう
照らし出し
ダイヤモ
ジュンコ
シュール
レシーブ
聴き入っ
##まじく
ひっかかる
溜め込ん
ささやい
さりとて
抑えつけ
がたみ
つらかっ
ハンサム
しゅるる
空き地
嚙みしめ
嚙み殺し
運び込ん
包み隠
垂れ流し
思い浮かぶ
手渡す
うなだれ
がんがん
アドバンテ
揺らぐ
溶け込む
見開か
フリル
##ッケンズ
勤め先
巡り合う
静まり返り
混ぜご飯
貼り付け
ドキッ
切り替えよう
アリバイ
ジェスチャー
ごまかそう
のぞい
たどり着け
ゆくゆく
唸り声
揺さぶり
くすぐら
ユニーク
ユニバーサ
履き替える
カタログ
カタカタ
ウインナー
茶色い
##テナンス
とっておき
味わわ
嘲笑う
散らかっ
困り顔
なーんて
スターティング
絡み合っ
アメリカン
インターホン
あどけなく
あどけな
とどまっ
バリエーション
ワイシャツ
さぞかし
##シュタ
喜ばしい
しつこい
ねじれ
凍てつく
アタマ
甘やかさ
アーケード
トリック
枯れ木
なめこ
ポップコーン
曲がり角
でっち上げ
折り畳ん
まんまと
シナジー
かりそめ
馴れ初め
付き添っ
住み着い
見積もっ
読み進める
ネックレス
言い換えれ
照り返し
引き下がら
カチューシャ
立ち並ん
おのれ
こなせ
こなせる
つむっ
ニヤニヤ
咲き誇
恥じらう
グリップ
チューニング
巻き戻し
やわらかく
ドロップ
##okawa
持ち帰る
吹き飛ん
こねくり
なだめ
オブジェ
こみ上げ
こみあげ
こぞっ
ひしっと
織り込み
見習っ
ねぎらい
エンターテイメント
しゃがれ声
微睡ん
book
かれこれ
きらめい
くつろ
くつろい
デンマーク
彷徨わ
腫れ物
やかましい
メンテナンス
可笑しく
##adokawa
ちょんちょん
振りかざし
だらしない
オペレーション
テロップ
面映ゆ
ルーティーン
みすぼらしい
spi
がくがく
ひび割れ
セロハン
セキュリティ
パクパク
如何に
敷き詰め
着飾っ
やり直せる
笑いさざめく
あずかり
ふくらはぎ
わだかまっ
イントネーション
コナン
リフレッシュ
生い立ち
##ace
コンテスト
つきまとう
ずぶ濡れ
ぴりぴり
りんご
オトナ
シリアス
ソリッド
ドレッシング
ポチポチ
ワクワク
野良猫
取り組む
引き締まっ
打ちのめさ
キャスティング
ジャイアント
フォーマル
折りたたみ
201106
ずきずき
まどろみ
もくもく
イチャイチャ
イギリス
カジノ
ダサい
居座っ
ものっそい
コントローラー
でかでか
ひしめき
ぴかぴか
やさしく
ジューシー
ビタミン
ブレスレット
ヤバい
忌み嫌
敢えて
見過ごせ
##すくめ
##ューズメント
待ち望ん
もたせかけ
スキャンダル
暮れなずむ
うそうそ
おざなり
お好み焼き
くたくた
ごにょごにょ
じめじめ
どろどろ
びしょ濡れ
ぺちぺち
まざまざ
アミューズメント
アガる
オヤジ
オプション
カリフラワー
ガシガシ
ケチャップ
スカーフ
ピリオド
上の空
仲直り
全っ然
唐辛子
手提げ
歯嚙み
津久井
瓜二つ
耳たぶ
腕まくり
見紛う
足掻い
身ごもっ
逆恨み
鐘撞き
なんちゃって
コンセンサス
待ちぼうけ
吹きすさぶ
ダイヤモンド
アドバンテージ
ユニバーサル
bd
dj
ed
lo
lun
me
mc
no
of
st
su
url
あざ
あた
あがら
あがい
いぶ
いよっ
うさん
うめき
えっち
えいっ
えんじ
おっき
かう
かる
かまっ
かーっ
かあっ
かばっ
かがめ
がぶ
きこ
きも
くね
くらく
げん
こぽ
こらし
こする
こーん
こたえ
こぢんまり
ごり
されど
さーん
しくさっ
じょう
じんじん
すがす
ずれる
せめ
そり
そむけ
ぞくっ
たんな
たたい
たむろ
たなび
たぷた
ちぐ
ちゅる
つめ
つーん
てめぇ
でまかせ
とやか
どい
どか
どまり
どさっ
どっこい
なせ
なまけ
にん
ぬぐっ
ねだる
のぉ
のしかかっ
はと
はせ
はさま
はぐら
ばさり
ぱく
ひや
ひで
ひっこ
ひくっ
ふえ
ぷーっ
ぺた
ほく
ぽろっ
まご
まわら
まくら
まみれ
まばたき
みえる
みごと
むくり
めぐっ
もれ
もぎ
やわ
ゆけ
ゆすり
よだれ
わな
んかっ
アキ
アンド
ウール
オカ
オッ
オウム
カシ
カニ
カンガ
カスタ
ガツ
ガゼ
キープ
クル
クマ
クセ
グレード
ケチ
ケア
ゲラ
コイ
コメ
サーチ
シンジ
シビア
ジョン
スエ
ステル
ズミ
ソ連
タピ
タメ
ダーツ
チア
チート
チップ
チーク
テディ
デリ
トランス
トニック
ドー
ドメ
ナナ
ニア
ニック
ハラ
バッター
バウンド
パエ
ヒステ
ビガード
ピッ
ブッ
ブリッジ
ベー
ベーカ
ペペ
ペディア
ホシ
ボク
ポロ
ポケ
ポタージュ
マヨ
マクロ
マインド
モヤ
ヤドリ
ルイ
ルーチン
レター
レンチ
レッテル
ロジック
ワイド
一画
一望
一存
一千
丁重
三枝
三河
上々
上ら
上層
上滑り
下部
下味
不和
不味
不備
不老
不向き
両脚
両膝
中退
中腰
中ほど
主語
久方
争っ
事細か
二三
二者
亜希
亡き
交遊
人体
人だ
人当たり
人任せ
仕込ん
仕切っ
代替
代弁
仲なおり
企み
伏見
会員
伝播
伴わ
佇む
佇まい
体た
体臭
体現
作中
佳境
保身
保管
保てる
信濃
修羅
倣い
倦怠
偵察
偽ら
偽名
傍若
傑作
優勢
優柔
充て
兆候
先代
入稿
入園
全滅
共存
兵士
具え
具象
内情
内諾
写る
冬眠
凌ぐ
凍ら
凝らす
処刑
凹ん
出力
出演
出所
出没
出直し
分包
切羽
切ない
初老
削が
前言
前例
前面
前兆
剣呑
剥がれ
割か
劇場
功績
励まさ
勇者
動こう
勘繰
勝算
募ら
北野
千代
協奏
南京
単刀
占める
印鑑
危なかっ
原色
原木
厳粛
去ら
受診
受容
口籠
口づけ
句読
右隣
各地
合鍵
同列
同伴
名言
名古
名付け
名指し
向日
君臨
吞む
吞み
吟味
否応
吸入
告る
呪う
味つけ
呷っ
呼応
和らぐ
哀切
品種
善良
噓つき
噛ま
噤む
噴出
噴水
囊胞
四季
回遊
回れる
因子
団欒
図り
固形
土星
圧縮
地中
地道
地表
地震
報じ
塞ぎ
売春
売買
変換
変われる
夏物
夏服
夏帆
夕刻
外界
外傷
多彩
多かろう
夜行
夢想
大金
大判
大噓
大がかり
天下
天満
天ぷら
太刀
失せ
失笑
女装
女房
好調
好評
始動
始まろう
威力
媒体
字面
学芸
守れる
安息
安らぎ
完食
完治
完膚
実妹
実弾
客層
宴会
家内
宿し
密接
寝静
寝つけ
寝入り
寝かさ
寸法
対称
導き出し
小耳
小節
小箱
小林
小山
就任
尻目
尻餅
尻込み
尽力
局面
屈辱
巨体
布石
布巾
帰属
干す
干物
平たく
年の
年功
幽か
庇っ
底抜け
店名
度外
座ろう
延ばし
延ばす
弁明
弄び
弄ぶ
式場
弟子
弱かっ
強か
弾ま
彫り
役人
役立た
彼我
心待ち
忖度
応用
応変
念仏
怒鳴
怒鳴り
怪獣
恍惚
恭しく
悠然
悪し
悪手
悪辣
悪癖
悶々
悼ま
情緒
惚気
惜しん
惨殺
惰眠
想う
愁い
意表
愚かしく
愛好
感激
慈愛
慢心
慣習
懇切
懐っこ
懐っこい
我儘
戒め
戒める
戦士
所業
所狭し
扉越し
手口
手先
手柄
手製
手遊び
投合
投球
投影
投函
抗体
抱け
抽選
担い
担っ
拒む
拗れ
拘泥
拭く
拮抗
指針
指紋
捌き
捕食
捕まる
授け
掘る
掛かり
探ら
揃う
揺蕩
損失
携え
摘み
撫子
擬人
支柱
攻勢
攻略
放る
放任
放射
救世
教会
教卓
敢然
散る
整合
新館
方策
方舟
旋律
既婚
昆布
星野
時短
暇潰し
暖簾
暖炉
暫定
月日
有用
有機
服屋
朝飯
朦朧
木材
木彫り
木漏れ
未婚
本体
本腰
札束
条理
東西
板張り
果実
校風
桃缶
楊枝
極上
機敏
歓喜
止し
止む
正真
正銘
正攻
殺伐
殺到
母子
毛玉
気心
気炎
気がかり
水路
汁粉
決然
沈める
河川
泥沼
泥酔
活き
派遣
浅間
浴槽
浸み
浸透
浸かり
涙ぐん
淡白
淡泊
深海
混ざる
清掃
減じ
減点
湖面
湯呑
湯煎
湿度
満悦
満腹
源泉
溶かし
滅入っ
滴り
漁船
漫然
漫才
潜む
潮騒
潰せ
激戦
瀬戸
火事
灯し
灯籠
灰毛
災害
点灯
烙印
焚か
無害
無念
無名
無惨
無敵
無稽
無かっ
煩雑
煮込み
熱々
熱風
片耳
牢獄
牧場
物腰
特筆
特装
犯行
狭窄
猛烈
獅子
率いる
珍しかっ
現国
環状
甘酸
甘かっ
生半
生暖
生姜
田圃
田んぼ
町外れ
画家
略称
異音
疎か
疑似
病棟
痛烈
痛ましい
癒やし
発覚
発熱
登る
登下
白け
白線
白々しく
目上
目深
目じり
目ざとく
直さ
直面
直結
直球
直入
直そう
眩暈
眩しかっ
眼中
睥睨
短絡
砂場
破片
確固
確たる
磨く
神奈
禁忌
私鉄
秘書
秘訣
秩序
称え
称号
称する
移ろい
稲妻
稲穂
穴場
空く
突風
突飛
窒息
窓口
端整
競い
競う
等しかっ
策略
箱庭
築け
籠る
納め
納屋
納期
納める
純然
純情
素行
素顔
素通り
紫色
終生
結合
給油
絨毛
絵の
絵筆
絶好
継ぎ
継承
網戸
締める
編成
緩い
縛っ
繊維
繫が
纏める
署名
美化
群がる
羨望
翻っ
老衰
耳朶
耳鳴り
耽り
聴衆
聴こえ
職種
肉親
肺炎
背骨
胎児
胴上げ
胸中
胸倉
胸ぐら
脆弱
腎臓
腐ら
腕立て
膝掛け
臨機
自活
自答
自首
良けれ
色違い
花見
花嫁
苛ん
苛立たし
苦言
茅野
茫然
荒唐
荒らげ
荒っぽく
莫大
菜食
華や
著作
著しく
葡萄
蒸さ
蔑み
薄墨
薄かっ
薄切り
虐げ
虚し
虫除け
血痕
行進
行える
表側
被験
裏口
裏方
裏付け
補い
補佐
補完
要所
見ん
見舞
見込ん
見りゃ
見合わ
見なさ
見張ら
視聴
親愛
親鸞
解か
解禁
言説
言論
計らい
訛り
設問
証左
詩人
誇れる
誇らしく
誘え
語源
語らい
語れる
誤認
説く
誰それ
課せ
調教
談話
講座
貧しい
買わさ
費やす
贔屓
赤ちゃん
走者
足枷
跳び
踊ら
身構
身悶
軋轢
軒並み
転落
転職
軽食
軽率
載る
輸送
輸血
農家
迂遠
近々
近代
返済
送会
送ろう
逆算
逆側
逆戻り
逐一
通れ
通販
造ら
連ね
連行
連帯
連なっ
過多
過不
道脇
適合
選出
邪気
里帰り
重複
野次
金縛
鈍っ
鈍感
鈍重
鉄骨
銃身
鎌首
鎮痛
長け
長女
長針
長続き
閉会
開場
開拓
閑静
関知
関わろう
閲覧
防音
防寒
降参
限度
陣営
除去
陥落
陰っ
陶器
陸橋
険悪
階下
際し
際立た
隣席
雑然
難問
難関
雨上がり
雪崩
雪掻き
雷光
電卓
霞み
非情
非番
面子
革張り
響か
頂い
頂点
順路
願わ
類似
風格
風情
風味
風鈴
風化
飛ばす
食物
食洗
食える
食らい
食わさ
駅舎
高原
高嶺
魔王
魚類
鳴か
##しぐら
##いも
##じき
##ルツ
##ルメ
##あと
##あわさ
##ナビ
##ナップ
##ナウェイ
##きがけ
##きゅっ
##べた
##べん
##カリ
##カラ
##トモ
##れよ
##すけ
##むい
##っぱち
##こぽ
##ねい
##つこう
##よし
##よろ
##また
##まわる
##まわさ
##ぎ話
##ぎす
##ぎゅう
##ほく
##テレス
##ッッ
##ドン
##わえ
##わかり
##バラ
##ブリ
##とろう
##コー
##コート
##手間
##がむ
##がわ
##がない
##がそう
##ュフ
##リブ
##リラ
##アム
##アア
##破り
##ミズム
##ごっ
##ごちゃ
##ごはん
##クザ
##パラ
##びっ
##レラ
##ガラ
##ガール
##エティ
##エンテ
##編み
##ジスタ
##サバ
##やる
##やま
##ニカ
##ニカル
##モニカ
##はぐ
##の字
##ぶた
##dk
##払おう
##メット
##th
##ak
##ベース
##走る
##オー
##オブ
##ネーム
##28
##デュ
##デレラ
##交い
##入ら
##舞う
##違える
##選び
##語り
##ギュラー
##ぬく
##動かし
##打つ
##打た
##ぱし
##ぱっ
##co
##ゾート
##ふう
##寄ろう
##鳴らす
##散り
##散らす
##真似
##喜び
##ペクト
##苦しかっ
##曲げ
##ぺた
##ゲージ
##栄え
##遂げる
##渡さ
##買い
##減っ
##腐っ
##掘り
##飼い
##狂い
##踊り
ことし
そうっと
するする
じゃー
じゃが
もの言い
どうり
しかり
いっけ
ときめき
くるまっ
ちょちょ
考え直し
思いやり
思い立っ
思い直す
思い詰め
くんくん
ありさま
ありてい
ためらう
言い返せ
たいそう
##ールズ
感じ取れ
感じとっ
ひと口
ひと声
ひとさし
ひと手間
言わば
またまた
ましょ
あとず
あとあと
取り仕
取り返す
取り落とし
一人静
ああん
立ちあがっ
立ちくら
話し込ん
話しあっ
振り切る
振り下ろし
振り仰ぐ
やり手
なにがし
まっしろ
まっしぐら
引き上げる
引き合わ
引き換え
引き取る
引き返せ
引き締める
引き延ばし
落ち込む
落ち込み
##ージョン
入れ直し
いかな
おそれ
しばた
さする
##ストーミング
##ストロング
##ストテレス
聞こえよがし
押し込め
##ティカル
聞き取る
聞き出せ
##インストーミング
振り返す
立てかけ
後ろ盾
立ち上がれ
やめよ
打ち返し
打ち込み
打ち込ま
打ち解け
持ちこん
持ちあげ
##ンドン
決めれ
あーあ
くださ
行き帰り
笑いかける
差し置い
流れ出
尋ねよう
キャッシュ
キャスター
##ーんと
飲み込ま
切り上げる
切り出さ
切り分ける
教えよう
起きれ
クリティカル
読み漁
読み返す
願いごと
シャケ
シャボン
シャルル
買い込ん
買い取る
つかむ
慣れ親
書き連
書き込む
書き置き
歩き回る
終えよう
まとまら
もっぱら
すごかっ
伸ばさ
カップリング
コンコン
コンセント
たとえる
##ューション
おおき
明るかっ
踏みとど
ショーン
乗り切る
生まれれ
申し分
動き回っ
ストーキング
ストラップ
抜け殻
真っ青
真っ盛り
飛び抜け
しゃれ
乗っけ
出来栄え
よろけ
よろよろ
触れよう
探し回っ
連れ込ま
握り締める
突き返し
突き付け
突き落とさ
調べれ
調べよう
調べ上げ
駆け寄る
フォント
吹き付け
抱き着
抱きあっ
チョップ
##ンジー
##ンジャ
出会わ
変えれ
逃げ出さ
逃げ出そう
覗き見る
##ッショ
向き合い
付け根
チャーム
ふうふう
切れ味
見上げれ
グルメ
##っちゃい
レジャー
語り合い
寄せ集め
ぱったり
戸惑わ
流し見
流し読み
やばかっ
振り向け
フェミ
フェイダ
巻きつけ
200
ステイ
かまけ
かまぼこ
ぐっしょり
手の平
ウェット
残り香
焼き魚
焼き鳥
泣き顔
ディッシュ
チームメイト
かかれ
叩き潰す
##ing
睨み据
睨み合っ
がっつり
目指せ
##くるめ
メモリ
くっつく
スイカ
締め上げ
心地良
加えよう
##ーチェ
振る舞え
振る舞える
振る舞おう
ネットワーク
アドリブ
スケッチ
おとぎ話
ミステリア
##ッコリ
ひそめる
歩み寄る
##かすか
結び目
かわいかっ
かき消し
ばった
スクロール
独りごち
ううむ
うつつ
ドラッグ
下手くそ
##じゃん
ディスカ
果たさ
ダイヤ
ピアニスト
成り立つ
成り立た
ふらつき
愛し合っ
シュッ
ピンポイント
流行る
はたか
アウトソー
っぱずれ
遠ざける
シンデレラ
マッジ
苦しめる
##ッキン
イヤリング
ブレイク
ブレインストーミング
あけすけ
がたかっ
ぶっ壊
ぶっかけ
果てし
2012
2017
幼馴染み
ナイロン
貸し借り
思い浮かん
包み込ん
斜め上
訊き返す
ガールズ
頼み事
おこない
おこなう
騒がしかっ
フェスティ
アクティブ
折れれ
うなだれる
アンデルセン
払いのけ
拾い集め
揺らが
##セントリック
フリック
ゆるめ
ジョージ
ジョルダ
忍び込む
探り当てる
ショーケース
相応しく
リコーダー
巡り合い
混ぜる
##かたち
もたれかかる
アリストテレス
スパイ
##らんぼ
横たわり
たどりつい
エスプレ
スリット
##ヴァン
##aru
たたたっ
ぶち壊し
アナログ
盗み聞き
くすぐった
這い出し
這い寄っ
うらぶれ
かしげ
くしゃみ
ヒーリング
マンソン
ウィーク
##つらえ
こらえる
コントラスト
ムカつい
味わえる
絡みつく
##ウェル
ぬくぬく
データベース
出くわす
ダミー
零れ出
刻みつけ
生み出す
うなずき
しつこ
はじき
浮き足
ぬるく
オリーブ
オリエンテ
キュート
殴りつけ
甘やかす
ばりばり
トリュフ
囁き声
ダウンロード
拭き取っ
スタンバイ
引き戻す
しっかし
むずが
アラサー
紛らわす
紛らわしい
紛らわせる
##シマダ
うらやまし
はき違え
はやら
はやと
マットレス
出汁巻き
馴れ合い
かしこまっ
カツオ
ガイドライン
少なめ
肌寒く
カテゴライズ
コツコツ
ロマンス
夢見る
身の上
押し黙る
こじれ
こじ開け
トレンド
移り変わり
さくらんぼ
のっけ
side
アマゾン
エキセントリック
チューター
ハンバーガー
パフォーマー
ヘルプ
ヘルメット
ポリ袋
ポリシー
メリーゴー
仰ぎ見
仰ぎ見る
分かち合う
膨れっ面
仰け反っ
インドア
まとわりつく
ハンマーヘッド
くぅっ
なだめる
なだらか
ウエア
ウエディング
カルチャー
沸き立つ
引き攣ら
おおっぴら
アジア
大いなる
愛おしい
差し伸べる
追いやる
むくれる
むくむく
アフター
カンペ
凝り固まっ
擦れ違い
思いの丈
たどたどしい
むず痒く
そそら
ヴァイオ
寝そべっ
触り合っ
生まれ変わっ
なまぐさい
にじま
オムレツ
薄ら寒い
##ial
あおる
ざらつい
ガラッ
噴き出す
見通す
見通せ
##space
駆け巡っ
はっはっは
はぐらかす
おごり
のたまっ
カイロ
ルーティン
オルガン
ミラノ
ミラクル
撒き散らし
生温かい
##つぶさ
おとなしめ
smspace
ぎゅーっ
みつから
アツい
事足りる
咳き込み
襲いかかっ
##なおす
立ちはだかる
引きはがし
切り裂い
巻き起こっ
折りたたま
ぎゅうぎゅう
せせらぎ
はりぼて
はばから
べたべた
イレギュラー
利き手
小難し
気安く
##ecial
キャパシティ
切り離さ
解き放た
かじかむ
かくれんぼ
ごうごう
アサクラ
ディレクター
混ぜっ返す
ワイヤレス
光り輝く
かこつけ
ごちゃごちゃ
さといも
そびえ
たすきがけ
ピカピカ
ピッチャー
マカロン
轢き殺し
ちょろちょろ
くっくっくっ
オーディエンス
燃え盛る
のけぞら
づきあい
のこのこ
まぜっ
セラピー
プリーツ
ベンツ
ミサイル
ロリコン
見きわめる
途絶える
ひとしお
聞きかじっ
コーディネート
踏みにじる
クラウド
オーケストラ
ジュンコシマダ
##シュタイン
sug
あたふた
くらくら
こぽこぽ
じょうろ
すがすが
せめぎ
たんなる
たぷたぷ
ちぐはぐ
とやかく
なまけもの
はぐらかし
ぺたぺた
ほくほく
オカルト
カンガルー
ステルス
タピオカ
ニックネーム
ハラハラ
パエリア
ベーカリー
ヤドリギ
亜希子
人だかり
体たらく
信濃町
切羽詰まっ
句読点
名古屋
向日葵
年の瀬
悪しざま
木漏れ日
甘酸っぱい
登下校
神奈川
絵の具
華やぐ
身構える
身悶え
過不足
野次馬
金縛り
立ちくらみ
フェイダナウェイ
ミステリアス
アウトソーシング
ジョルダン
エスプレッソ
smspacem
65
70
ar
ac
dp
day
hk
hor
hay
in
iq
jr
jd
kadokawa
lp
ldk
mia
og
あらす
あやす
あたた
いこ
いず
いこっ
うひ
うぇ
えん
おせ
おける
おもっ
おどろ
お下げ
かわ
かと
か弱
かわっ
かじり
かわし
かじっ
がじ
がらり
きな
きもの
きびき
ぎす
くう
ぐぐ
ぐわ
ぐちゃ
けし
けば
げほ
こむ
こち
こども
こもる
ごち
さなか
さぐれ
ざざっ
しき
しご
しめる
したり
しーっ
しびれ
し腐っ
じょ
じつ
じぃ
すも
すすり
すかすか
ずか
ずけ
ずた
そい
そらす
たな
たお
たんと
だあ
だく
だるい
だまさ
ちく
ちかく
ちくわ
つぎ
つらく
つかい
つまず
てい
てら
てらっ
とろん
どぎ
どば
どぶ
どかし
どろり
どたばた
なつ
なまじ
にべ
にー
にじみ
にごっ
ねがい
のほ
はまる
はやり
はらん
はしばし
ばく
ばば
ばらし
ばたん
ぱらり
ひる
ひょう
ひゅう
ひからび
びり
ぴくん
ふさい
ぶすっ
ぷい
ぷつん
へり
へな
へや
ぺたり
ほめ
ほとり
ほくそ
ぽた
ぽいっ
ぽろり
まろ
まかり
みじめ
みりん
むな
むっくり
むふふ
めげ
めがけ
めかす
めそめ
もがき
やろ
やゆ
やお
ゆび
らっ
りょ
んーっ
アグ
アッシュ
アポイント
イー
インプ
イージー
ウル
エナ
オイ
オア
オオ
カフ
カノ
ガヤ
ギプス
グレ
ケル
ケーブル
ゲリラ
ココ
コケ
コロン
ゴス
ゴージ
サル
サマ
サーフ
シーフ
シフォン
ジンジャー
スティ
ズル
ズレ
セル
セガール
ソウ
タン
タンデ
ダテ
ダム
ダッフル
チク
ツモ
テー
デバ
デブ
デッド
トタン
ナシ
ニッ
ニカッ
ニーチェ
ニッコリ
ネーミング
ハンス
ハライ
バリア
パサ
パウダー
ヒュー
ビシ
ビリー
ピロ
ピコ
ピピ
フン
ブリ
ブツ
ブリット
ヘイト
ヘミング
ペルセ
ボル
ボヘ
ボーっと
ポー
ポピ
マーカー
マイルド
マトモ
ミシ
ミクロ
ムネ
ムッと
メタ
メア
メンチ
メンタ
メロン
モス
モラト
ヤギ
ヤング
ランジェ
リップ
リープ
リンク
ルック
レフ
レパート
レーダー
レクリ
レッス
ロン
ロウ
ローブ
ロースト
ロマン
ワープ
ワカメ
ワルツ
一笑
一任
一蹴
一派
一群
一押し
七夕
万遍
万聖
万年
三昧
三千
三菱
上方
上擦
上掛け
上書き
上回っ
下衆
下旬
下請け
不法
不躾
不問
不埒
不真面目
両隣
並外れ
中性
中島
中腹
丸ノ
丸首
主任
主眼
主流
主宰
乖離
乗用
乗っかり
乞う
乾き
乾く
二塁
二千
二俣
交じ
交じる
京成
亭主
人好き
人さし
介在
仏閣
仕切
仕舞い
仕掛ける
付属
代講
仮死
仲介
仲よし
企図
休める
会得
伴奏
体系
何色
余念
余波
侵食
便器
保て
保養
信奉
個包
健在
健常
偽っ
傀儡
傍観
傍聴
儲け
儲かる
先入
先鋒
先鋭
光明
光沢
入会
全巻
公務
公団
兵器
内野
内気
内科
内風呂
円形
再来
冒し
冒瀆
写り
写ら
冬晴れ
凌ぎ
凍る
凝固
凝縮
分子
分業
分かつ
初秋
判決
別種
別件
利害
利便
利己
制御
制汗
券売
刺身
剃る
剃り
削れ
前か
前途
前世
前払い
剣幕
剥ぎ
力任せ
加味
加点
助力
励み
動脈
勤勉
勤労
勤しん
包容
北西
区画
十二
半熟
即し
即死
即時
即刻
却って
卵焼き
厚か
原書
厳然
厳禁
反駁
収録
収支
収縮
取捨
口止め
口走り
古人
古めかしい
可視
可否
叱っ
右端
叶っ
合否
合板
合コン
名声
名代
向かえ
君子
吹け
呈する
告ら
呑気
呪っ
呼称
和ま
和解
哀楽
品々
唱和
唾液
善悪
喚い
喜怒
喩え
喰らい
嗜み
嘘偽り
嘘っぱち
噴い
囓っ
団地
困窮
囲み
固執
国民
国籍
土間
土台
在籍
圭介
地名
執り
執念
培っ
堅苦しい
報わ
報いる
塗る
塗装
塞がっ
塩気
墓場
増やさ
墨付き
士気
声色
変身
変色
夏目
夕ご飯
外交
外装
外回り
外向き
多大
多忙
多額
多幸
夜店
大分
大戦
大気
大賞
大慌
大麻
大詰め
大真面目
大急ぎ
天上
天地
天神
天秤
太秦
太古
太鼓
失業
失意
失くす
奏し
奮い
妙齢
嫌がら
字義
存知
学べ
学科
学院
孫子
守れ
安売り
完備
定理
定石
実害
実演
実情
客入り
宥める
家計
寂れ
寒暖
寝れ
寝込ん
寝過ごし
対案
対岸
専攻
射る
射殺
射抜く
小銃
小舎
小出し
小ぶり
小ぢんまり
尻す
居たた
屈指
屑籠
山崎
山並み
崇高
崇拝
工業
左上
左端
巨乳
市場
市内
市松
席順
帰途
平淡
平置き
年長
年数
年月
年賀
年配
年玉
幼気
広め
広尾
広義
広まっ
床屋
底冷え
店頭
座右
庭園
廃棄
弁慶
弄ら
弊害
弓なり
弛ん
強打
強情
強がる
当面
形骸
彩っ
彫像
役場
役立ち
待遇
待避
待とう
後見
後尾
徒労
徘徊
心根
心象
必勝
忌ま
忌々し
応酬
快楽
思おう
怠っ
怪人
恨ま
恩着せ
悔恨
悔いる
悪性
悪態
悲嘆
悼む
惚れる
惜しく
惰性
愚問
愛車
慎み
憎い
憤慨
憮然
懸け
成っ
戦わ
戦後
戦前
戦国
戦闘
房総
手記
手管
手甲
手出し
手がけ
手当たり
手掛かり
手馴れ
手ごたえ
打診
扶養
抉り
抑止
投足
折衝
抜かり
抜かす
択一
抹消
拘り
招か
招集
拝殿
括る
括り
拾わ
持し
持病
持とう
指数
指笛
指切り
挑む
挑ん
挫け
挿話
捧げる
排水
排他
排泄
探索
揉ん
描け
換える
握力
揺すら
揺すっ
損得
搭乗
携わっ
摑まっ
摑もう
摘む
撒い
操ら
擦れる
攻防
攻める
放尿
敗戦
教本
散策
散発
敷居
文意
文具
文豪
斟酌
斬る
斬ら
断続
断然
断罪
断末
新興
旅先
日時
旧来
旨味
早川
早晩
早上がり
旺盛
昂揚
明文
明かせ
時速
晩年
晴天
晴れる
暖気
暖かかっ
暗鬼
暴き
暴行
暴発
暴露
曲解
書体
最奥
月桂
月並み
有料
有象
服用
朝陽
朝露
朝鮮
朝ごはん
木馬
木刀
未熟
末期
本筋
本末
杉並
材質
条例
来れる
東側
板挟
枚挙
果てる
枠組み
柑橘
格別
棄教
棒立ち
棒読み
植木
極北
楽天
構う
様変わり
横殴
機種
欠く
次い
歌え
正々
正しかろう
武士
歩かさ
死ねる
残せ
残暑
殺気
母方
毒づく
毛先
民間
気だ
気象
気絶
水脈
水難
水遊び
水浸し
氷柱
汗くさい
決選
決まれ
沈思
沢東
河口
油性
治まっ
法師
洋画
洗浄
活かし
流水
流布
浅は
浮遊
海底
浸る
浸食
液晶
深かっ
深読み
混同
清く
清らか
渇く
減速
渡そう
温く
湯面
満点
満更
溜まる
溺れる
滅ぼ
滅亡
滑り込ん
滴る
潜伏
激突
激情
激減
火の
火山
災い
炊い
炎上
点火
点呼
為し
為せる
無礼
無暗
無策
無傷
無象
焦ら
煩わし
煮込ま
熟れ
熱量
熱波
燃やす
燕尾
爆音
爪弾
爽快
片時
片側
片鱗
物品
物干し
特大
特設
特化
狙撃
狡猾
狩り
独裁
独壇
猛暑
猫舌
猫背
率い
玉露
現像
球団
理数
甘党
生死
生存
生かさ
産み
甲殻
男心
町中
画策
留意
留まり
番犬
異なり
畳む
畳ま
疎外
疑り
疼い
疼痛
病原
病み
病者
痛々しかっ
癒す
発病
発電
白菜
白磁
白昼
皮切り
盗む
盗難
盗聴
目黒
目次
目礼
目眩
目新しい
直る
直っ
相貌
相殺
相づ
相似
省く
省察
県立
真下
真心
眺望
眼力
眼窩
着姿
着物
瞠る
瞳孔
短髪
短縮
短かっ
矮小
石塀
石像
石畳
石ころ
研い
破産
破損
磨か
祝わ
祝おう
神殿
禁欲
秋風
移せ
移さ
移植
程遠
種明
穏健
空か
空転
空洞
空欄
穿き
穿っ
突出
窮地
窺える
立地
立方
第一
筋力
箇条
管轄
節々
篤志
籠もっ
粒子
精密
糊塗
系列
紙幣
紙幅
紙吹雪
細切れ
終戦
終結
組成
結露
絞殺
給湯
統合
絶た
絶妙
続々
続報
網羅
綴る
総出
線引き
緞帳
編ま
緩ま
緩衝
練っ
縮図
縮まり
置ける
置こう
罰せ
美学
美形
羨ま
羨ましく
羽音
羽根
習わ
老後
考案
耐久
耳ざとく
聳え
職人
肥満
腐敗
腕力
腕章
腹筋
膳立て
臓器
臨戦
自白
自業
自作
自得
自治
自爆
自在
自慰
自ずと
臭かっ
舗装
良識
色味
色あい
花形
芳香
芽吹
苛め
苛立つ
若々しい
若々しく
苦り
苦汁
苦かっ
苦々しく
英国
茂っ
茶目
草木
荒っぽい
落語
蒼い
蔑ん
蔓延
薄め
薬指
薬剤
薬品
藪の中
虐殺
虚像
蝕ん
血縁
血塗れ
行え
街角
衝い
表われ
裏切っ
裏返せ
補助
襟ぐり
覆ら
見附
見切れ
見回っ
見向き
見あわせ
見晴らし
見聞き
見くび
見飽き
規格
計り
計測
討論
設え
詳しかっ
誘発
語学
誰彼
課さ
課税
論外
諦念
諸説
謝意
謝ろう
警報
議員
譲渡
豪快
負え
貯まっ
貶す
貶める
賛辞
賛意
賜物
賢しら
赤面
赤だし
赤黒い
起業
趨勢
足ん
足さ
路肩
路傍
跳ん
踏襲
躓い
車座
軒先
軟化
転勤
転がす
轟い
農夫
辺鄙
近親
近似
近付い
近ごろ
迷路
追尾
退き
退部
退避
逃がさ
逆走
透かし
這っ
這いつく
通気
通告
速力
速め
速かっ
連打
連なり
連なる
週明け
進言
逸ら
逸材
逸脱
逸らそう
過日
過失
道玄
道ばた
適っ
遮り
邪険
郊外
配属
酒屋
酔え
酷評
酷似
酷かっ
醸造
重傷
鈍り
銃器
銘打っ
銘打た
銚子
鋳型
鏡像
鑑みれ
長話
長蛇
門出
門扉
閃光
間断
闘争
防ぎ
陣地
除籍
陥ら
陰気
陳列
険しい
陽炎
雇用
雑事
難儀
雨漏
雨滴
雨雲
雲散
零れる
電撃
青少
青褪
青ざめ
革新
頂き
順次
順繰り
領分
頬骨
頭頂
頷ける
顚末
類推
顧みる
顰蹙
風体
風音
飛ば
食いっ
飼わ
養い
馬車
駅近
騒々し
騙る
驚嘆
高卒
高温
高尚
魅了
魚介
鮮烈
鵜呑み
黒子
黒縁
黙認
齧っ
##いちゃ
##イケ
##イック
##ルス
##ルカム
##うす
##うち
##うだ
##ナント
##ナメント
##キョ
##シス
##シエーション
##きゅん
##えよ
##る舞い
##ーかい
##ーセン
##カバー
##トレ
##トリック
##回ら
##すがり
##むず
##ちゅる
##こんな
##こめる
##ねん
##つらっ
##よか
##まき
##ま湯
##どば
##どや
##くた
##くぼん
##めつけ
##めかしく
##ほい
##ほと
##マウンテン
##テージ
##ぐちゃ
##ならし
##なじみ
##らめる
##らげる
##わび
##バナ
##バリー
##ブリーズ
##グル
##たち
##hi
##ha
##コウ
##ピコ
##上り
##がじ
##チク
##チーノ
##ュメント
##リル
##リチュア
##リスティック
##アガラ
##ラマ
##見え
##止ん
##ミツ
##ミット
##ャス
##ごみ
##ごっこ
##ごしらえ
##クスト
##パス
##パソ
##もしゃ
##にぎ
##ぽた
##さき
##さて
##ツー
##フラ
##みり
##みず
##レノン
##エモ
##ボルト
##ゴン
##ゴール
##ゴート
##サツ
##ゃもしゃ
##ィィ
##やむ
##倒さ
##足ら
##ニン
##ニュ
##モンド
##ソル
##ソク
##ソドックス
##ずけ
##ずた
##はた
##のき
##ゼン
##ゼーション
##ぶき
##結び
##ぼれ
##ぼしい
##iv
##ix
##ベン
##ベンチ
##25
##太い
##ダント
##デーション
##砕く
##探し
##飛び
##飛沫
##na
##違う
##ポンス
##向い
##向かう
##置か
##プロム
##進め
##進める
##et
##33
##ぬん
##ひょい
##邪鬼
##ur
##um
##ude
##へな
##へら
##乱さ
##ヒキ
##散る
##継ぐ
##扱い
##振る舞い
##ゲー
##ヨン
##光り
##ぇる
##ki
##me
##man
##相撲
##眩み
##隔て
##追い
からっ
ことん
あるく
なんざ
じゃら
もの凄い
どうし
でき上がっ
ならん
しかつめ
ちゃり
ちゃーん
いっぺん
いっちょ
あっけない
##ころん
そんなこんな
くるみ
くれん
わかろう
考えだし
わけて
言葉数
言葉選び
やっかい
思いだし
思い付き
思いきっ
言いふ
言いぶん
言い切ら
言いぐさ
言い繕っ
感じ取り
ひとかけ
ひとくち
ほどよい
小さめ
あとかた
##ックック
取り替え
取り回し
取り直す
取り組み
取り換え
取り替える
取り出せる
取りまとめ
取り乱す
とっぷり
立ち見
立ち入っ
立ち寄る
立ち振る舞い
立ち眩み
受けよう
受け継い
受け継が
受け持つ
答えあわせ
話しあい
話し合おう
振り切っ
見つけれ
仕事先
やりすご
もしゃもしゃ
引きつけ
引き返そう
落ちよう
落ちくぼん
##たくそ
つけ込む
つけ加える
もんじゃ
通り名
##ープゴート
言えれ
覚えたて
押し込む
押し込み
押し隠し
押しのけ
押し潰さ
聞き入れ
聞き返さ
過ぎ去る
見せろ
立てれ
立て直す
開けよう
立ち上がら
眺めまわし
あいこ
打ち付け
打ち消す
持ち込み
持ち直す
持ち去っ
合わせれ
プロフェ
あーっ
行きずり
笑い合う
笑い飛ばし
コーチ
##らかす
流れ出す
飲みかけ
飲み込め
入り浸
切り開
切り出そう
切り捨てる
プレス
プレビュー
起き出し
クリスタル
読みふ
読み込ん
読み取れる
読みとれ
読みとろう
シャット
シャッフル
離れよう
もとる
買い置き
付きま
付きあっ
付き合おう
つかまっ
つかまえ
じゃんじゃん
引っ込み
引っ掛かり
書き足し
呼び込ん
呼び合う
##しゃぐ
ふっくら
マジギレ
近づこう
繰り出す
信じ込ん
たとえ話
##ライク
##たらしい
そろい
問い質
問い直す
問い詰め
問い詰める
すっぽ
受け取れる
あらまし
抱え込む
とくと
ファクター
ファブリーズ
明るめ
踏み入っ
踏み鳴らし
乗り過ごし
ジャブ
申し込ん
申し合わせ
申し立て
##そろり
かたっ
かたわら
追い込む
追い越す
抜け道
抜け出せ
待ちわび
ひょっこり
ひょろり
いわく
作り話
作り出さ
出来合い
触れあう
##つき合わ
探し当て
連れ戻
連れ出し
つきとめ
チェンジ
握り込ん
握り合い
握り込む
突き上げる
突き立てる
突き落とし
突き止める
##しかかる
駆け寄り
フォルダ
フォルム
吹き付ける
吹き消す
抱き上げる
出会える
頷き返す
ブラウ
向きあっ
突っつき合わ
なあに
たしかめ
別れ話
切れ間
くすぐり
向かい風
向かい合わせ
ペンラ
ペンライト
行かさ
さまよう
さまよい
気づかわし
組み込む
認めよう
褒めそ
褒め称
告げ口
パーカー
使い古
使い走り
誤魔化せ
盛り付け
巻き添え
満ちる
まちがえる
滑り込む
滑り込ま
投げ出す
比べ物
ステーション
ステータ
かまう
かます
置き換える
焼き付け
焼き直し
おっしゃい
とんこつ
ディッケンズ
まとめ上げ
冷え冷え
チームワーク
確かめあっ
送りつけ
送り込み
##リアム
かかわる
バーニー
バーゲン
##っぽち
##フェスト
##フェクト
睨み返し
走り出
インテリ
寄りつか
##くるり
すり抜ける
くっつき
オーウェル
オーナメント
オーソドックス
##ーフィー
ママン
迎えよう
フィー
片手間
ヒキガ
ローリング
放り込み
間に合わせ
アドベンチ
売りつけ
スケープゴート
頼りがい
あははは
倒れこん
あらため
ミステリー
バレる
あては
晴れ晴れ
かき分け
かきまわし
かき集め
抜き差し
つまむ
搔き消さ
搔き消え
##よくば
サーバー
ラインナップ
見下さ
くるりくるり
##じゃら
ぐるみ
取り戻さ
##ウンサー
どん底
どんぶり
ギャグ
フラワー
んーと
ふるわ
ふるまう
ゴミ拾い
ふらつく
ジュニア
背負わ
はたはた
アウトレット
ノーパソ
冷やさ
食い気
食い込ん
ドウタ
##かえり
バックレ
バックアップ
レシート
スピリチュア
溢れかえっ
聴き取れる
追いつける
##まじい
ひっつい
素晴らしく
めんどい
イヤー
聞けよ
薄暗かっ
ブレンド
抑え込ん
混じり合う
レコーダー
しかめ面
クスリ
ナイアガラ
空き箱
空き瓶
コールド
ドライヤー
恐れ入る
嚙み締める
嚙み砕い
包み込む
斜め後ろ
明け透け
グラデーション
垂れこめ
名乗ら
うなじ
ポジショ
寝転び
寝転がり
呑みこん
ハードカバー
ドラマティック
ひっくり返さ
ゆるり
刺し貫
フレア
勤め人
ぱちぱちっ
ぱちぱちぱち
あわよくば
ウォッチ
したたか
憐れま
モノローグ
不可抗
しらけ
ふさふさ
フリーズ
うろ覚え
しんみり
ジェンダー
スパゲ
スパイラル
ビジター
ひょいひょい
エスコート
##ato
##atic
覆いかぶ
たたずむ
アナロジー
アナウンサー
イケる
イケア
沈み込む
きゅきゅっ
亡くなり
差し掛かろう
##チャン
ほったらかし
パラレル
パラパラ
狙い澄まし
降り注ぎ
まんべん
バッハ
ボディー
##キュラム
塗り替え
トイレット
ちまおう
ツッコん
ハムスター
くわん
らしから
ビビり
味わえ
引け目
散らばり
見抜く
引き結ば
しゃがみ込み
しゃがみこむ
ごみ捨て
こだま
すすすっ
##ウェー
たじろぎ
ったらしい
訴えかける
すくま
セレブ
セレクト
隣り合っ
クロテッド
窺い知る
ビジネスマン
どーぞ
ふざけん
ぶらつい
ぶら下がっ
ランゲージ
あったか
やむなし
刻み込ま
喜ばしく
掘り出し
掘り下げ
見出ださ
飼い慣
生き残り
こわばり
生え際
つるつる
ねじ伏せる
はじめて
浮き輪
食いつく
いじまし
いじらしい
ぬるま湯
トランペット
込み入っ
ビジネスライク
ぷっつり
ほいほい
囁き合う
テンゴ
及ぼさ
2023
つんつん
ピックアップ
名残り
導き出そう
見透かす
##バリバリ
##ory
##ort
うれし
でっちあげる
凍りつか
口ずさむ
エスカレート
むずむず
オートバイ
ターキー
タータン
がんばる
二の句
すれちがい
いとこ
いとも
こすりつけ
ぼやき
もてあ
もてなす
カツカツ
カツアゲ
ガイドブック
磨き上げ
錆びつい
カテゴリ
ゆうべ
バラバラ
バラエティ
メロス
断ち切ら
湧き出
おもちゃ屋
あやしい
うすうす
どよーん
どよめい
植えつけ
植え込み
照り焼き
重なり合う
##ニコフ
ファイリング
ファイナル
トレース
恨めしい
痛めつける
見いだし
おさげ
おさまっ
つむる
リスニング
リスペクト
咲き乱れ
揚げ物
##ショナル
すき焼き
エキス
カリキュラム
余り者
出向く
嗅ぎつけ
延びる
当てはめ
まなざし
やわらか
やわらかい
コロッケ
伊達巻
編み物
切り替わり
切り替わる
ほころび
めぐめ
浴びせかけ
メロディー
でっかい
コネリー
シーリング
織り交ぜ
請け負
##チョコ
バスケットボール
キツい
タレント
擦れ違っ
むず痒い
かさかさ
たやすい
わたあめ
ヴァン
出迎える
有り難い
転がり落ち
生まれ変わる
遠ざけよう
すうすう
にじん
カレシ
サバサバ
セミロング
ポテチ
形作っ
形作ら
彷徨っ
薄ら笑い
取り囲ま
ざらざら
やかましく
よこす
よこさ
口ごもり
口ごもっ
野暮ったい
##special
張り巡らさ
割り振っ
カウンセラー
燃え尽きる
おごっ
しおらしく
そよ風
もろもろ
やせっぽち
テロリスト
不甲斐な
##ッハッハ
いちゃいちゃ
送り届ける
かき混ぜる
覆い隠さ
かぐや
にぎにぎ
ふくらん
ふくよか
アシスト
アームストロング
イキリ
オルゴール
サクッ
セロリ
セキュリティー
デフォルト
デフォルメ
ナルシ
ハーモニカ
日和っ
そろりそろり
sms
たこ焼き
へらへら
へたり込ん
へたり込む
ほとほと
アツアツ
バースディ
バースデー
レスポンス
咳き込む
素早い
見極める
引きはがす
巻き起こる
折りたたん
推し量る
short
なでなで
のどか
のめり
やくざ
アウター
バルーン
フランク
高鳴っ
降り積もる
コンプリート
かみ合っ
どやどや
なびか
ぱしぱし
急き立て
摘まむ
日の出
負い目
頼もしい
いい聞かせ
ちゃらちゃら
思い悩む
ひっつかむ
しなだれかかる
パーソナリティ
うだうだ
こたえる
へいき
ろうそく
アパレル
インチキ
エモエモ
スズメ
テンプレ
テンパっ
ラムネ
ラベンダー
呻き声
散り散り
明くる日
水溜り
築き上げ
覚束ない
足搔い
選り好み
##ikawa
ちゃちゃっ
ふっふっふ
食いしばっ
血なまぐさい
うすら寒い
ぐにゃり
しでかし
なけなし
ぬぐう
ぷしゅっ
エッセンス
エンタメ
シグナル
スライダー
ホウレン
ボーカル
ラテックス
代官山
吊るさ
寝泊まり
拠り所
木の葉
言い逃れ
言い澱ん
書き写す
突っぱねる
忌み嫌っ
lov
lunatic
story
いぶかっ
えんじぇる
ごりごり
ちゅるちゅる
ひでぇ
アキレス
コイバナ
ジョンレノン
タメ口
ホシミュ
千代田
口籠っ
慣れ親しん
書き連ね
おおきな
抱き着か
##ッショナル
心地良い
ぶっ壊れ
フェスティバル
オリエンテーリング
ヴァイオリン
sugaru
すがすがしい
dpe
horse
hayato
miaki
あらすじ
いずこ
うぇーい
おせち
おどろおど
お下げ髪
がじがじ
きびきび
ぎすぎす
ぐちゃぐちゃ
こちとら
したり顔
ずかずか
ずけずけ
ずたずた
ちくたく
どばどば
にじみ出
のほほん
びりびり
へなへな
ほくそ笑
ぽたぽた
めそめそ
りょーかい
ケルプ
ゴスペル
ゴージャス
シーフード
タンデム
デバイス
ピコピコ
ヘミングウェイ
ペルセウス
ボヘミア
ポピュラー
メアド
モラトリアム
ランジェリー
レパートリー
レクリエーション
レッスン
丸ノ内
十二分
執り行
大慌て
嫌がらせ
尻すぼみ
居たたまれ
断末魔
板挟み
横殴り
気だるい
浅はか
相づち
程遠く
種明かし
道玄坂
雨漏り
青少年
青褪め
食いっぱ
ひとかけら
プロフェッショナル
ステータス
アドベンチャー
スピリチュアル
ポジショニング
60
96
atm
bw
dna
et
gh
gx
hh
id
ins
mikawa
rx
tr
to
um
win
www
あし
あか
あおり
あちゃ
あたま
あやし
あぶれ
いれる
いけれ
いがみ
うご
うぬ
うふ
うなる
うじゃ
うだる
えもん
おひ
お偉
おぅ
かば
かげ
かも
かぞ
かくし
かちこち
かげん
がな
がば
きび
きたし
きつめ
ぎみ
ぎしっ
くくり
くうき
ぐん
ぐだ
ぐず
ぐらり
ぐしゃぐ
げらげ
げほっ
こげ
こしら
こっきり
こんど
こぶし
こねる
こつり
こざっ
ごわ
ごふ
ごろっ
さか
さむ
さた
さわり
さくり
さーっ
さわい
さかん
さぼっ
ざらっ
しけ
しと
しらす
しこり
しあわせ
しがない
じと
じかん
すし
すえ
すこ
すば
すかっ
すやす
ずばり
せび
せがま
そな
そーっと
そらさ
ぞい
ぞくり
ぞわっ
たべ
たゆ
たが
だせ
だみ
だらっ
だだっ
ちまい
ちぎれ
ちっちゃい
っぺ
っしゃっ
つね
つゆ
つば
つたっ
つぐむ
つぐみ
づらか
でく
でーん
とお
どさり
どどん
なご
なの
なめる
なぶら
にま
にがて
ぬけ
ぬめ
ぬるい
ねこ
ねじり
ねだら
ねっとり
はけ
はさ
はから
はしっ
ばあっ
ひん
ひだ
びっ
びん
ぴょ
ぴゅ
ぴょい
ふあ
ふち
ふて
ふみ
ふや
ふあっ
ふるい
ぶき
ぶた
ぶっこ
ぷつり
へろ
へた
へぼ
へこむ
へたくそ
べと
べっとり
ぺたん
ほし
ほえ
ほぉ
ほっぽ
ぼり
ぽたり
ぽーっ
ぽそり
まとう
まわさ
まんじ
みや
みたく
みっちり
みだり
むい
むう
むわっ
むろん
めど
めっぽう
めぼしい
もぉ
もどき
ゃっと
やし
ゆで
ゆがめ
よじ
らら
わさ
わたり
わしゃ
アト
アロ
アボ
アット
アイン
アンク
アテン
アッパー
アウェイ
アウェー
イジ
イモ
ウミ
エジ
オランダ
カバ
カオ
カラン
カエル
カトリック
ガル
ガッ
ガレ
ガサ
ガテン
キマ
キョン
キリッ
キッズ
ギョ
ギタ
クク
クジ
クスク
クッソ
グレート
ケイ
ゲロ
ゲンドウ
コサ
コポ
コマー
コイツ
サナ
サダ
サンプ
サボン
ザッ
ザザ
ザック
ザイモ
シア
シック
シーム
シルク
シガー
シニカル
ジー
ジーン
ジンクス
ジンジャ
スウ
スイス
スワン
セパ
セーブ
ゼン
ソルト
ソーイング
タチ
タネ
タクト
タマネ
タンバ
ダル
ダラ
ダックス
ダンガ
チル
チワ
チーター
チカチ
ツバ
ツケ
テニ
デリカ
デモン
トス
トライ
トロン
ドカ
ドロン
ドタバタ
ドンドン
ナメ
ナビ
ナーサ
ニチ
ニャン
ヌル
ヌード
ノイ
ノア
ノゥ
ハネ
ハンター
ハニー
ハスキー
ハハハ
バチ
バク
バズ
バッチ
バンガ
バブル
バトン
バージョン
パカ
パプ
パセ
パシャ
パパン
パリッ
パンドラ
ヒミツ
ビンゴ
ピエ
ピーチ
ピクリ
ピリッ
フゥ
フハハハハ
ブー
ブス
ブティック
ヘリ
ヘッジ
ベク
ベント
ベター
ペリー
ホス
ホック
ボサ
ポイ
ポル
ポエ
マッド
マルク
マーフィー
ミミ
ミイラ
ミディア
メシ
メス
メソ
メイト
モザ
モク
モット
モーション
ユース
リリ
リソ
リベ
リース
リンス
リゾート
ルミ
レポ
レノン
レトロ
レクチャー
ローン
ローション
ロケーション
ロジカル
ンな
ヴォ
ーズ
一席
一風
一動
一味
一読
一大
一堂
一座
一丸
一途
一族
一夫
一蓮
一縷
一倍
丁度
万引き
三和
上乗
上流
上海
上旬
上ずっ
下々
下劣
下級
下層
下唇
下段
下ごしらえ
不文
不当
不乱
不整
不治
不貞
不憫
不協
与太
与党
両軍
並々
中三
中盤
中世
中曽
丸裸
主題
久しい
久しく
乱し
乱す
乱立
亀裂
二口
五感
五角
五平
些末
交配
交響
人け
人参
人込み
人集め
介し
仏頂
仕上がっ
仕分け
仕切ら
他界
付さ
仙人
代謝
仮病
仮想
任期
任命
休止
休息
休もう
伝い
伯父
似あう
低能
住ま
何人
何千
余す
余儀
作画
作為
佳奈
使者
供え
便乗
俗説
俗世
保冷
保湿
修辞
倒木
値札
偉人
偏屈
健闘
健やか
側頭
偽る
偽善
傘立て
働ける
僥倖
僭越
僻み
僻地
先述
先触れ
克明
入室
全裸
全能
全長
全知
全霊
公的
共倒
共産
兼ねる
内包
冊数
再三
写す
冠婚
冬枯
凄み
凌駕
凍える
凜と
処方
凪い
出鼻
出費
出世
出回っ
出張っ
出どころ
出掛ける
出まかせ
分断
切な
刈ら
判子
別離
利点
制球
刻々
削げ
前科
前屈
剝く
剝げ
剥き
剥がす
創設
加齢
動ける
勘づい
募り
勤続
包囲
包まっ
北側
千羽
半島
卑下
卓袱
南西
南米
博識
占領
印税
危な
危なく
卵形
厭う
厳しかっ
去来
参る
参画
反ら
反吐
反らす
収束
収益
収納
口先
口髭
口答え
口添え
口下手
古参
古今
只中
右目
右膝
右往
右奥
右左
司令
合体
合える
吊っ
吊さ
吊革
同志
名門
名づけ
吐露
含蓄
告発
呑ま
周期
命じる
和ん
和服
和気
和音
和式
和らぎ
哀愁
哀しみ
哺乳
善処
喋ん
喋れる
喘鳴
喜べ
営む
嗚呼
噎せ
噓偽り
四隅
四阿
回せ
回帰
回覧
図る
図面
図星
図々しい
土手
土足
圧さ
在住
地動
地主
均整
埋まり
場内
塁打
塞がら
塞がり
塩分
塩梅
増幅
壁面
壁越し
声がけ
変異
夕景
外聞
外堀
外そう
多摩
夜長
大々
大目
大枠
大物
大粒
大ぶり
大の字
天空
天真
天邪鬼
太郎
太宰
失調
失点
奇しく
奢ら
奥ゆ
女々しい
好く
好機
始まれ
委託
姿かたち
嫁ぐ
子持ち
存ぜ
学園
守秘
安置
安酒
定まり
定まら
宛名
実写
室温
害し
害する
家中
家主
容貌
寄付
密会
密林
寒空
寒々し
寛い
寝覚
寝台
寝入っ
寝かせる
寝ころん
審議
射すくめ
小諸
小骨
小金
小粋
小食
小径
小降り
少量
尖り
尾ひ
尾ける
居れ
居た
居所
居丈
屈し
屈み
履か
履行
山下
山積み
岩山
巡礼
左足
左腕
左往
左肩
巾着
市街
布地
希う
席次
帰ん
帳消し
常夜
常駐
平屋
平時
平野
年々
年少
年期
年季
年越し
幻聴
幾ばく
広かっ
底本
店側
度重
座れる
廃村
建ち
引手
引率
引こう
強敵
強張る
弾圧
弾劾
当地
当校
当直
形相
彩る
影絵
往年
後列
後任
後付け
徒党
従わ
微風
心身
心強
心療
心的
心証
心酔
心置き
心苦しく
必需
念願
怒声
怖じ
怖気
思念
急く
急ごう
性向
怪奇
恐竜
恩師
恩返し
息吹
恵み
悪役
悪霊
悪党
悪ぃ
悲しかっ
悲しき
悶える
情欲
惜しみ
惣菜
惨事
愛せ
愛で
愛犬
愛娘
愛称
愛嬌
感づい
慇懃
慈しみ
慎ましく
慣らし
憂慮
憎め
憎らしい
憑き
憔悴
憤る
憧憬
憲法
懐か
戦々
戦法
戯れ
戻れる
所沢
所要
扇ぎ
扇ぐ
手痛
手腕
手繰
手薄
手打ち
手分け
手当て
手だて
手強い
払わさ
托生
扱える
批評
投じ
投下
抗う
抗争
抜擢
押せ
拒ま
拘っ
拝ん
拭け
拾おう
挙がる
挟まっ
振ろう
振舞う
捜さ
据える
据わっ
掃い
排気
掘っ
採寸
接戦
控室
推敲
掴もう
揉む
換え
換算
握れ
揺する
揺らさ
揺すり
損害
損なっ
搦め
搬送
搬入
摂っ
摩耗
摩擦
撃た
撒か
撤去
擬音
改良
改修
故人
救難
救える
教研
数列
数的
数千
数瞬
数珠
整頓
敵視
敵陣
文節
文明
文才
文壇
断面
新車
新撰
旅人
既製
日雇
早かろう
早歩き
易く
星明かり
春頃
時差
時空
晩婚
暴虐
曝け
曲目
曲者
曲折
曲がら
曲がれ
書房
最愛
月夜
月経
服飾
服従
朝っ
期せ
木星
未定
未然
末端
本校
本場
来場
来たる
東口
松戸
板面
枕詞
林立
架かる
根気
根深い
格子
格式
案出
案ずる
検事
楕円
業種
極々
極論
楽譜
楽団
模倣
模擬
権力
横っ
横暴
横山
横丁
横切る
機動
次善
正否
正対
武道
武将
歩ま
歩こう
歯が
歯並
死力
死人
死刑
残量
残像
残響
殺そう
母校
比翼
比率
毛色
毛皮
毛づ
気性
気色
気前
気球
気丈
気乗り
水た
水底
水科
水準
水晶
水切り
水飲み
氷点
氷解
永く
汁気
汗腺
汚物
汚らしい
沈着
没し
河原
治し
治安
沿う
法螺
泡立て
泳げ
洞察
流麗
浅ましく
浚っ
浮く
海中
海風
海賊
海峡
浸す
消臭
消そう
深見
深層
混ざ
混濁
渋面
減ら
減少
減らそう
渡れ
渡ら
渡ろう
温存
湯飲み
湾岸
源氏
源太郎
溶き
溶かす
溺死
滑走
演者
潔い
潜入
潤し
潤う
潤っ
潤み
激写
激辛
激論
激励
瀟洒
火薬
災難
炭水
炸裂
点っ
焚き
焚火
無さ
無下
無味
無粋
無我
焼酎
煤け
煩わさ
熟考
熱かっ
熾し
爆ぜ
爆睡
爛漫
父子
片道
片面
片腕
片腹
片思い
牡丹
物怖
物寂
物差し
物狂い
特質
特効
特許
特段
狛江
独力
独学
独善
狭量
猛然
献立
献策
玉子
球体
理非
琥珀
瑞々しく
甘口
甘酒
生け
生者
生態
生々しく
産業
由緒
申さ
申告
男装
町内
町並み
留置
留まら
畢竟
略す
異能
疎ましく
病前
病変
病衣
病弱
病める
痛まし
癒着
癒やす
発泡
発射
発掘
白々
白身
白目
白日
白かっ
皆目
皐月
監査
目算
目鼻
目移り
盲点
直撃
直角
直せる
相合
相方
相好
相関
真珠
着席
着衣
睦言
瞭然
短刀
砂利
砕い
破り
硬度
祈願
禁じる
私室
秋刀
秒殺
移ろっ
程よい
程近い
積む
積め
空ろ
空手
空笑い
空恐ろしい
突つき
立川
童顔
端緒
競っ
競馬
笑おう
等分
筋トレ
箱買い
節目
節制
節操
築か
築ける
篝火
簞笥
簡略
籠め
粉々
粗末
粘液
精巧
精緻
糠喜び
紆余
紙面
紛争
素面
素養
細菌
細やか
終り
終焉
終わん
結わえ
絡まっ
絢爛
統率
絵馬
絶する
続編
綽名
綿あめ
総毛
総量
総じて
締まっ
編ん
縁遠い
縁結び
繁盛
繋がら
繫げ
纏う
罹っ
罹患
羨む
老婆
聞けれ
聴ける
聴こう
肉付け
肋骨
肖像
肘かけ
肩幅
肩胛
胃腸
胃袋
背く
背広
背徳
胎内
胎盤
胡坐
能弁
脆い
脈打っ
脚色
脱落
腐れ
腕相撲
臆する
自学
自律
自惚れ
至上
至急
至難
舌鼓
舞浜
船橋
色素
色づき
艶めかしく
芋虫
芋づる
芸人
若人
苦行
苦闘
英文
英気
茨城
茶道
茶会
荒野
荒涼
荒らし
荻窪
葉面
葬祭
蒸気
薄暮
薄闇
薄氷
薦め
薬局
藤色
虫けら
蛇足
蛇行
螺旋
蟠る
血流
術師
街道
街頭
衣類
裁縫
裂い
装身
装幀
裏表
裏返っ
裏付ける
補講
補修
補習
補導
製造
褐色
褪せ
襲う
西口
西側
覆し
見回
見ま
見と
見限
見定
見繕
見咎
見納
見あげ
見どころ
見なす
見出せ
見込める
見捨てる
見落とす
見過ごす
見まね
視察
親和
親睦
解し
解析
解凍
言や
討議
記し
記帳
訝る
訝しく
設立
証書
評する
詠ん
詩的
誇っ
誓う
誠心
誤り
誤字
読破
調度
請わ
諫め
講演
講談
謳い
謳う
謳っ
議長
豪勢
負債
負える
財津
貧困
貪る
貰い
貰え
買取
買収
貸与
資源
賑わ
賑わっ
賞味
質量
賭博
赤茶
赤丸
赤錆
赦し
赴く
超す
超然
超絶
趣向
足先
足せ
足止め
跨る
跨り
踏め
蹂躙
蹲っ
躓く
車止め
転ば
転居
転嫁
軽量
辛口
辞典
辣腕
農法
迎合
近道
返本
迷信
追試
追おう
退路
退出
逃す
逆流
這わ
通達
通例
通せる
造語
連ねる
進出
進もう
遅らせる
運行
運輸
運搬
過た
道沿い
道連れ
達する
遠方
遡行
遭い
遮音
遵守
避雷
避妊
邪知
部数
部費
部門
郷土
配役
酒代
酒焼け
酒飲み
醍醐
采配
釈迦
重厚
重箱
重篤
重たく
重なら
量産
金持
鈍る
鉄製
鉛色
銃把
鋭敏
鋭かっ
鋼鉄
錬磨
鏡台
長き
長老
門外
開票
開こう
闇雲
防い
防止
阻害
降水
降ろす
陰影
険しく
陽性
階数
階層
随時
障壁
隣接
集い
集っ
雇われ
雌雄
難色
難航
難なく
電流
霊長
霊枢
青山
非道
靡い
面目
靴底
音階
頃合
預かり
頰張る
頼ろう
頼もう
題し
顕示
願え
顛末
風雨
風当たり
食らう
飯盒
飼育
養分
餌付け
饅頭
饗宴
首輪
首相
駅名
骨子
高し
高尾
高名
高潮
高所
高説
高値
高津
高架
高ぶり
髪形
鬼門
鬼ごっこ
鳥取
鳥肌
鳩尾
黄体
黒猫
黒塗り
黙れ
黴臭い
##いい
##かかろう
##イェ
##イザー
##ヤン
##あん
##あえる
##うじゃ
##ナマ
##ナイト
##キシャ
##キサー
##ウー
##ウオ
##シカル
##シニコフ
##きゅ
##べて
##べそ
##ーシ
##ーと
##ーに
##ーネ
##ーショナル
##カド
##カス
##カフェ
##カライズ
##トリウム
##ざく
##すべ
##すー
##むり
##むしゃ
##っぴ
##ったく
##っ張り
##ちま
##ちくり
##ち上げ
##こき
##こざ
##ここ
##こら
##こっち
##こすり
##けりゃ
##よれ
##まぎ
##どっ
##どおり
##くどく
##ほわ
##ママ
##マジック
##テイン
##テスク
##テマチック
##ッフェ
##ッテン
##ッカチ
##ドー
##ドブ
##ドロ
##ぐつ
##ぐだ
##ぐず
##バチ
##引い
##ブラ
##ロンチ
##ロイド
##ロッパ
##ムーン
##ザード
##たかく
##ho
##てこ
##んで
##ばれ
##ばそう
##げほ
##上がろう
##上がれる
##がめる
##がましく
##そか
##その
##チラ
##アリ
##退い
##止む
##悪し
##パイ
##パサ
##だそう
##フン
##レム
##スチャン
##ワシ
##ワラ
##ワッサ
##ワナビ
##ボコ
##晒し
##サン
##おち
##おろす
##おにぎり
##やたら
##ニャ
##ニク
##ニズム
##モテ
##ソリ
##ソメ
##ソール
##ゅー
##のし
##のび
##の目
##のける
##放っ
##余っ
##ぜよう
##ゼル
##ゼミ
##ゼズ
##ぶち
##着き
##ぼる
##it
##io
##iop
##da
##day
##払え
##ベタ
##ベス
##ベリー
##ネギ
##ネーズ
##87
##ぷし
##ダイ
##ダラ
##ダダ
##高く
##デミー
##ps
##ビュア
##直せ
##ノロジー
##当たる
##づくり
##va
##プロ
##プリ
##プター
##進ん
##ギス
##ギギ
##30
##潰れ
##ひく
##ひや
##ぱく
##へろ
##へん
##へつらっ
##ぴち
##ぴく
##ぴどく
##ぴきゃ
##bc
##消そう
##jp
##使い
##ふつ
##敷き
##解ける
##ホイル
##ペリ
##ペラ
##曲がっ
##ぺこ
##ぺがし
##固め
##残る
##崩す
##ld
##備え
##食っ
##win
##泣く
##撫で
##狩り
##迎え
##惜しみ
##纏め
##ヘン
##堪れ
##吊り
ことわざ
ことこと
ようじ
もの好き
もの思い
できごと
この方
ならし
ならい
ちゃち
あっつい
くれぐれ
そこここ
ちょろい
考えつい
考え出す
考え込み
考えつく
考え直す
考えだす
言葉遊び
言葉づかい
##しくら
思いつける
思いこん
思い起こ
言い抜け
言い当て
言い返さ
言い捨てる
言い知れ
言い残す
ままごと
ひとたび
あの世
あれれ
まだら
かけろ
かけ算
##ットル
取り皿
取り入れる
取り入る
取り分ける
取り払わ
取り持つ
取り纏め
一人客
うんぬん
とっつき
たくましい
立ち塞
立ち襟
立ち回っ
立ちあがる
立ち消え
立ち向かう
受け皿
振り替え
振り払い
振り振り
振りまい
振り回す
振り払おう
見つかれ
##ップラー
仕事柄
仕事帰り
浮かし
浮かさ
やりくり
やり過ご
おかさ
まっさき
向けよう
一緒くた
引き入れ
引き出さ
引き分け
引き払っ
引きとめ
引き抜い
引き継ぐ
落ち度
落ち込ま
落ちぶれ
##ージング
食べれ
食べれる
始めれ
入れ直す
入れ替える
つけ足し
すれすれ
通りがかり
通りすがり
さらす
##ストン
##ストレーション
生き死に
覚えろ
押し戻
押し頂
押し返す
押しやる
##ティーン
聞き漏
聞き及
ちらつき
互い違い
すべすべ
見せれ
こっち側
立て看
上げよう
とりあげ
打ち所
打ち上がる
打ちひし
打ち切ろう
打ち鳴らす
打ち解ける
持ち前
持ち上がる
持ち出せ
持ち去ら
忘れ去ら
なーく
決めよう
決め打ち
決めこむ
くだり
くだけ
行きつけ
差し替え
差しだし
差しかかっ
差し出せる
差し引い
流れ出る
##ただし
尋ねれ
いきさつ
みずがめ
入り乱れる
切り込ん
切りつける
切り詰め
切り出せ
しまいこん
クリップ
読み耽
読み直し
読みとっ
読み取ら
読み違え
読み取ろう
読み解け
シャキシャ
離れろ
離れれ
疲れ目
買い漁
買い上げ
買い取り
買い足し
買い揃え
付き合わ
つくれ
引っかから
書き手
書き出し
書き残し
書き割り
歩き回り
歩き去る
降りよう
呼び合っ
呼び寄せ
呼び止める
やすかろう
やすやす
まとまる
##しゃん
##しゃーい
コンソメ
繰り言
繰り回し
繰り返せ
求めよう
終わり頃
終わりかけ
振るわ
問いただし
すっぽん
おおー
おおせる
たまーに
きりり
踏み出さ
踏みしめる
踏み消し
踏み越える
##レーカー
ジャッジ
生まれ変わり
申し上げる
追いす
追い出す
追い抜い
見つけよう
ストリ
ストーンズ
ストイック
しっかり者
当てつけ
待ち受ける
ひょこっ
飛び乗
飛び出す
飛び込み
飛びつき
飛び回っ
飛び越え
飛び起き
飛び散っ
アイアン
しゃらく
しゃなり
しゃしゃり
しゃがむ
落とし込む
いわれ
かえっ
作り替え
ひとりでに
ひとり暮らし
触れれ
触れあい
はぁーっ
探し出し
探し出そう
探し求める
なおさ
慌てふた
連れ込ん
さておい
つきっきり
撫でさ
撫でつけ
握り合っ
握り返す
突き当たり
突き飛ばさ
吐きだし
吐きだす
調べ上げる
やれれ
駆け上
駆けつける
駆けこん
駆け引き
駆け回り
駆け回っ
駆け戻っ
フォア
フォッカチ
吹き込ま
吹きだし
抱き合う
抱き留める
てんてん
ぽつねん
だらん
だらーっ
ブラフ
ブラッシ
ブラインド
スポンサー
突っ走る
リアリスト
リアリティー
幸せ者
チャールズ
負け惜しみ
サイヤ
サイダー
上手かっ
座り込む
切れ端
アルト
着替えよう
掛け算
掛け値
##ナーレ
無駄話
無駄骨
助けよう
助け合う
向かいあっ
##っちゃか
ペンキ
動かせる
組み分け
##んどう
漏れ出し
捨てよう
捨て去っ
捨て台詞
せっかち
パーフェクト
詰め込ま
##イクル
使い途
使い分ける
フェイント
誤魔化さ
盛り場
盛り込ま
もたれる
張り切っ
隠し事
隠し持っ
巻き髪
巻きつい
まちまち
そちら側
借り物
滑り込み
滑り止め
わりー
投げ出さ
投げ捨て
ステーキ
わーい
ウェルカム
残り物
焼き立て
焼きあがっ
つぶれ
泣き崩れ
浴びせる
プリティ
任せよう
押さえつける
ふつつか
ふつふつ
スペル
スペイン
だしぬけ
控え室
送り返し
送り合っ
送り迎え
問いかけよう
かかわり
見渡せる
あえか
叩き込ま
叩き潰し
重ねれ
しょうが
並べ替え
バーボン
割り切れ
折り重
折りあい
こんがり
死に際
睨み合い
睨み返す
走り寄っ
走り抜ける
チェックポイント
インフル
追っかけ
すんごい
目指さ
勝ち組
集めよう
スイング
ハイソ
締め括
ワンピ
迎え入れ
##シャイン
よそい
馴染める
ひた隠し
フィナーレ
メリクリ
ローリエ
ローゼズ
トラップ
間にあい
間にあわ
しゃべれ
売り物
売り上げ
コンビーフ
鳴りやま
いざこざ
下り坂
ミスター
キャラメル
きゃん
きゃぴきゃ
アップル
待たさ
あてこすり
晴れ間
結び合わせ
かわいく
かわいそ
かわいらしく
かき回し
かき乱し
ばっくれ
抜きんで
スクーター
搔き集め
搔き消す
独り立ち
うつ伏せ
ぎりっ
捉えどころ
おもい
カラシニコフ
あっちこっち
マシーン
システマチック
とらわれ
ふるえ
ダイブ
噛み合っ
噛み締める
噛み殺す
噛み砕い
洗い流さ
真ん前
隠れよう
ざわめい
##クトリア
シュガー
不幸せ
はたして
食い違っ
##がえし
辿り着け
mack
フロイト
溢れ出し
うんざり顔
まじき
ひっぱり
素晴らし
素晴らしかっ
関わり合う
サンデー
働きかけ
働きかける
支え合う
混じりけ
混じりあっ
よれよれ
ハンコ
ハンディ
分け隔て
2018
しゅぱ
しゅるし
つなが
サウンド
おかしみ
シェー
恐れおの
メリッサウー
嚙み殺す
運び去ら
ギリシャ
包み紙
訊きかえす
はてさて
頼み込ん
グラビア
垂れ下がる
思い当たら
うなされ
ブランク
##起こっ
アドバイザー
溶け出し
忙しない
フリペ
脱ぎ捨てる
浮かびあがっ
きらん
忍び寄る
思い至ら
釣り銭
したた
懐かしかっ
責め立て
ハマる
貼りつき
ぎこちな
くしゅ
ふさが
ウザく
フリーダム
吊り上がっ
吊り下げ
もたれかかり
うろつき
しんしん
カットソー
ジェフ
##ッタリ
ごまかせ
ツイード
ツイスト
エンジニア
クレヨン
こんにちはー
のぞく
たどり着き
スリーブ
進み出
たたき
ひきつら
ぶち壊す
イケイケ
ネコ耳
今朝方
沈み込み
沈み込ま
踏み入れよう
這い上がっ
差し掛かり
くさかっ
ひとところ
マルボロ
引き上げよう
うら若
えへん
かしげる
##スタント
ウインドウ
ウインドブ
バッファ
浴衣姿
##くろい
ウィンド
塗り壁
塗りつぶし
塗りたくっ
絶え絶え
ファンシー
ファンディング
ちまちま
クイズマジック
マスキング
混みあっ
イラっ
##クリスチャン
引き結ぶ
にくかっ
ブロンド
据え置き
後ろめたく
こだわっ
ちんこ
メガホン
土産物
酔いしれ
プラトン
去りゆく
愚痴る
愚痴っ
突っ伏す
つくりもの
セレクション
届け出
注ぎ込む
注ぎ足し
隣り合わせ
クロワッサ
ワイパー
入り混じる
こっぴどく
イエロー
エロ本
スコープ
ホットケーキ
蹴り上げる
零れ落ちる
##シュギ
おどける
哀れん
哀れみ
掘り出さ
飼い犬
開け放さ
こわごわ
ミュール
兼ね合い
兼ね備え
濃いめ
生み出さ
縮こまり
##erel
##ストラクト
積み重なっ
うずたかく
こまねい
ねじ込む
ねじ伏せ
はじい
はじけ
クローズ
ブレーカー
凍てつか
